@@PADDING@@	0
@@UNKNOWN@@	0
@start@	0
@end@	0
▁,	-2.81889
▁.	-3.16542
▁und	-3.82981
en	-3.85411
▁die	-3.8905
s	-4.10673
n	-4.10923
▁	-4.30567
▁sie	-4.30825
▁das	-4.35853
▁der	-4.37196
▁ich	-4.40004
▁ist	-4.50253
▁in	-4.52697
▁wir	-4.55138
▁es	-4.5674
e	-4.57032
▁zu	-4.59592
▁ein	-4.85443
▁&	-4.92569
;	-4.92811
t	-4.94587
▁eine	-4.99896
quot	-5.03694
▁von	-5.09675
▁nicht	-5.12897
▁diese	-5.14018
▁dass	-5.1672
▁den	-5.1919
▁mit	-5.2607
▁auf	-5.29046
▁wie	-5.37352
r	-5.45288
▁an	-5.46502
m	-5.4903
▁sich	-5.53698
▁man	-5.54353
-	-5.5592
▁sind	-5.58761
▁für	-5.59369
▁aber	-5.59416
▁wenn	-5.61581
▁:	-5.61596
▁so	-5.6163
er	-5.61982
▁haben	-5.62711
▁er	-5.62781
▁was	-5.63121
▁?	-5.66639
▁als	-5.72516
▁um	-5.74218
▁war	-5.7481
▁aus	-5.85516
▁im	-5.86818
▁dem	-5.95301
▁also	-6.00762
▁über	-6.01453
▁uns	-6.04297
▁können	-6.08662
▁hier	-6.11282
▁oder	-6.12981
▁werden	-6.1491
▁einen	-6.15675
▁des	-6.16028
▁hat	-6.17827
▁kann	-6.23108
▁–	-6.24952
▁auch	-6.27573
▁einer	-6.28856
▁dann	-6.31976
▁einem	-6.33067
▁sehr	-6.33225
▁vor	-6.35265
▁etwa	-6.3552
▁nach	-6.3578
▁wird	-6.37172
▁nur	-6.37412
▁sein	-6.38158
▁menschen	-6.41249
▁da	-6.42432
▁ihre	-6.43136
▁gibt	-6.44824
▁ihnen	-6.45568
▁mich	-6.45874
es	-6.49561
▁meine	-6.50038
▁sehen	-6.53125
▁--	-6.56245
▁bei	-6.58209
▁noch	-6.58709
▁habe	-6.58747
te	-6.61269
▁mir	-6.65027
▁welt	-6.65913
▁alle	-6.68964
d	-6.68994
ung	-6.70302
▁mehr	-6.70357
▁durch	-6.74698
▁unsere	-6.75859
▁ihr	-6.75986
▁weil	-6.80298
▁leben	-6.80494
▁wirklich	-6.81341
st	-6.82671
▁würde	-6.82907
▁wurde	-6.83669
▁nun	-6.8467
▁zum	-6.85288
▁ver	-6.86137
▁machen	-6.86611
▁keine	-6.8771
▁wo	-6.90102
▁am	-6.90665
k	-6.91546
▁viel	-6.91817
▁ge	-6.92904
▁immer	-6.93506
▁andere	-6.9451
▁dies	-6.96664
▁tun	-6.96953
▁-	-6.97082
▁wissen	-6.97336
.	-6.98161
▁jetzt	-6.99323
▁be	-6.99418
▁zeit	-6.9992
▁dinge	-7.00298
▁sagte	-7.0079
▁bis	-7.01633
▁hatte	-7.01985
▁zwei	-7.03669
▁viele	-7.04062
▁ab	-7.04391
▁du	-7.05085
▁einfach	-7.05762
▁leute	-7.06772
g	-7.0812
▁selbst	-7.10522
in	-7.13441
ten	-7.13708
▁sagen	-7.14007
▁art	-7.16195
▁bin	-7.16249
b	-7.17693
▁mein	-7.19206
▁müssen	-7.20766
▁alles	-7.22309
▁denn	-7.23077
▁jahren	-7.2323
o	-7.24619
l	-7.25648
▁waren	-7.26575
▁ganz	-7.26814
▁damit	-7.27263
▁anderen	-7.27398
▁mal	-7.27968
▁wieder	-7.29196
▁gut	-7.29343
y	-7.29862
▁vielleicht	-7.30158
▁seine	-7.31062
▁ob	-7.31512
▁diesen	-7.3301
▁zur	-7.34506
▁ja	-7.34671
▁jahre	-7.36377
▁unter	-7.36777
▁geht	-7.38298
▁all	-7.42866
▁einige	-7.43502
▁muss	-7.43593
h	-7.44985
▁schon	-7.46778
▁kinder	-7.47042
▁warum	-7.47093
▁möchte	-7.4881
▁drei	-7.48868
▁tatsächlich	-7.48959
▁macht	-7.49122
f	-7.49874
▁kleine	-7.51316
an	-7.52596
▁geschichte	-7.52646
▁welche	-7.53016
▁konnte	-7.53135
apos	-7.53986
z	-7.54678
▁genau	-7.56378
▁davon	-7.57034
▁dort	-7.57867
▁zurück	-7.5801
▁weg	-7.59254
ser	-7.59661
▁weiter	-7.60809
▁könnte	-7.6201
ge	-7.62249
▁zusammen	-7.62752
▁kein	-7.62803
▁denken	-7.62841
▁teil	-7.62899
▁paar	-7.63836
dem	-7.64184
▁ihn	-7.64626
▁je	-7.65239
▁darüber	-7.65464
▁werde	-7.6573
▁jahr	-7.65803
▁hatten	-7.65805
▁s	-7.6607
de	-7.66589
ig	-7.66873
▁un	-7.67578
▁ganze	-7.68344
▁lassen	-7.68678
lich	-7.69035
▁gehen	-7.69036
▁problem	-7.6937
▁wollen	-7.70211
▁beispiel	-7.70261
ä	-7.70399
be	-7.72493
▁nie	-7.7352
▁weiß	-7.73831
w	-7.74187
▁während	-7.748
▁meiner	-7.75687
▁natürlich	-7.75731
▁wollte	-7.76
den	-7.76072
sch	-7.76084
▁jeder	-7.76245
▁neue	-7.77088
▁gab	-7.77503
▁dazu	-7.78216
▁denke	-7.7825
▁kommen	-7.78328
heute	-7.78351
u	-7.78688
▁wurden	-7.79527
▁wäre	-7.79634
a	-7.80027
▁land	-7.80115
▁große	-7.81296
em	-7.81625
▁vom	-7.81732
zu	-7.81857
▁jemand	-7.81859
▁sondern	-7.82173
▁unser	-7.82216
le	-7.82302
▁frage	-7.82704
▁sogar	-7.82807
▁zwischen	-7.82883
▁gemacht	-7.83214
ht	-7.8348
▁glaube	-7.83573
▁unserer	-7.83793
▁gerade	-7.84346
ter	-7.8441
re	-7.84572
▁erste	-7.85126
▁hätte	-7.85386
▁tag	-7.85391
▁doch	-7.85671
▁sagt	-7.85902
▁will	-7.86078
▁finden	-7.87234
▁ohne	-7.8737
▁einmal	-7.8747
p	-7.87865
▁geben	-7.88467
sten	-7.88704
▁prozent	-7.89399
▁ging	-7.89446
▁arbeit	-7.89555
▁heraus	-7.89811
▁ihrer	-7.90805
▁ersten	-7.90873
▁dafür	-7.91393
▁wasser	-7.91819
▁kommt	-7.93079
▁jede	-7.93298
▁passiert	-7.93877
▁zeigen	-7.9396
ste	-7.94587
la	-7.95972
ver	-7.96169
c	-7.96239
▁verstehen	-7.9631
▁sch	-7.98346
▁daran	-7.98673
▁geld	-7.98859
▁eigene	-7.99386
▁meisten	-7.99625
▁millionen	-7.99685
i	-8.00212
▁hin	-8.0023
▁pro	-8.00705
▁idee	-8.00774
▁bild	-8.01024
▁dachte	-8.0191
▁wichtig	-8.02539
▁gehirn	-8.0261
▁besser	-8.02641
▁sollte	-8.03224
keit	-8.03246
▁dabei	-8.03571
▁;	-8.03678
▁nehmen	-8.04332
▁stellen	-8.0437
▁letzten	-8.04423
schen	-8.05691
▁vier	-8.05767
▁ende	-8.06654
▁ziemlich	-8.067
▁möglich	-8.0731
▁daten	-8.07352
▁ent	-8.07478
▁könnten	-8.08162
▁eigentlich	-8.08659
▁vielen	-8.08757
▁frauen	-8.09706
us	-8.10104
ie	-8.10244
ern	-8.10723
el	-8.10765
▁arbeiten	-8.10793
▁kam	-8.10824
▁k	-8.11597
iert	-8.11989
▁fragen	-8.12052
▁sprechen	-8.12075
▁grund	-8.12204
▁sollten	-8.1224
al	-8.12361
▁bekommen	-8.12395
▁darauf	-8.13404
it	-8.13503
▁lebens	-8.13845
▁verschiedene	-8.15343
▁seit	-8.15619
▁gegen	-8.15805
et	-8.15896
▁gleich	-8.16023
heit	-8.16588
▁bedeutet	-8.16721
▁raum	-8.16906
▁technologie	-8.17231
ur	-8.17445
▁gute	-8.17512
▁fünf	-8.18342
▁nichts	-8.19149
▁dollar	-8.19184
ieren	-8.19681
▁weniger	-8.19823
ische	-8.19895
▁re	-8.19967
▁20	-8.2021
▁sache	-8.20216
ma	-8.20263
▁energie	-8.20567
▁weise	-8.21048
▁computer	-8.21301
▁b	-8.21353
ö	-8.21486
▁wahrscheinlich	-8.2169
▁10	-8.21814
um	-8.21899
rum	-8.22257
ar	-8.22496
▁heiß	-8.22524
0	-8.22559
on	-8.22863
▁lernen	-8.2325
▁glauben	-8.23368
▁bringen	-8.23466
▁menge	-8.23662
▁zeigt	-8.23938
▁richtig	-8.24003
▁danke	-8.24027
kt	-8.24572
as	-8.24744
▁hoch	-8.25355
▁begann	-8.25492
▁ihm	-8.25687
▁co	-8.25825
erweise	-8.26196
▁sicher	-8.26645
▁gesehen	-8.27168
▁meinen	-8.27351
▁möglichkeit	-8.27435
▁c	-8.27852
▁wissenschaft	-8.27946
▁großen	-8.28057
▁jedes	-8.28198
der	-8.28394
pf	-8.28512
▁brauchen	-8.28969
ik	-8.29206
liche	-8.29644
▁her	-8.29825
▁sei	-8.29852
▁heut	-8.30156
▁seite	-8.3023
▁licht	-8.3034
▁körper	-8.30711
li	-8.3078
▁zukunft	-8.31295
▁versuchen	-8.314
ungen	-8.32365
▁...	-8.32577
▁information	-8.3262
▁schnell	-8.32987
ischen	-8.33126
▁nein	-8.33131
bar	-8.34355
▁lang	-8.3589
▁jeden	-8.36078
▁musste	-8.361
▁wenig	-8.36288
▁funktioniert	-8.36337
▁person	-8.36509
▁wer	-8.36572
ro	-8.36756
▁frau	-8.36818
▁einzige	-8.36918
▁beide	-8.37608
▁a	-8.3767
▁erde	-8.3767
▁system	-8.37726
▁unseren	-8.37914
▁später	-8.38012
▁ort	-8.38239
wohl	-8.38258
▁beim	-8.38368
▁nutzen	-8.38453
isch	-8.38508
▁gern	-8.39092
ch	-8.39334
▁lange	-8.39338
ck	-8.39478
▁f	-8.39685
gen	-8.39891
▁weit	-8.40222
▁fast	-8.40448
▁natur	-8.40742
▁fall	-8.40747
▁st	-8.41129
▁gesagt	-8.41375
▁kind	-8.41493
mals	-8.41801
▁z	-8.41823
▁form	-8.42035
ra	-8.42364
▁seiner	-8.4286
▁schaffen	-8.42922
▁p	-8.43157
▁essen	-8.4331
▁hand	-8.4335
ing	-8.43543
▁mutter	-8.43858
▁anfang	-8.44633
▁buch	-8.45142
▁ungefähr	-8.45743
▁neu	-8.46174
ul	-8.46175
▁liebe	-8.47183
▁anders	-8.47361
her	-8.47555
▁schauen	-8.47888
▁stadt	-8.47917
▁oft	-8.48167
▁entwickelt	-8.48232
ha	-8.48555
▁na	-8.48889
▁probleme	-8.48917
▁projekt	-8.49657
il	-8.49813
▁moment	-8.50033
▁dank	-8.50793
▁design	-8.5088
einander	-8.51043
chen	-8.51287
▁internet	-8.5152
▁spielen	-8.51913
▁afrika	-8.51948
▁ted	-8.5204
or	-8.523
▁w	-8.52351
▁recht	-8.52673
▁helfen	-8.52836
▁klar	-8.52895
▁besonder	-8.53048
▁genug	-8.53052
▁fest	-8.53244
▁auto	-8.53364
▁g	-8.53402
▁erzählen	-8.53418
▁30	-8.54334
▁sah	-8.54571
ion	-8.54683
▁sechs	-8.54733
▁herum	-8.54784
▁m	-8.54909
zeit	-8.54926
▁erst	-8.54983
is	-8.55154
ut	-8.55264
▁la	-8.55304
▁nächsten	-8.55333
▁bevor	-8.55876
at	-8.55931
chmal	-8.55967
ri	-8.56059
ation	-8.56078
▁ideen	-8.56401
▁le	-8.56592
▁klein	-8.57608
▁überall	-8.57992
▁kurz	-8.58252
▁neuen	-8.58309
▁gleiche	-8.58784
▁kennen	-8.58989
2	-8.5905
▁punkt	-8.59701
▁euch	-8.59834
gehen	-8.59926
▁bilder	-8.60171
lichen	-8.60405
▁hinter	-8.60441
me	-8.61001
▁200	-8.6112
▁bauen	-8.61163
▁planeten	-8.61199
▁schwer	-8.61217
ka	-8.61225
lo	-8.61713
▁gar	-8.61827
▁3	-8.61861
▁okay	-8.6191
▁mann	-8.61976
▁gehört	-8.62469
▁mädchen	-8.62534
▁spiel	-8.62558
▁fähigkeit	-8.62678
▁50	-8.62792
▁reden	-8.63002
▁kunst	-8.63258
▁musik	-8.63458
ta	-8.63475
▁nächste	-8.63701
▁film	-8.63711
▁milliarden	-8.64102
ß	-8.64119
▁niemand	-8.64468
▁letzte	-8.64625
▁augen	-8.6469
▁tat	-8.6482
▁schule	-8.64846
to	-8.64873
▁gesellschaft	-8.65105
igen	-8.65183
▁new	-8.6524
▁groß	-8.65293
▁braucht	-8.6538
▁haus	-8.65843
▁dich	-8.65852
mal	-8.65887
bi	-8.66784
▁ok	-8.66935
▁de	-8.66939
▁nennen	-8.67148
▁stehen	-8.67255
▁indien	-8.67265
geben	-8.67518
▁beginn	-8.67885
▁1	-8.68402
▁liegt	-8.68638
▁gefühl	-8.68957
▁hören	-8.68978
▁leuten	-8.69074
▁einzelne	-8.69161
▁verändern	-8.69494
ein	-8.69498
▁männer	-8.70105
▁antwort	-8.70346
▁stellt	-8.70384
ol	-8.7056
▁usa	-8.70577
▁deshalb	-8.70594
▁unglaublich	-8.70762
▁gebäude	-8.70859
▁soll	-8.70906
▁unternehmen	-8.70969
▁allen	-8.71664
we	-8.72323
ft	-8.72613
▁kopf	-8.7265
▁erfahrung	-8.72659
▁oh	-8.72884
zi	-8.73104
▁solche	-8.73119
▁erreichen	-8.73412
▁namens	-8.73438
▁t	-8.73478
▁lösung	-8.73801
▁benutzen	-8.74168
▁wahr	-8.74332
▁familie	-8.74473
ige	-8.74726
▁minuten	-8.74838
▁bereits	-8.74926
▁frei	-8.75033
ab	-8.7511
▁halten	-8.75305
▁arten	-8.75423
ko	-8.75558
ell	-8.7558
▁ko	-8.75792
▁100	-8.76111
nach	-8.76119
gel	-8.76633
är	-8.77172
▁mo	-8.77396
▁versucht	-8.77933
▁erkennen	-8.78015
▁15	-8.78106
di	-8.78246
▁steht	-8.78257
▁geschichten	-8.78339
▁ma	-8.78434
▁gruppe	-8.78534
▁machte	-8.78607
▁gott	-8.78676
▁menschliche	-8.79004
▁krankheit	-8.79087
4	-8.79114
▁vater	-8.7951
▁r	-8.7967
▁dr	-8.79974
land	-8.8021
▁vorstell	-8.80478
▁normal	-8.80924
▁los	-8.81124
▁verbindung	-8.8116
gebracht	-8.81643
dessen	-8.81837
▁teilen	-8.81865
▁junge	-8.82084
▁alt	-8.82301
▁glücklich	-8.82353
▁soziale	-8.82433
▁bitte	-8.82617
▁d	-8.83003
▁stunden	-8.83147
▁entwickeln	-8.83261
▁oben	-8.8337
▁luft	-8.83372
3	-8.83431
▁innerhalb	-8.83435
ll	-8.83437
▁mag	-8.83453
5	-8.83679
aus	-8.83709
▁glück	-8.83892
▁irgendwie	-8.8431
▁aller	-8.84342
▁regel	-8.84523
cht	-8.84678
äh	-8.84892
▁china	-8.85014
lässt	-8.85043
▁acht	-8.85084
bel	-8.85154
un	-8.85214
▁dir	-8.85252
▁ca	-8.85554
schließlich	-8.85859
▁dari	-8.85929
x	-8.86034
▁besten	-8.86086
▁lehrer	-8.86094
▁weitere	-8.86113
▁wohl	-8.86197
▁krebs	-8.86413
vi	-8.8658
▁interessant	-8.86697
os	-8.87131
▁treffen	-8.87174
▁bewegen	-8.87275
▁wert	-8.87306
▁ziel	-8.88046
▁statt	-8.88072
▁sprache	-8.88424
▁bewegung	-8.8853
ff	-8.89092
▁erhalten	-8.89242
▁patienten	-8.89261
▁herz	-8.89283
▁lage	-8.89312
zustellen	-8.8941
▁eltern	-8.89907
v	-8.89931
▁al	-8.89939
da	-8.9004
▁sage	-8.9008
▁direkt	-8.90196
▁sachen	-8.90256
ämlich	-8.90279
bringt	-8.90308
▁verwenden	-8.90465
ende	-8.90528
▁nahm	-8.90557
▁sinn	-8.90769
▁beginnen	-8.90775
bringen	-8.91305
▁menschlichen	-8.91398
▁stück	-8.91656
▁hause	-8.91703
▁mittel	-8.91735
▁york	-8.91781
ho	-8.9196
au	-8.92437
▁anzu	-8.92506
ken	-8.92522
▁freunde	-8.92647
▁2	-8.92652
▁zweite	-8.92698
▁roboter	-8.92855
▁falsch	-8.93001
▁wegen	-8.93159
▁entscheidung	-8.93183
▁regierung	-8.93211
▁video	-8.93296
mit	-8.93654
8	-8.93826
satz	-8.93858
▁umwelt	-8.94001
▁do	-8.94013
▁beste	-8.941
▁daher	-8.94335
man	-8.94437
▁verändert	-8.94443
▁schön	-8.94527
▁damals	-8.9455
▁li	-8.94729
▁wort	-8.94782
▁früh	-8.94827
ien	-8.94853
.000	-8.95089
▁entwicklung	-8.95091
91	-8.95199
6	-8.95409
▁angst	-8.95472
▁universum	-8.95564
fe	-8.95699
▁ra	-8.95791
ger	-8.95893
▁18	-8.9605
▁auszu	-8.96075
▁kultur	-8.96079
ler	-8.9611
ton	-8.96443
ad	-8.96567
▁gemeinschaft	-8.96626
▁fand	-8.96688
▁ändern	-8.97025
▁tut	-8.97068
▁fragte	-8.97079
▁ro	-8.97446
▁kindern	-8.97482
▁4	-8.97541
▁einigen	-8.97628
so	-8.97795
ti	-8.97889
▁überhaupt	-8.98027
▁unterschiedlich	-8.98121
iv	-8.98168
▁vortrag	-8.98178
▁bekannt	-8.98481
▁bo	-8.98561
na	-8.98738
▁getan	-8.98758
▁führen	-8.98769
op	-8.98798
▁länder	-8.98864
▁schreiben	-8.98955
▁40	-8.98966
▁manche	-8.99023
▁verhalten	-8.99135
▁öl	-8.99536
kommen	-8.99573
▁zehn	-8.99773
lei	-9.00157
▁o	-9.00161
▁wirtschaft	-9.00422
bau	-9.00552
▁bereit	-9.00642
ke	-9.00661
▁führt	-9.01149
▁nimm	-9.01214
▁sieben	-9.01353
spiel	-9.01463
▁technik	-9.01657
▁stand	-9.01729
▁he	-9.01775
▁zwa	-9.0193
▁sa	-9.02135
▁eher	-9.02312
po	-9.02418
statt	-9.02704
vor	-9.02878
ze	-9.02933
▁unterschied	-9.02941
setzen	-9.02994
▁wissenschaftler	-9.03134
ic	-9.03164
▁mi	-9.0347
und	-9.03488
▁worden	-9.04261
▁5	-9.04271
doch	-9.04478
▁eis	-9.04599
▁erinner	-9.04665
▁benutzt	-9.04905
do	-9.04972
▁gedanken	-9.05257
▁fühlen	-9.05258
▁schwierig	-9.05258
▁h	-9.05479
pe	-9.05545
▁tiere	-9.05677
ster	-9.05731
tra	-9.05781
▁prozess	-9.05965
▁allem	-9.06054
▁vorstellung	-9.06135
he	-9.06143
pa	-9.06159
▁betrachten	-9.06215
▁tier	-9.06299
ry	-9.06518
▁mensch	-9.06624
ierte	-9.06679
▁unten	-9.06693
▁jahrhundert	-9.06764
▁hilfe	-9.06848
igkeit	-9.06996
▁ka	-9.07065
ill	-9.07378
▁ha	-9.07411
00	-9.07474
▁voll	-9.07475
erst	-9.07505
ität	-9.07575
stand	-9.07582
▁tages	-9.07754
co	-9.08002
▁bestimmt	-9.08048
▁markt	-9.08086
▁reihe	-9.08094
▁typ	-9.08136
▁neben	-9.08421
▁staaten	-9.08553
▁lesen	-9.08696
▁richtung	-9.08789
93;	-9.08865
▁bekam	-9.08915
▁tage	-9.09041
▁anderer	-9.09139
sp	-9.09489
▁kraft	-9.0978
▁preis	-9.09899
▁zahl	-9.09905
▁jungen	-9.09943
▁publikum	-9.10039
▁deine	-9.10158
▁thema	-9.10191
▁19	-9.10202
▁zweiten	-9.10437
▁genauso	-9.10521
▁grunde	-9.10531
end	-9.10536
▁wahl	-9.10949
▁kleiner	-9.10975
▁schritt	-9.11114
pp	-9.11207
▁situation	-9.11275
▁verwendet	-9.11366
▁erfolg	-9.11709
los	-9.11749
▁plötzlich	-9.11827
▁herausforderung	-9.12063
▁leicht	-9.1211
▁kamen	-9.12188
▁jene	-9.12643
▁schlecht	-9.12648
▁wusste	-9.12743
jährige	-9.12756
ismus	-9.12952
wa	-9.13206
▁woche	-9.13287
mi	-9.13419
teil	-9.13434
▁amerikanische	-9.13447
▁kosten	-9.13514
▁absolut	-9.1393
▁freund	-9.14065
zen	-9.14131
▁monate	-9.14181
ah	-9.14183
▁größer	-9.14189
▁folgende	-9.14479
▁genannt	-9.14641
▁sterben	-9.14757
▁völlig	-9.14879
th	-9.15069
▁hohe	-9.15236
▁zellen	-9.15305
▁modell	-9.15448
form	-9.15517
▁zuvor	-9.15547
ba	-9.15609
▁boden	-9.15618
▁v	-9.15628
▁größte	-9.15632
ce	-9.157
▁kaufen	-9.15724
▁falls	-9.15767
▁erschaffen	-9.15837
▁komplett	-9.15837
9	-9.15842
ei	-9.15907
▁krieg	-9.16148
▁blick	-9.16158
▁ho	-9.1623
▁lösen	-9.16256
▁verbunden	-9.16319
uch	-9.16358
▁zer	-9.16369
tro	-9.16404
gang	-9.16432
▁zahlen	-9.16508
va	-9.1665
auf	-9.16686
▁se	-9.16865
▁erzählt	-9.17034
▁sollen	-9.17048
▁hast	-9.17184
id	-9.17191
▁globale	-9.17612
▁entfernt	-9.17661
▁job	-9.17681
▁meinung	-9.17785
bei	-9.17804
▁bewusst	-9.17825
▁richtige	-9.17874
system	-9.17902
führen	-9.17973
▁wochen	-9.18019
▁stark	-9.18051
▁haupt	-9.18273
1	-9.18305
▁vorher	-9.18342
▁muster	-9.18537
tage	-9.18935
art	-9.19075
▁ähnlich	-9.19084
cken	-9.19263
▁tatsache	-9.19267
▁gegenüber	-9.19283
▁amerika	-9.19293
▁politische	-9.19438
▁gemeinsam	-9.19579
▁aussehen	-9.19954
▁fliegen	-9.1997
▁l	-9.19971
▁bleiben	-9.20041
▁gesundheit	-9.20066
▁besteht	-9.20067
▁kon	-9.20169
▁draußen	-9.20266
▁namen	-9.20386
▁umgebung	-9.20835
▁neues	-9.20903
durch	-9.21054
mo	-9.21167
▁erreicht	-9.21345
▁gefunden	-9.21469
▁br	-9.21502
▁ki	-9.21522
▁bedeutung	-9.21531
▁bau	-9.21556
▁schrieb	-9.21787
ant	-9.21921
ir	-9.21937
▁morgen	-9.21953
legen	-9.22004
▁stellte	-9.22202
im	-9.22266
▁foto	-9.22299
treten	-9.22321
sa	-9.22415
▁künstler	-9.22476
▁laufen	-9.22544
▁extrem	-9.23072
▁arm	-9.23147
▁ding	-9.23205
▁hab	-9.2351
▁labor	-9.23537
▁dar	-9.23561
▁scheint	-9.23595
▁mache	-9.23611
ber	-9.23742
tel	-9.23773
▁jo	-9.23791
▁funktionieren	-9.239
▁12	-9.2393
ale	-9.2398
halten	-9.24022
▁rein	-9.2406
sche	-9.2412
▁sozial	-9.2418
▁60	-9.24304
▁autos	-9.24383
▁erklären	-9.2452
▁bestimmte	-9.24546
▁raus	-9.24634
▁wären	-9.24818
▁fa	-9.24853
▁offensichtlich	-9.249
▁suchen	-9.24934
▁ta	-9.24956
son	-9.25137
▁stelle	-9.25317
▁struktur	-9.25383
fall	-9.25398
▁wahrheit	-9.25476
▁gewesen	-9.2548
▁bessere	-9.25508
än	-9.25578
eck	-9.2563
▁platz	-9.2569
▁oberfläche	-9.25788
▁bevölkerung	-9.25803
▁allein	-9.25963
▁weltweit	-9.2604
▁familien	-9.2606
▁bücher	-9.2617
▁einfache	-9.26187
▁passier	-9.26426
ick	-9.26676
▁nachdenken	-9.26819
▁gelernt	-9.26866
▁bewegt	-9.27131
▁großartige	-9.27185
▁überleben	-9.27234
▁wichtigste	-9.27413
▁interessiert	-9.2757
▁innovation	-9.2757
▁schw	-9.27597
fer	-9.27615
▁schul	-9.27651
▁material	-9.27692
▁reise	-9.27704
▁organisation	-9.27784
▁hinein	-9.27906
▁u	-9.27984
▁größten	-9.28072
▁ba	-9.28154
▁offen	-9.28231
▁darau	-9.28265
enden	-9.28286
ine	-9.283
▁gewalt	-9.28311
spricht	-9.28357
selbe	-9.28426
▁team	-9.28483
▁gezeigt	-9.28502
▁lass	-9.28534
▁bio	-9.28567
▁geworden	-9.28658
▁blut	-9.28667
▁anzahl	-9.28785
▁gebaut	-9.29044
▁sehe	-9.29119
▁tod	-9.29165
▁medien	-9.29212
▁me	-9.29222
▁wind	-9.29266
▁alter	-9.29323
▁programm	-9.2933
ga	-9.29348
▁fehler	-9.29592
▁größe	-9.29595
▁jung	-9.29615
▁revolution	-9.2968
▁einzu	-9.29723
▁rest	-9.29743
▁ozean	-9.29755
▁wichtige	-9.29782
tz	-9.29869
▁aufzu	-9.29894
▁ländern	-9.29976
ett	-9.29988
▁ange	-9.3
▁vi	-9.30011
nde	-9.30042
▁6	-9.30209
ist	-9.30241
▁hilf	-9.3054
ia	-9.3065
▁bereich	-9.30662
▁verloren	-9.30665
▁arbeitet	-9.30918
▁sprach	-9.30923
▁hände	-9.30941
▁bildung	-9.31047
▁egal	-9.31152
▁the	-9.31365
ete	-9.31372
▁pa	-9.31373
▁meter	-9.31434
▁bist	-9.31635
wi	-9.31643
▁studenten	-9.31814
▁25	-9.3185
ag	-9.31929
▁pi	-9.32097
▁technologien	-9.32106
▁riesige	-9.32156
▁hundert	-9.32183
▁ausge	-9.32442
up	-9.32681
▁fertig	-9.32718
▁su	-9.3272
isten	-9.32731
▁möchten	-9.32937
▁konzept	-9.32941
▁kurze	-9.33033
▁stimmt	-9.33075
▁nacht	-9.33094
▁ne	-9.33222
▁hoffnung	-9.33343
▁guten	-9.33454
bo	-9.3346
▁experiment	-9.33571
ör	-9.33617
rin	-9.33761
hi	-9.33778
ziehen	-9.33806
bt	-9.33989
▁länger	-9.34142
nehmen	-9.34248
▁sp	-9.34277
▁80	-9.34278
▁englisch	-9.34286
▁rot	-9.34294
▁bekommt	-9.34403
▁echte	-9.34485
zahl	-9.34487
▁dna	-9.346
▁früher	-9.346
▁findet	-9.34609
▁ar	-9.3485
bild	-9.34876
eln	-9.3491
▁sonst	-9.34951
▁aufgabe	-9.35199
▁versuch	-9.35373
▁mitgefühl	-9.35612
▁formen	-9.35693
sh	-9.35837
▁flugzeug	-9.35924
sam	-9.35972
ve	-9.3599
schaft	-9.36248
▁teile	-9.36304
▁forschung	-9.36599
ug	-9.36813
▁to	-9.37195
▁gebiet	-9.37211
stellen	-9.37286
▁universität	-9.37306
▁8	-9.37535
pi	-9.37561
▁gesamte	-9.37698
▁eigen	-9.37772
▁vereinigt	-9.37831
▁erfolgreich	-9.37843
ru	-9.38061
▁fanden	-9.38063
▁strom	-9.38101
▁evolution	-9.38106
▁sicherheit	-9.38112
▁stimme	-9.38339
▁sofort	-9.38423
ly	-9.3846
▁bar	-9.38504
▁rolle	-9.38882
▁nenn	-9.38984
▁wesentlich	-9.39031
▁versuche	-9.39093
▁fing	-9.39227
sicht	-9.39255
bare	-9.39516
tri	-9.39695
▁per	-9.39947
haft	-9.40135
punkt	-9.40249
▁rund	-9.40283
▁gesicht	-9.4034
▁hoffe	-9.40398
▁papier	-9.40439
ph	-9.40478
▁mögen	-9.40709
ca	-9.4073
▁fahren	-9.40777
▁sonne	-9.40784
▁sitz	-9.40824
▁maschine	-9.41088
ierung	-9.41254
▁brachte	-9.41405
▁langsam	-9.41441
▁veränderung	-9.41543
▁großartig	-9.41626
fi	-9.41712
▁produkt	-9.41718
▁beziehung	-9.41769
▁reich	-9.41779
ed	-9.4193
gestellt	-9.42015
▁theorie	-9.42049
▁druck	-9.42068
go	-9.42111
nd	-9.42117
▁super	-9.42179
▁medizin	-9.42219
▁hälfte	-9.42231
▁geboren	-9.42425
lin	-9.42494
▁folgen	-9.42675
▁straßen	-9.42688
▁wann	-9.42766
▁näher	-9.42772
fahren	-9.42812
fangen	-9.42819
am	-9.4295
▁genommen	-9.42952
ku	-9.42961
▁erklärt	-9.43053
▁pflanzen	-9.43078
▁gegeben	-9.43126
▁lieben	-9.43525
▁hinaus	-9.43559
▁alten	-9.43626
▁städte	-9.43633
▁san	-9.43646
hält	-9.4365
▁links	-9.43687
▁online	-9.43687
▁ri	-9.43767
▁lebt	-9.43769
▁geschrieben	-9.4391
▁hu	-9.43942
▁geist	-9.44064
▁fisch	-9.44074
ek	-9.44378
▁schüler	-9.44444
▁kamera	-9.44445
rie	-9.44469
▁bu	-9.44471
▁zeug	-9.4464
▁bleib	-9.4478
▁i	-9.4484
del	-9.45149
▁interessante	-9.45175
▁übrigen	-9.4518
▁rede	-9.45233
▁national	-9.45282
▁ansehen	-9.45329
▁bewusstsein	-9.45513
▁zeige	-9.45586
▁setzen	-9.45717
▁tragen	-9.45873
▁bi	-9.46055
leben	-9.46087
▁erlaubt	-9.46177
▁ließ	-9.46258
▁liegen	-9.46278
ker	-9.46293
▁tausende	-9.46347
▁gene	-9.46389
▁sorgen	-9.46427
▁wachsen	-9.46533
▁tief	-9.46567
▁lo	-9.46579
▁herauszufinden	-9.46591
schw	-9.46608
hin	-9.4662
▁laut	-9.46637
▁plan	-9.46649
▁90	-9.46768
▁größere	-9.46825
▁geschieht	-9.46918
▁ziehen	-9.46968
▁mitte	-9.46976
▁unseres	-9.47134
▁funktion	-9.47194
▁entwicklungs	-9.47258
▁meer	-9.47452
▁traf	-9.47518
arm	-9.47544
führung	-9.47556
▁studie	-9.47612
tag	-9.47663
▁arbeits	-9.47746
▁rechts	-9.47829
weg	-9.47836
rate	-9.47838
▁religion	-9.47908
▁rück	-9.47918
elle	-9.48163
▁realität	-9.48257
▁toll	-9.48308
▁monat	-9.48319
▁vergessen	-9.48459
▁generation	-9.48618
hal	-9.49069
▁gleichzeitig	-9.4925
▁finde	-9.49266
▁ergebnis	-9.49328
▁versuchte	-9.49414
len	-9.4955
▁kontrolle	-9.49607
▁po	-9.49685
mon	-9.49685
▁us	-9.49843
▁außer	-9.49866
▁no	-9.49975
▁gründe	-9.50106
▁region	-9.50138
▁dorf	-9.50258
▁betrachtet	-9.50258
▁demokratie	-9.50274
▁wichtiger	-9.50282
ling	-9.50341
▁objekt	-9.50387
▁bald	-9.50541
▁schlechte	-9.50542
▁chris	-9.5056
▁alte	-9.50563
▁pe	-9.50694
▁durchschnitt	-9.50752
lu	-9.50776
tion	-9.50878
ac	-9.5115
seite	-9.51185
▁gesprochen	-9.51249
▁aktiv	-9.51257
▁straße	-9.51306
wert	-9.51324
ät	-9.51367
▁unmöglich	-9.5151
lie	-9.51595
▁gerät	-9.51607
▁firma	-9.5163
geht	-9.51635
stoff	-9.51637
▁öffentliche	-9.51813
▁abge	-9.51935
▁wand	-9.52103
▁schneller	-9.5218
voll	-9.52268
ring	-9.5227
▁google	-9.52316
▁hiv	-9.52348
▁anschauen	-9.52491
▁abzu	-9.52505
ng	-9.5253
▁mu	-9.52544
rat	-9.5259
▁16	-9.52693
▁arbeitete	-9.52731
ja	-9.52882
che	-9.53006
▁aufmerksamkeit	-9.53017
▁hart	-9.53125
▁fort	-9.53127
▁ihres	-9.53129
▁unbe	-9.53194
▁selbe	-9.5325
▁mach	-9.53268
ki	-9.53319
▁dein	-9.53332
▁nahe	-9.53361
bald	-9.53449
▁schulen	-9.53458
▁ständig	-9.53478
sel	-9.53573
▁behandlung	-9.53603
▁vorbei	-9.53621
▁europa	-9.53714
bahn	-9.53911
▁beobachten	-9.54001
▁dritte	-9.54112
▁nachrichten	-9.54356
▁erstaunlich	-9.54562
ator	-9.54614
▁unglaubliche	-9.54637
▁neun	-9.54774
▁besitz	-9.54774
▁leidenschaft	-9.54935
ron	-9.55041
▁spaß	-9.55134
hl	-9.55135
isiert	-9.55168
▁abend	-9.55316
lassen	-9.5545
▁einfluss	-9.55477
▁haut	-9.5553
▁gruppen	-9.55647
▁trotzde	-9.55704
▁diejenige	-9.55754
▁allgemein	-9.55827
▁worte	-9.55836
▁karte	-9.55868
▁of	-9.56015
dig	-9.5621
▁ex	-9.56318
▁eben	-9.56389
greifen	-9.5641
▁menschheit	-9.56611
▁mehrere	-9.5674
▁gearbeitet	-9.56759
▁verbesser	-9.5687
▁zumindest	-9.56926
▁eigenschaft	-9.56936
▁politik	-9.57043
▁gesetz	-9.57044
rei	-9.57194
wegen	-9.57234
▁ermöglicht	-9.57292
ier	-9.57397
▁hervor	-9.57418
▁echt	-9.57423
▁klasse	-9.57462
▁verlieren	-9.57489
▁netz	-9.57706
richten	-9.57939
▁pu	-9.58049
tritt	-9.58096
welt	-9.58199
▁ga	-9.58383
gi	-9.5848
mittel	-9.585
▁sinne	-9.5873
ip	-9.58755
▁auswirkung	-9.58891
▁entdeckt	-9.58918
▁himmel	-9.58942
plan	-9.59071
▁versch	-9.59301
▁handelt	-9.59371
ub	-9.59433
▁gesundheits	-9.59494
▁nachzudenken	-9.595
▁orte	-9.59534
j	-9.59613
▁büro	-9.59675
igung	-9.59707
▁verlassen	-9.59743
▁außerdem	-9.59927
▁tür	-9.59928
▁schaut	-9.60238
▁grenzen	-9.60261
leg	-9.60284
▁moderne	-9.60321
▁kern	-9.60445
▁ergebnisse	-9.60466
▁blau	-9.60547
▁feuer	-9.60547
▁9	-9.60559
des	-9.6063
ich	-9.60635
▁reaktion	-9.60639
▁armut	-9.60657
über	-9.60684
sehen	-9.60687
▁cool	-9.60692
▁führte	-9.60735
▁großer	-9.60743
▁mathematik	-9.60871
nder	-9.60918
▁gewinnen	-9.60937
sweise	-9.60952
▁gewinn	-9.60953
▁tolle	-9.60958
▁kar	-9.61066
▁monaten	-9.61147
▁ju	-9.61191
red	-9.61215
lang	-9.61347
▁produzieren	-9.6138
▁studien	-9.61395
▁seiten	-9.61488
werk	-9.61521
▁ebene	-9.61637
▁zusammenarbeit	-9.61758
▁david	-9.6176
▁ehrlich	-9.61778
▁nenne	-9.61822
▁sitzen	-9.61921
▁schafft	-9.61946
▁passierte	-9.61992
if	-9.62058
▁spielt	-9.62101
ment	-9.62118
iger	-9.6216
▁zugang	-9.62183
wo	-9.62187
ok	-9.62239
▁j	-9.62246
▁herr	-9.62272
▁atom	-9.62499
▁geschehen	-9.62525
▁erzeugen	-9.62528
cher	-9.62684
▁prinzip	-9.62786
zug	-9.62804
▁entdecken	-9.6291
▁wussten	-9.62931
▁y	-9.63033
ide	-9.63128
rb	-9.63134
pass	-9.63187
▁finger	-9.63273
▁14	-9.63336
gleich	-9.63375
▁verrückt	-9.6342
▁vertrauen	-9.6368
▁irgendwo	-9.63685
▁spezies	-9.6377
▁telefon	-9.63776
▁kau	-9.64058
▁john	-9.64241
▁bühne	-9.64287
▁wa	-9.64364
▁baum	-9.64371
▁mittler	-9.64471
ischer	-9.64506
folge	-9.64535
gebaut	-9.64737
▁wirtschaftliche	-9.64948
▁medizinische	-9.64993
▁amerikaner	-9.65045
▁vergangenheit	-9.65261
ord	-9.65285
▁hielt	-9.65324
nächst	-9.65547
▁gesch	-9.65567
▁schöne	-9.65756
stehen	-9.66047
▁begriff	-9.66115
ssystem	-9.66116
▁ad	-9.66326
▁innere	-9.66332
werfen	-9.66569
▁nachricht	-9.66698
io	-9.66767
▁ernst	-9.66784
▁landes	-9.66817
▁netzwerk	-9.6689
laden	-9.66955
▁wirklichkeit	-9.67005
arbeit	-9.67245
▁aussieh	-9.67257
▁sohn	-9.67296
▁sahen	-9.67422
vo	-9.67832
▁bürger	-9.67845
▁vers	-9.67879
▁voller	-9.67914
▁kr	-9.67982
▁elektro	-9.68002
▁bakterien	-9.68049
▁park	-9.68074
▁taten	-9.68141
▁grad	-9.68227
stellung	-9.68231
▁verbinden	-9.68322
▁beispiele	-9.6841
reich	-9.68463
▁einge	-9.6849
▁starb	-9.68507
▁stein	-9.68563
▁software	-9.6863
▁grün	-9.68665
▁firmen	-9.68752
zunehmen	-9.68757
▁flug	-9.68937
▁go	-9.68977
▁sh	-9.69079
▁dieselbe	-9.69083
▁hörte	-9.69147
▁industrie	-9.69248
▁befinden	-9.69268
▁gefährlich	-9.69273
▁beruf	-9.69344
ium	-9.69453
▁motor	-9.69648
▁privat	-9.69683
▁entweder	-9.69703
▁fuß	-9.69708
▁wunderbare	-9.6978
▁machten	-9.69819
▁außen	-9.70099
▁schl	-9.70356
▁freiheit	-9.70429
▁wi	-9.70467
▁baby	-9.70519
▁unge	-9.70534
and	-9.70543
▁erfahren	-9.7057
▁sam	-9.70588
▁charakter	-9.70629
tisch	-9.7068
ak	-9.70699
▁lag	-9.70763
brechen	-9.70805
trag	-9.7088
▁traum	-9.7089
▁halb	-9.7089
arten	-9.70997
falt	-9.71016
▁betr	-9.71047
▁gekommen	-9.71074
ierten	-9.71136
▁leistung	-9.71228
▁spitze	-9.71314
▁mikro	-9.71343
▁vergleich	-9.71423
▁name	-9.71465
▁präsident	-9.71505
▁199	-9.71547
▁verständnis	-9.7162
▁aufgrund	-9.71717
▁ebenso	-9.71789
▁herstellen	-9.71805
▁befinde	-9.71806
sta	-9.71829
▁perfekt	-9.7185
▁si	-9.71865
▁dreht	-9.71955
▁mars	-9.71982
▁nummer	-9.71985
kam	-9.72017
▁aktivität	-9.72145
▁million	-9.72174
▁wein	-9.72353
▁kommunikation	-9.72399
▁designer	-9.72417
▁kreis	-9.72575
▁verkauft	-9.72599
▁klima	-9.72614
▁neuro	-9.7305
▁runter	-9.73052
habt	-9.73079
▁cha	-9.73093
▁bezug	-9.73143
▁messen	-9.73154
the	-9.73161
▁risiko	-9.73252
▁gen	-9.73272
▁persönliche	-9.73278
▁fi	-9.73307
▁ressourcen	-9.73308
schließen	-9.73424
▁warten	-9.735
▁car	-9.73503
▁linke	-9.73506
▁genom	-9.73572
▁bäume	-9.73616
▁hört	-9.7365
ral	-9.73666
▁artikel	-9.73678
nden	-9.738
▁eure	-9.73805
▁leid	-9.73834
maschine	-9.73846
▁existiert	-9.73896
▁phänomen	-9.73896
▁schluss	-9.74026
alter	-9.7403
flu	-9.74045
▁interesse	-9.74128
äch	-9.74255
▁benötigt	-9.74385
▁krankenhaus	-9.74436
programm	-9.74514
▁mond	-9.74541
▁sammeln	-9.74565
▁personen	-9.7463
▁läuf	-9.74721
▁irgendwa	-9.74786
▁beweis	-9.74887
▁zufällig	-9.74887
▁nahrung	-9.74977
▁wesen	-9.75011
ehr	-9.75034
haus	-9.75042
▁außergewöhnlich	-9.75195
▁ändert	-9.75195
▁saß	-9.75232
▁hi	-9.75297
▁global	-9.75331
za	-9.75352
kraft	-9.75356
▁entscheiden	-9.75399
rüber	-9.75418
▁see	-9.75502
▁arzt	-9.75507
▁irgendeine	-9.75509
▁sand	-9.75537
▁orten	-9.75619
▁linie	-9.75652
tin	-9.7566
▁ober	-9.75873
▁spiele	-9.75947
▁bisher	-9.75953
▁el	-9.75967
▁erzählte	-9.75975
▁version	-9.76003
technologie	-9.7606
▁praktisch	-9.7607
▁hirn	-9.76077
▁entschieden	-9.76089
kon	-9.76109
▁test	-9.76132
▁schönheit	-9.76134
▁ordnung	-9.76209
▁erinnert	-9.76284
▁uhr	-9.76347
zig	-9.76373
▁sprachen	-9.76385
▁kampf	-9.76517
▁architektur	-9.76519
▁weiss	-9.76547
läuf	-9.76595
▁berg	-9.76614
nis	-9.76671
▁tagen	-9.76701
▁text	-9.76743
▁herausfinde	-9.76843
kommt	-9.76848
▁verstanden	-9.76851
wasser	-9.76918
war	-9.76935
projekt	-9.7694
▁verantwortung	-9.76953
▁mar	-9.77
▁fotos	-9.77044
stern	-9.77141
▁spreche	-9.77173
fisch	-9.7719
▁sekunden	-9.77244
▁effektiv	-9.77434
▁bilden	-9.77449
▁wunder	-9.77479
stein	-9.77493
▁qu	-9.77497
▁tisch	-9.77615
▁frieden	-9.77704
▁veröffentlicht	-9.77844
▁zentral	-9.77865
▁anti	-9.77995
▁gefragt	-9.78292
▁institution	-9.78292
▁ärzte	-9.78299
▁ton	-9.78344
▁bank	-9.78397
▁di	-9.78421
▁liste	-9.78421
▁miss	-9.78425
▁krank	-9.78481
ere	-9.78506
▁nah	-9.78578
cker	-9.78592
▁verstand	-9.78608
▁zeigte	-9.78767
raum	-9.78855
▁antworten	-9.78928
all	-9.78938
▁komme	-9.78964
▁einander	-9.79002
▁dritten	-9.79044
▁sex	-9.79137
▁web	-9.7914
▁projekte	-9.79142
▁gefängnis	-9.79195
▁untersuchen	-9.79196
▁außerhalb	-9.792
industrie	-9.79213
▁leisten	-9.79229
▁nutzt	-9.79237
▁rat	-9.79427
wand	-9.79555
▁erzeugt	-9.79654
▁bezahl	-9.79672
▁13	-9.79695
▁farbe	-9.79695
▁hunderte	-9.79706
▁konzentrier	-9.79772
▁handeln	-9.79774
sie	-9.79832
innen	-9.79949
▁medikamente	-9.79971
▁werte	-9.7998
▁fortschritt	-9.80006
▁lehr	-9.80058
▁arbeite	-9.80085
▁em	-9.80095
▁aufregend	-9.8011
▁geh	-9.80236
▁geschaffen	-9.80414
schrei	-9.80429
▁dunkle	-9.80565
par	-9.80568
mann	-9.80588
▁naja	-9.80593
kel	-9.80617
▁gelang	-9.8069
▁ausdruck	-9.80845
▁komplexe	-9.80849
▁hinzu	-9.80921
▁gew	-9.80928
▁geschäft	-9.81023
▁getroffen	-9.81026
▁produkte	-9.8105
▁schwarze	-9.81245
▁punkte	-9.81319
▁gesamten	-9.81551
▁gestellt	-9.81669
▁wörter	-9.81683
▁chance	-9.81696
▁auge	-9.81762
▁nannte	-9.81956
▁wandel	-9.82069
zusage	-9.82177
▁zustand	-9.82178
▁wachstum	-9.8218
▁verschieden	-9.82208
▁for	-9.82366
▁iran	-9.82454
▁eng	-9.82458
▁hält	-9.82517
meter	-9.82607
▁methode	-9.82724
▁überraschend	-9.82732
▁lernte	-9.82746
druck	-9.82802
▁besuch	-9.82875
licher	-9.82876
▁gelegenheit	-9.82891
▁vollständig	-9.829
bedingt	-9.82955
▁wal	-9.82956
▁verbring	-9.82958
▁programmier	-9.82989
▁stamm	-9.83093
oh	-9.83139
▁zeitpunkt	-9.8315
▁verkaufen	-9.83229
▁nord	-9.83309
▁klimawandel	-9.83362
▁unterstützen	-9.83363
gelegt	-9.83408
gabe	-9.83414
▁älter	-9.83502
▁wohin	-9.83514
noch	-9.83553
▁einkommen	-9.83611
lose	-9.83663
ard	-9.83778
▁normale	-9.83807
▁verbreitet	-9.83839
▁kilometer	-9.83839
▁botschaft	-9.83841
▁suche	-9.8393
▁kollegen	-9.84156
▁verursacht	-9.84315
▁glas	-9.84324
▁gründen	-9.84417
▁11	-9.84446
▁verb	-9.84556
▁höhe	-9.84572
▁herzen	-9.84609
▁inhalt	-9.8474
▁voraus	-9.8478
▁geschah	-9.84804
▁regen	-9.84888
▁trotz	-9.84977
istische	-9.852
ari	-9.85232
▁beschäftigt	-9.85247
hilfe	-9.85265
▁produziert	-9.85272
▁dunkel	-9.85273
▁retten	-9.85277
▁landwirtschaft	-9.85299
▁wohn	-9.85308
▁digitale	-9.85351
▁fragt	-9.85493
lichkeit	-9.85538
ven	-9.85573
schlag	-9.85659
▁unabhängig	-9.85734
▁elektrische	-9.85755
dass	-9.85788
geschichte	-9.8583
▁tu	-9.86053
▁werkzeuge	-9.86082
fass	-9.8631
▁legt	-9.86354
gefunden	-9.8636
▁traditionelle	-9.86461
ging	-9.86485
age	-9.86526
▁erfunden	-9.86728
▁ursprünglich	-9.86728
▁erwarten	-9.86729
▁ahnung	-9.8673
▁kontakt	-9.86734
▁steckt	-9.86756
tum	-9.86756
▁musst	-9.8698
zellen	-9.87016
bruch	-9.87056
▁freude	-9.87217
▁schlüssel	-9.8722
▁kostet	-9.87222
griff	-9.8731
▁umzu	-9.87503
▁täglich	-9.87711
▁häufig	-9.87973
▁position	-9.8817
▁nett	-9.88204
▁schicken	-9.88212
▁operation	-9.88463
tische	-9.88537
▁westen	-9.88587
▁wunderbar	-9.88625
▁erinnere	-9.88656
▁grundlegende	-9.88688
▁fällt	-9.88698
▁stunde	-9.887
▁schwester	-9.88706
▁ebenfall	-9.88717
▁persönlich	-9.88891
app	-9.8905
▁partner	-9.89059
▁fang	-9.89084
▁billig	-9.89108
▁komm	-9.89146
▁erwartet	-9.89204
▁plastik	-9.89204
▁angefangen	-9.89218
▁schützen	-9.89221
sätze	-9.89283
▁gehe	-9.89409
wissenschaft	-9.8947
▁blog	-9.89521
lange	-9.8953
▁pla	-9.89583
ep	-9.89614
leucht	-9.89618
▁vision	-9.89707
si	-9.89737
▁süd	-9.89768
▁fühlt	-9.89814
▁blind	-9.89928
org	-9.89935
▁finanz	-9.90003
du	-9.90032
mmer	-9.90044
▁sommer	-9.90072
▁behandeln	-9.90213
▁tausend	-9.90314
mus	-9.90333
▁fenster	-9.90432
pr	-9.90441
teilen	-9.90609
▁fühlte	-9.90609
chi	-9.90707
▁fehl	-9.90764
chel	-9.90789
▁tanz	-9.90793
ckel	-9.90834
▁ehe	-9.90912
▁gil	-9.90965
ap	-9.91001
fa	-9.91023
▁wenige	-9.91048
▁grosse	-9.91049
schloss	-9.9115
▁beeinflusst	-9.91229
▁gedacht	-9.91229
▁selten	-9.91231
▁osten	-9.91267
▁and	-9.91477
▁erd	-9.9148
kul	-9.91599
gesetzt	-9.91726
▁müll	-9.91742
▁verfügbar	-9.91742
▁systeme	-9.91753
▁geburt	-9.91906
▁erstaunliche	-9.92047
▁fu	-9.92089
kal	-9.92151
▁ni	-9.92158
▁biologie	-9.92277
▁werkzeug	-9.9231
▁har	-9.92418
forschung	-9.92478
▁materialien	-9.92612
machen	-9.92663
▁konferenz	-9.92705
▁werk	-9.92706
▁wild	-9.92773
▁argument	-9.92775
▁volk	-9.92775
▁überzeugen	-9.92783
▁stimmen	-9.92926
▁500	-9.92975
▁träume	-9.93073
ue	-9.93083
ran	-9.93138
änge	-9.93141
▁gas	-9.93155
▁ähnliche	-9.93192
ley	-9.93218
▁israel	-9.93296
▁gal	-9.93351
ach	-9.93401
▁erlaub	-9.93429
gramm	-9.93443
gegeben	-9.93452
▁heutigen	-9.93477
▁gehirns	-9.93545
▁handy	-9.93599
wesen	-9.93602
▁maß	-9.9361
▁lustig	-9.93821
▁böse	-9.93822
▁unternehmer	-9.93832
▁lu	-9.93932
raten	-9.94007
▁bill	-9.94018
▁jahrhunderts	-9.94078
▁total	-9.9408
genommen	-9.94107
▁lautet	-9.94146
kom	-9.94261
▁beziehungen	-9.94303
▁endlich	-9.94328
▁dürf	-9.94346
▁london	-9.94346
▁km	-9.94363
rad	-9.94395
▁japan	-9.94473
▁neuer	-9.94532
bot	-9.94553
buch	-9.94616
▁rand	-9.94648
▁gebe	-9.9465
▁höher	-9.94659
▁worten	-9.94674
▁triff	-9.94681
▁heim	-9.94698
▁positive	-9.94728
▁dis	-9.94736
▁fluss	-9.94765
▁herunter	-9.94856
▁entschied	-9.94865
feld	-9.94938
,	-9.94945
▁keiner	-9.95008
▁starke	-9.95027
▁armen	-9.95058
acht	-9.95104
▁legen	-9.95178
fach	-9.95271
pro	-9.95299
▁band	-9.95371
▁bloß	-9.95407
▁öffnen	-9.9541
uf	-9.95418
▁24	-9.95451
▁kl	-9.95489
für	-9.95505
▁geschwindigkeit	-9.95539
▁nochmal	-9.95559
wirtschaft	-9.95625
▁einzel	-9.95754
▁lief	-9.95943
band	-9.9603
▁brot	-9.96114
▁hey	-9.96123
recht	-9.96242
▁gewisse	-9.96371
rang	-9.96469
▁deutlich	-9.9648
▁erleben	-9.96551
▁darf	-9.96612
▁spät	-9.96665
▁aufge	-9.96715
▁farben	-9.96752
▁au	-9.96904
ai	-9.96908
ruf	-9.96929
▁müsste	-9.96989
ade	-9.96992
▁gegangen	-9.97022
▁jahres	-9.97032
▁lebensmittel	-9.97066
▁anwendung	-9.97084
dauer	-9.97106
berg	-9.97108
▁glaubt	-9.97142
teile	-9.97147
▁nützlich	-9.9716
▁par	-9.97293
modell	-9.973
fälle	-9.97311
0.000	-9.97316
▁titel	-9.97379
▁brauchte	-9.97388
com	-9.97486
▁notwendig	-9.97531
schnitt	-9.97539
▁relativ	-9.97564
▁internationale	-9.97613
▁afrikanische	-9.9763
▁bat	-9.97653
▁regierungen	-9.97661
que	-9.97694
▁kan	-9.97751
▁maschinen	-9.97779
uck	-9.9781
▁solch	-9.97836
tausend	-9.97913
tive	-9.97969
▁veränderungen	-9.98052
ome	-9.98082
ya	-9.98088
▁stolz	-9.9811
▁komplexität	-9.98118
▁loch	-9.98159
wächst	-9.98162
schrift	-9.98325
▁gang	-9.98389
▁setzt	-9.98397
▁insel	-9.98408
▁fühle	-9.98476
▁schmerz	-9.98488
▁bett	-9.98531
▁feld	-9.98586
alen	-9.98656
▁symbol	-9.98659
▁verfügung	-9.98659
▁begonne	-9.9866
▁kreativität	-9.98668
▁neuronen	-9.98706
▁waffen	-9.98709
▁verhaltens	-9.98745
▁spe	-9.98814
▁fern	-9.98888
fähig	-9.98939
▁sowie	-9.98994
verständlich	-9.99212
▁afghanistan	-9.99212
▁zusammenhang	-9.99239
▁beschäftig	-9.9924
▁dorthin	-9.99302
net	-9.99329
tu	-9.99388
▁halte	-9.99505
kette	-9.99562
▁drin	-9.99619
▁halbe	-9.99699
▁seh	-9.99744
▁300	-9.99746
▁physik	-9.99761
wir	-9.99764
▁tochter	-9.99767
▁karriere	-9.99768
▁gefühle	-9.99772
▁arme	-9.99795
▁natürliche	-9.99889
zentr	-9.99898
▁westliche	-10.0001
▁sicherlich	-10.0006
▁hass	-10.0007
ute	-10.0014
▁materie	-10.0032
▁heran	-10.0032
▁großbritannien	-10.0033
▁infrastruktur	-10.0033
▁end	-10.0045
lager	-10.0056
tzt	-10.0059
▁museum	-10.0061
▁guter	-10.0061
immt	-10.0068
ib	-10.0071
▁gesetze	-10.0072
▁benötig	-10.0081
▁erwähnt	-10.0089
▁wählen	-10.0089
▁sonnen	-10.0091
▁untersucht	-10.0093
lock	-10.0094
▁hinsicht	-10.0095
▁seid	-10.0101
▁schien	-10.0107
▁unterschiede	-10.0109
nahme	-10.011
▁zentrum	-10.012
ellen	-10.012
▁wege	-10.0126
▁ah	-10.0131
▁dia	-10.0135
▁schau	-10.0138
▁moralische	-10.0138
▁bra	-10.014
essen	-10.0144
▁west	-10.0145
▁investieren	-10.0145
▁golf	-10.0146
od	-10.0157
▁ansicht	-10.0168
▁einfacher	-10.0171
▁gemeinde	-10.0173
isieren	-10.018
▁forschungs	-10.0183
▁leiden	-10.0194
▁nähe	-10.0196
▁sauerstoff	-10.0202
▁bestehen	-10.0203
▁autor	-10.0217
▁kalt	-10.022
▁ke	-10.0235
gehend	-10.0239
jahr	-10.0242
▁anwend	-10.0243
züge	-10.0259
▁letztendlich	-10.0259
▁tumor	-10.0259
▁opfer	-10.026
▁rechte	-10.026
▁entlang	-10.0264
▁holz	-10.0264
res	-10.0266
▁nehme	-10.0267
▁absicht	-10.0276
▁genutzt	-10.0278
▁ei	-10.028
▁fallen	-10.0286
▁objekte	-10.0291
ständig	-10.0295
▁entstehen	-10.0298
▁virus	-10.0302
grund	-10.0302
▁fernsehen	-10.0308
▁zelle	-10.0315
▁gewonnen	-10.0317
▁inspiriert	-10.0317
▁irak	-10.0317
▁ermöglichen	-10.0317
▁kontrollieren	-10.0319
▁fernseh	-10.0327
blick	-10.033
▁gold	-10.0331
▁nieder	-10.0342
▁grüne	-10.035
bereit	-10.0357
▁chinesische	-10.0363
▁massen	-10.0373
▁polizei	-10.0375
▁behandelt	-10.0375
▁unsichtbar	-10.0375
▁schutz	-10.0375
▁kenne	-10.0382
▁ausbildung	-10.0399
▁qualität	-10.0399
▁pflege	-10.0401
nahmen	-10.0406
▁kulturelle	-10.041
▁erinnerung	-10.0417
laufen	-10.0424
▁häuser	-10.0426
▁ecke	-10.0428
▁folgt	-10.0433
▁richard	-10.0433
▁verantwortlich	-10.0433
merk	-10.0445
▁geschäfts	-10.0451
▁basis	-10.0455
▁innen	-10.0457
▁spiegel	-10.0468
▁zeitung	-10.047
markt	-10.0474
▁fällen	-10.0477
▁beobachtet	-10.0478
▁zog	-10.0478
▁x	-10.0484
▁beine	-10.0484
▁mas	-10.0489
▁leer	-10.0492
bereich	-10.0492
▁handel	-10.0506
tor	-10.0512
▁fuhr	-10.0526
▁hinweis	-10.0526
amp	-10.0528
▁gewebe	-10.0546
▁intelligenz	-10.055
ci	-10.055
▁jahrzehnt	-10.0555
▁steuer	-10.056
ologie	-10.0562
▁individu	-10.0565
▁drübe	-10.0566
▁ur	-10.0567
▁wunsch	-10.0572
haltung	-10.0574
▁tradition	-10.0582
▁falsche	-10.0585
▁boot	-10.059
▁aufhör	-10.0592
stände	-10.0594
platz	-10.0595
▁temperatur	-10.0605
▁aids	-10.0609
▁198	-10.061
▁kohle	-10.061
▁allerding	-10.061
▁effekt	-10.062
▁gegend	-10.0622
▁rote	-10.0623
▁öffentlich	-10.0633
▁biologische	-10.0644
schutz	-10.0654
▁aufgenommen	-10.0667
▁spür	-10.0669
▁überzeugt	-10.0669
▁kunden	-10.067
▁stufe	-10.0671
▁gewicht	-10.0681
▁wieviel	-10.0687
▁wider	-10.0689
▁sta	-10.0693
chte	-10.0697
▁wahre	-10.0699
ex	-10.0709
▁fische	-10.0712
effekt	-10.0713
▁staat	-10.0723
▁drehen	-10.0727
▁lieblings	-10.0729
▁erforschen	-10.0729
▁besondere	-10.0729
▁durchgeführt	-10.0736
▁gelb	-10.0737
▁bienen	-10.0738
▁dagegen	-10.0739
▁ansatz	-10.0741
bewegung	-10.0756
▁rechten	-10.0765
wachs	-10.0769
▁ag	-10.0771
lage	-10.0774
sprechen	-10.0775
▁reagieren	-10.0789
▁zivilisation	-10.0789
▁high	-10.0789
▁kämpfen	-10.079
▁ökosystem	-10.0791
▁einsatz	-10.0791
pl	-10.0798
schein	-10.0803
▁seines	-10.0806
ort	-10.081
▁perspektive	-10.0813
▁weiterhi	-10.0813
isierung	-10.0818
▁patient	-10.0818
▁meeres	-10.0819
▁trans	-10.0819
per	-10.083
▁geschaff	-10.0834
enz	-10.0838
mehr	-10.0839
▁hoffent	-10.0841
▁töten	-10.0849
▁interview	-10.0849
▁brief	-10.085
▁fantastisch	-10.0859
▁kümmer	-10.0865
▁tra	-10.0868
▁produktion	-10.0875
sein	-10.0886
ina	-10.0898
gezogen	-10.09
▁landschaft	-10.0901
▁typisch	-10.0904
institut	-10.091
▁emotionale	-10.0914
▁großteil	-10.0915
▁sport	-10.0918
▁ernsthaft	-10.0923
test	-10.0925
▁selber	-10.0925
▁mütter	-10.0932
▁tieren	-10.0932
▁dahin	-10.0938
ey	-10.0946
äre	-10.0946
▁fleisch	-10.0953
film	-10.0961
▁interessiere	-10.0972
▁kontinent	-10.0972
▁kaffee	-10.0972
▁stecken	-10.0972
▁fr	-10.0979
▁niedrig	-10.0989
▁sterne	-10.0989
ani	-10.1004
▁bitten	-10.1017
▁riesigen	-10.1017
▁erlebt	-10.1033
oren	-10.1035
▁bildschirm	-10.1035
▁vollkommen	-10.1037
▁erfindung	-10.1041
▁fach	-10.1042
krieg	-10.1072
▁ruf	-10.1077
gh	-10.1079
▁klang	-10.1083
▁send	-10.1084
▁forscher	-10.109
▁radio	-10.109
schicht	-10.1095
▁atmosphäre	-10.1096
▁buchstäblich	-10.1096
▁wüste	-10.1096
▁drogen	-10.1096
▁augenblick	-10.1097
▁sekunde	-10.11
lauf	-10.11
▁baut	-10.1101
▁faktor	-10.1103
fallen	-10.1104
hof	-10.1104
off	-10.111
station	-10.1114
▁verbracht	-10.1117
isches	-10.1123
▁meilen	-10.1132
ati	-10.1136
▁pra	-10.114
je	-10.1147
▁las	-10.1149
▁nötig	-10.1158
▁knochen	-10.1158
▁000	-10.1158
▁null	-10.1159
▁stärke	-10.1161
▁lokal	-10.1161
ände	-10.1165
schalten	-10.117
▁not	-10.1177
▁schiff	-10.1186
▁zweck	-10.1194
▁aufgaben	-10.1201
▁geräte	-10.1203
gebiet	-10.1211
isse	-10.1211
tech	-10.1215
▁hauptsächlich	-10.1221
▁verdienen	-10.1221
denkt	-10.1223
▁paul	-10.1225
▁hinweg	-10.1227
ram	-10.1236
schau	-10.1241
▁universums	-10.1245
gab	-10.1248
▁begeistert	-10.1252
mail	-10.1257
ang	-10.1257
▁lernt	-10.1263
quelle	-10.1278
▁bl	-10.1279
sammlung	-10.1284
▁identität	-10.1284
▁zuhause	-10.1286
▁hintergrund	-10.1286
val	-10.1288
▁wahrnehmung	-10.1296
▁erstellen	-10.1302
gruppe	-10.1305
▁reisen	-10.1313
▁geführt	-10.1317
weise	-10.1317
▁dick	-10.132
oll	-10.1321
▁mai	-10.1327
▁standard	-10.1329
▁lebte	-10.1337
produkt	-10.134
▁mögliche	-10.1344
▁spieler	-10.1344
▁prä	-10.1345
▁beeinflussen	-10.1348
▁erklärung	-10.1348
▁insekten	-10.1348
mäßig	-10.1349
▁seltsam	-10.1349
▁steve	-10.1351
leh	-10.1353
▁blieb	-10.1354
▁bauern	-10.1357
▁drittel	-10.1361
▁konzentriert	-10.1395
weisen	-10.1398
hafte	-10.1407
▁diskussion	-10.1412
hand	-10.1418
artige	-10.142
▁wirtschafts	-10.1421
▁masse	-10.1426
fahrt	-10.1433
leider	-10.1445
▁schwarz	-10.1453
▁visuelle	-10.1456
▁mess	-10.146
ny	-10.1461
strahl	-10.1463
▁kommunizieren	-10.1477
▁klingt	-10.1477
▁wald	-10.1485
▁untersuchung	-10.1492
▁ökonom	-10.15
▁konflikt	-10.1502
ble	-10.1509
icht	-10.1512
▁mode	-10.1521
▁gesellschaften	-10.1531
▁rätsel	-10.1541
▁verfolgen	-10.1542
steigt	-10.1542
wie	-10.1553
▁folge	-10.1561
suche	-10.1573
▁sä	-10.1574
▁or	-10.1574
▁ernährung	-10.1581
▁gi	-10.1581
▁beweise	-10.1583
akt	-10.1595
üsse	-10.16
mission	-10.1607
▁facebook	-10.1607
▁streit	-10.1607
▁politiker	-10.1609
▁entwerfen	-10.1612
ück	-10.1613
▁gewissen	-10.1617
▁entsteh	-10.1619
▁winzig	-10.162
▁lern	-10.1621
▁2000	-10.1628
▁mc	-10.1634
▁erstellt	-10.1635
▁schuld	-10.1642
▁35	-10.1642
licht	-10.1643
▁träg	-10.1665
yo	-10.1668
▁zerstört	-10.1673
▁sogenannte	-10.1673
▁unterstützung	-10.1673
▁vermutlich	-10.1673
▁vertraut	-10.1673
▁passt	-10.1683
mut	-10.1698
▁fahr	-10.1702
▁affen	-10.1715
dienst	-10.1715
▁sichtbar	-10.1716
▁brust	-10.1739
▁experten	-10.174
▁city	-10.1741
▁geb	-10.1746
▁patent	-10.1754
▁scheinen	-10.1759
▁bestand	-10.1759
preis	-10.1768
schäd	-10.1769
▁bedingungen	-10.1773
▁erzähle	-10.1774
▁milliarde	-10.1774
▁kräfte	-10.1777
▁schrecklich	-10.1784
▁sucht	-10.1792
▁sy	-10.1795
▁liefer	-10.1797
zeichen	-10.1805
▁versteckt	-10.1806
▁überrascht	-10.1806
▁wuchs	-10.1806
▁kontext	-10.1806
menge	-10.1806
stadt	-10.1807
▁hängt	-10.1807
▁traurig	-10.1807
▁gesund	-10.1816
▁organ	-10.1816
▁behaupte	-10.182
fahrer	-10.182
▁bezahlt	-10.1824
▁übertragen	-10.1825
▁inter	-10.1827
▁amp	-10.1832
▁professor	-10.1833
▁krise	-10.1843
▁speziell	-10.1847
▁gras	-10.1852
▁gebet	-10.1853
ath	-10.1858
▁gu	-10.1862
ud	-10.1865
▁experimente	-10.1867
▁lektion	-10.1873
▁süß	-10.1873
schläg	-10.1873
▁20.	-10.1873
probieren	-10.1873
▁ideal	-10.1875
gegangen	-10.1877
▁enorme	-10.1877
▁erhält	-10.1883
▁ph	-10.1884
ow	-10.1885
▁laufe	-10.189
▁gefangen	-10.1894
tischen	-10.1896
agen	-10.19
▁tiefe	-10.1901
▁indische	-10.1912
▁ball	-10.1919
▁laden	-10.1921
▁intelligente	-10.1923
▁mil	-10.1923
ließ	-10.1928
▁kurs	-10.1936
▁dran	-10.1937
▁mut	-10.194
▁start	-10.194
▁irgendetw	-10.194
struktur	-10.1942
▁gestalten	-10.1943
▁sub	-10.1946
▁extra	-10.1951
▁irr	-10.1951
port	-10.1952
▁fett	-10.1961
aktion	-10.1962
▁könnt	-10.1962
steigen	-10.197
bildung	-10.1971
erei	-10.1971
problem	-10.1982
▁lokale	-10.2006
▁chemische	-10.2008
▁zeichen	-10.2009
▁usw	-10.2018
▁kennt	-10.2027
▁wettbewerb	-10.2035
▁zell	-10.2049
▁wirkung	-10.205
▁schließen	-10.2051
▁hund	-10.2055
trieb	-10.2056
daten	-10.206
ali	-10.206
▁ed	-10.2061
▁pol	-10.2061
▁strategie	-10.2063
▁college	-10.2077
▁still	-10.2079
▁unterhaltung	-10.2084
▁strukturen	-10.2087
▁45	-10.209
▁code	-10.2094
▁bemerkt	-10.2097
▁grafik	-10.2099
▁beschreiben	-10.2101
▁wende	-10.2107
▁rahmen	-10.2113
▁zurückzu	-10.2126
▁vergleichen	-10.213
karte	-10.213
▁hy	-10.2131
▁dinosaurier	-10.2146
▁zukünftige	-10.2146
▁kohlenstoff	-10.2146
▁trink	-10.2147
▁themen	-10.2148
▁hergestellt	-10.2152
▁helden	-10.2156
muster	-10.2156
▁gegenseitig	-10.2157
les	-10.2162
▁trenn	-10.2164
by	-10.2166
▁medikament	-10.2166
▁umgehen	-10.2166
▁th	-10.2167
iziert	-10.2168
▁lebendig	-10.2174
▁entwickelte	-10.2174
▁lauf	-10.2175
▁erkannte	-10.2177
▁haufen	-10.2178
▁komp	-10.218
ifft	-10.2181
ind	-10.2191
▁quadrat	-10.2215
▁freiwillig	-10.2216
▁kreative	-10.2216
▁bedeutend	-10.2221
ala	-10.2231
▁pre	-10.2235
▁vögel	-10.2241
▁ingenieur	-10.2244
▁filme	-10.2246
▁ben	-10.2249
einhalb	-10.2258
schaut	-10.2261
staat	-10.2263
▁lieber	-10.2267
▁gemeinsame	-10.2267
stück	-10.2274
▁fantastische	-10.2274
▁verhindern	-10.2285
▁heilig	-10.229
lösung	-10.2292
▁teilchen	-10.2295
▁feststell	-10.231
▁150	-10.2315
▁feind	-10.2317
▁lager	-10.2322
▁umstände	-10.2323
▁gedanke	-10.2328
▁brücke	-10.2331
▁post	-10.2338
▁basiert	-10.234
▁moleküle	-10.2342
ian	-10.2343
▁einheit	-10.2349
▁grundsätzlich	-10.2355
▁kürzlich	-10.2355
▁verwandelt	-10.2355
▁darwin	-10.2356
▁hä	-10.2358
▁kerl	-10.236
▁lachen	-10.2367
▁gericht	-10.2367
▁gross	-10.2368
▁fe	-10.2368
▁bro	-10.2372
▁fiel	-10.2372
weder	-10.2377
anlage	-10.2377
▁real	-10.2383
▁wertvoll	-10.2389
▁beton	-10.239
aufnahme	-10.2396
▁zimmer	-10.2407
▁anruf	-10.2411
▁schlag	-10.2411
▁netzwerke	-10.2414
▁alternative	-10.2426
▁muskel	-10.2426
▁anfing	-10.2427
▁rad	-10.2427
▁verlangen	-10.2427
▁organisiert	-10.2427
og	-10.243
körper	-10.2434
▁zugänglich	-10.2437
▁schnitt	-10.2446
▁spezielle	-10.2454
holen	-10.2455
▁stärker	-10.2465
▁feier	-10.2469
rich	-10.2472
▁schlaf	-10.2474
▁kostenlos	-10.2475
▁verbessert	-10.2476
▁küste	-10.2484
▁wach	-10.2485
▁schaute	-10.2487
▁fabrik	-10.2491
▁getötet	-10.2498
▁wünsche	-10.2498
▁mission	-10.2502
▁militär	-10.2506
leistung	-10.2507
▁tue	-10.2512
▁reicht	-10.2512
▁effizient	-10.2519
iere	-10.2519
▁baute	-10.2525
▁speicher	-10.2535
▁eingesetzt	-10.2535
▁gemein	-10.2556
press	-10.2559
weite	-10.2565
▁katastrophe	-10.257
▁bestimmen	-10.257
▁vorhanden	-10.257
▁solar	-10.2572
▁informations	-10.2572
stimmung	-10.2574
line	-10.2579
gekommen	-10.2582
nutz	-10.2582
▁lebende	-10.2583
star	-10.2584
ition	-10.2585
▁schicht	-10.2586
▁heb	-10.2588
▁zucker	-10.2588
was	-10.2594
atur	-10.2606
▁karten	-10.2607
▁einsetzen	-10.2619
▁ak	-10.263
▁hell	-10.2636
▁sicht	-10.2638
▁kapital	-10.2638
▁gefahr	-10.2649
linie	-10.265
▁genauer	-10.2651
▁geheim	-10.2654
▁planet	-10.2656
▁tor	-10.2663
▁sc	-10.2664
▁morgens	-10.2668
▁verlust	-10.2673
▁äußer	-10.2681
▁kra	-10.2685
▁angesehen	-10.2685
bert	-10.2695
▁erwachsene	-10.2697
▁perfekte	-10.2701
▁modern	-10.2702
▁testen	-10.2713
▁verbreiten	-10.2715
▁hunger	-10.2716
▁verteilt	-10.2716
▁klug	-10.2717
eur	-10.272
▁kabel	-10.272
▁heimat	-10.2723
▁modelle	-10.2724
lon	-10.2724
▁laptop	-10.273
▁mr	-10.273
▁investition	-10.2731
▁städten	-10.2731
dia	-10.2732
▁soviel	-10.2733
▁kindheit	-10.2734
netz	-10.2744
drücken	-10.2745
▁zauber	-10.2748
▁erkenntnis	-10.2755
tal	-10.2757
▁400	-10.2757
▁lau	-10.2768
▁ameisen	-10.2774
issen	-10.2774
▁uni	-10.2777
▁babys	-10.2789
▁doktor	-10.2789
▁teuer	-10.2789
▁pferd	-10.2789
▁änderung	-10.2791
▁genetische	-10.2791
▁öffentlichkeit	-10.2793
▁geschenk	-10.2793
▁erster	-10.2804
▁erwachsenen	-10.2808
▁komplex	-10.2817
▁verbinde	-10.2818
▁restaurant	-10.2819
▁wärme	-10.2819
▁kreuz	-10.282
▁dumm	-10.282
▁farb	-10.2824
▁setzte	-10.2826
▁handlung	-10.2838
▁stopp	-10.2842
▁rief	-10.2845
▁faszinierend	-10.2849
▁blaue	-10.2861
▁akt	-10.2861
▁interagieren	-10.2863
▁verwandeln	-10.2863
▁vogel	-10.2863
▁riesen	-10.2864
▁viren	-10.2866
pflicht	-10.2867
▁schwimmen	-10.2868
▁grundlage	-10.2868
ante	-10.2871
▁kalifornien	-10.2875
hy	-10.2876
theorie	-10.2877
▁vorteil	-10.2877
▁lä	-10.2878
har	-10.2879
▁bedeuten	-10.2883
▁soldaten	-10.2901
iker	-10.2902
▁1.	-10.291
▁probe	-10.2917
▁my	-10.2919
häu	-10.2922
tier	-10.2923
▁kreativ	-10.2935
▁bruder	-10.2937
▁arabisch	-10.2938
▁öffnet	-10.2939
▁folie	-10.2939
▁gegenteil	-10.2947
▁wunderschöne	-10.2949
▁10.000	-10.295
unter	-10.2952
maßen	-10.2953
fu	-10.2953
bücher	-10.2953
organisation	-10.2953
fluss	-10.2956
▁maus	-10.2956
▁erhielt	-10.2962
▁falt	-10.2964
q	-10.2967
▁mächtig	-10.297
▁schlimmer	-10.2975
stelle	-10.2977
ore	-10.2978
leitung	-10.2996
▁benutze	-10.3002
▁schlau	-10.3003
wende	-10.3004
▁technische	-10.3008
ierende	-10.3011
gesundheitswesen	-10.3011
ive	-10.3012
▁charles	-10.3013
▁september	-10.3013
▁washington	-10.3013
gesehen	-10.3032
▁erhöht	-10.3065
▁wow	-10.3068
rechte	-10.3071
jo	-10.3075
handel	-10.3079
▁enorm	-10.3084
▁ehre	-10.3085
schule	-10.3087
▁geschlecht	-10.3088
vermögen	-10.3088
halb	-10.3091
upp	-10.3092
▁anstelle	-10.3101
volle	-10.3103
▁gespräch	-10.3107
lief	-10.3116
▁gesichter	-10.3122
▁pri	-10.3129
af	-10.3139
pol	-10.3146
▁märkte	-10.3146
woll	-10.3147
▁alleine	-10.3147
▁phase	-10.315
ov	-10.3164
▁satz	-10.3164
▁definition	-10.3165
▁fossil	-10.3165
▁üblich	-10.3165
▁klassische	-10.3165
▁england	-10.3167
▁berührt	-10.3167
▁holen	-10.3172
▁wartet	-10.3179
▁anfäng	-10.3181
kultur	-10.3184
lösen	-10.3185
breite	-10.3186
▁religiöse	-10.3189
▁dauert	-10.3196
▁gehalten	-10.3197
tiert	-10.3203
▁norden	-10.3205
gie	-10.3209
losen	-10.3209
▁star	-10.321
well	-10.3214
▁unver	-10.3216
▁wundervolle	-10.3221
gänge	-10.3231
▁minute	-10.3231
▁organismen	-10.3242
▁metapher	-10.3242
▁george	-10.3243
▁versteh	-10.3243
affe	-10.3245
ziel	-10.3247
▁gelesen	-10.3251
▁künstliche	-10.3253
▁nano	-10.3256
▁mund	-10.3257
▁pat	-10.3262
zog	-10.3263
▁verschwinden	-10.3263
zimmer	-10.3265
▁sicherheits	-10.3268
▁konsum	-10.3269
graben	-10.327
glied	-10.327
▁bedürfnisse	-10.3275
▁para	-10.3276
och	-10.3283
getragen	-10.3285
ice	-10.3291
▁bieten	-10.3294
heim	-10.3299
geber	-10.3302
fassung	-10.3304
fang	-10.3307
▁aktuelle	-10.3314
spielen	-10.3315
▁fahrzeug	-10.3317
▁trend	-10.3321
▁annahme	-10.3324
▁studiert	-10.3324
▁nation	-10.3328
▁auseinander	-10.3329
gehalt	-10.3336
geschlossen	-10.3339
▁grau	-10.3342
ay	-10.3345
▁höhere	-10.3353
wisst	-10.3358
zone	-10.3368
▁sparen	-10.3368
▁eindruck	-10.337
▁britische	-10.3372
fällig	-10.3374
ologe	-10.3382
▁ziele	-10.3388
▁elemente	-10.339
pack	-10.3396
▁gestorben	-10.3397
▁mindesten	-10.3397
▁diagramm	-10.3398
▁zitat	-10.3398
▁webseite	-10.3399
▁teure	-10.34
▁erscheinen	-10.3401
▁meiste	-10.3404
▁führungs	-10.3417
▁entdeckung	-10.3419
▁chirurg	-10.3422
▁moral	-10.3424
▁aufbauen	-10.3431
istisch	-10.3438
▁islam	-10.3451
▁schlimm	-10.3451
▁garten	-10.3455
technik	-10.3459
▁molekül	-10.3469
▁rücken	-10.3476
▁twitter	-10.3476
▁gäbe	-10.3476
▁küche	-10.3476
▁unglücklich	-10.3476
▁interaktion	-10.3477
▁reduzieren	-10.3477
▁unendlich	-10.348
▁zeitalter	-10.3493
▁reichen	-10.35
lla	-10.3502
▁wenigsten	-10.3507
▁bas	-10.3525
▁videos	-10.354
▁angenommen	-10.3541
▁live	-10.3542
▁steuern	-10.3547
▁seltsame	-10.3554
▁füße	-10.3555
▁unterscheiden	-10.3555
erkennung	-10.3556
systeme	-10.3558
▁fördern	-10.3558
▁entgegen	-10.3558
▁mitten	-10.3568
lag	-10.3569
bogen	-10.3578
▁aspekt	-10.359
auto	-10.359
▁stammt	-10.3597
▁vorschlag	-10.3597
▁tauch	-10.36
▁respekt	-10.3602
▁positiv	-10.3611
▁grenze	-10.3612
▁verbrachte	-10.3614
▁abhängig	-10.3614
▁digital	-10.3616
geschlagen	-10.3624
gl	-10.3627
last	-10.3627
sprache	-10.363
heben	-10.3633
▁nigeria	-10.3633
▁roman	-10.3634
▁berühmte	-10.3635
▁einiger	-10.3637
▁komisch	-10.3641
sucht	-10.3643
fläche	-10.3661
▁übrig	-10.3663
▁behalten	-10.3664
▁fähig	-10.3667
▁juli	-10.367
▁kompliziert	-10.3672
▁existieren	-10.3677
▁mill	-10.368
▁mitarbeiter	-10.3683
▁ausmaß	-10.369
▁fäng	-10.3691
▁ältere	-10.3692
ländern	-10.3695
▁dienst	-10.3701
▁schlimmste	-10.3702
tauchen	-10.3702
fordern	-10.3703
richtung	-10.3712
▁brauche	-10.3712
▁gedicht	-10.3714
▁unterstützt	-10.3716
▁multi	-10.3716
▁chemie	-10.3716
▁theater	-10.3716
▁intensiv	-10.3716
▁lebewesen	-10.3716
▁schaden	-10.3716
▁korruption	-10.3717
▁heisst	-10.3717
iges	-10.3718
▁aufbau	-10.3718
denken	-10.3729
▁kontrolliert	-10.373
▁tim	-10.3734
boot	-10.3745
passen	-10.3746
▁doppelt	-10.3751
ity	-10.3756
▁offene	-10.3759
▁entdeckte	-10.3765
kosten	-10.3766
▁erfinden	-10.3773
▁gesunde	-10.3781
betracht	-10.3782
▁jahrzehnte	-10.379
oni	-10.3793
▁che	-10.3795
▁zerstören	-10.3797
▁malaria	-10.3797
▁magnet	-10.3801
▁beitrag	-10.3803
▁schönen	-10.3805
▁atem	-10.3807
▁schwierigkeit	-10.381
▁trug	-10.3812
▁port	-10.3813
▁weltraum	-10.3821
▁erlebnis	-10.3821
▁gesamt	-10.3828
typ	-10.383
▁op	-10.3833
▁gering	-10.3834
träge	-10.3834
▁erschein	-10.3835
gestalt	-10.3838
▁hunde	-10.3849
▁cent	-10.3858
▁kauf	-10.386
▁bur	-10.3865
▁galaxien	-10.387
▁geräusch	-10.3871
▁beinhaltet	-10.3873
▁biete	-10.3873
▁elektrizität	-10.3879
▁mexiko	-10.3879
▁betroffen	-10.3879
▁partei	-10.3879
▁straf	-10.388
schlagen	-10.3882
zukommen	-10.3884
sky	-10.3887
▁entspricht	-10.3889
decke	-10.3889
▁talent	-10.3889
affen	-10.3894
takt	-10.3898
omi	-10.3904
▁lied	-10.3916
▁starten	-10.3917
▁aussage	-10.3921
▁geheimnis	-10.3932
▁gaben	-10.3932
tieren	-10.3938
▁einstein	-10.3943
▁überprüf	-10.3944
▁gebrauch	-10.3958
nahm	-10.3958
▁entworfen	-10.3962
▁könig	-10.3962
▁grundlegend	-10.3965
▁emotionen	-10.3986
▁vorzu	-10.3986
▁batterie	-10.3989
▁fra	-10.399
▁annehmen	-10.3997
▁nahrungs	-10.4003
▁gra	-10.4014
▁wei	-10.4016
seits	-10.4016
▁wurzel	-10.4021
▁kal	-10.4022
▁wechsel	-10.4027
▁app	-10.4028
▁einstellung	-10.4039
▁fo	-10.4041
gerät	-10.4045
▁beeindruckend	-10.4045
▁analysier	-10.4045
▁gespielt	-10.4046
▁kirche	-10.4046
▁thom	-10.4046
▁sag	-10.4054
▁ach	-10.4054
▁gewaltige	-10.4069
▁schlagen	-10.407
gerichtet	-10.4073
▁training	-10.4076
▁brachten	-10.4079
▁tee	-10.4082
wagen	-10.4094
alität	-10.4109
frei	-10.412
▁tot	-10.4121
▁tri	-10.4123
förder	-10.4124
▁website	-10.4129
▁verwandt	-10.413
▁half	-10.4131
50	-10.4131
zeichnet	-10.4137
sprung	-10.4137
▁rauch	-10.4141
▁mark	-10.4142
▁gehirne	-10.4145
2-	-10.4145
▁zeiten	-10.4147
▁entstanden	-10.4152
ivers	-10.4154
die	-10.4159
▁betrieb	-10.4162
afrika	-10.4164
▁mangel	-10.4166
wissenschaftler	-10.4167
▁bereiche	-10.4177
▁schreib	-10.4185
▁einrichtung	-10.4186
▁weißt	-10.4193
cy	-10.4196
▁angriff	-10.4202
▁rob	-10.4206
▁michael	-10.4214
▁schwach	-10.4216
kreis	-10.4221
ana	-10.4226
▁verhältnis	-10.423
▁gefahren	-10.4236
sinn	-10.4238
▁kaufte	-10.4242
grad	-10.4245
kräfte	-10.4251
▁flo	-10.4256
▁ernähr	-10.4265
lesen	-10.4273
▁gehören	-10.429
▁quasi	-10.43
▁besagt	-10.43
▁angebot	-10.4301
hu	-10.4308
schafft	-10.4309
▁bus	-10.431
▁kommun	-10.4314
▁breite	-10.433
ette	-10.4331
▁generationen	-10.4338
▁dach	-10.4338
zentrum	-10.4342
macht	-10.4349
▁abschluss	-10.435
zieren	-10.435
▁hoffen	-10.4356
minister	-10.4363
weile	-10.4377
karten	-10.4381
▁brenn	-10.4384
▁world	-10.4386
▁weibliche	-10.4386
▁zahn	-10.4386
▁südafrika	-10.4386
source	-10.4387
▁physische	-10.4388
▁dramatisch	-10.4389
ding	-10.4389
▁vermute	-10.4392
▁räume	-10.4406
schauen	-10.4407
▁geschickt	-10.4415
sicher	-10.4415
▁äußerst	-10.4426
▁tiefer	-10.4433
fertig	-10.4435
ica	-10.4436
uß	-10.4443
▁wagen	-10.4446
▁wora	-10.4447
▁zunehmend	-10.4449
▁ersetzen	-10.4449
kopf	-10.4449
▁wetter	-10.4451
▁nationen	-10.4452
kar	-10.4454
▁zieht	-10.4457
▁bewert	-10.4465
▁depression	-10.4473
▁prototyp	-10.4473
▁präsentation	-10.4473
▁beantworten	-10.4473
▁werbung	-10.4473
▁dutzend	-10.4473
▁vermitteln	-10.4473
▁nachbarn	-10.4475
▁99	-10.4475
spre	-10.4479
▁galaxie	-10.4483
arbeiten	-10.4488
ori	-10.4494
krise	-10.4497
▁löcher	-10.4502
▁arbeiter	-10.4503
▁details	-10.4509
scan	-10.4514
▁architekten	-10.4519
▁witz	-10.4519
reise	-10.4522
führt	-10.4523
▁kochen	-10.4525
dra	-10.4529
▁berechnung	-10.453
▁treib	-10.453
▁open	-10.4545
▁anteil	-10.4546
▁at	-10.4549
▁vergrößer	-10.456
holfen	-10.4561
▁besessen	-10.4561
▁brennstoff	-10.4561
▁studieren	-10.4565
▁wohlstand	-10.4566
stellt	-10.4571
haben	-10.4574
▁schulter	-10.4575
zugeh	-10.458
▁spielte	-10.4586
sitz	-10.4591
▁steigen	-10.4599
▁schrift	-10.4599
▁momentan	-10.46
versorgung	-10.4603
▁metall	-10.4604
reichen	-10.4615
unternehmen	-10.4622
▁zählen	-10.4628
▁fla	-10.4645
▁seele	-10.4645
▁vergangen	-10.4647
▁times	-10.4648
▁schläg	-10.4649
▁definieren	-10.4649
▁irgendjemand	-10.4649
röhre	-10.465
▁kenia	-10.4651
ney	-10.4651
▁darstellen	-10.4652
▁katze	-10.4652
▁hotel	-10.4653
▁jedenfall	-10.4657
▁offenbar	-10.4657
▁besorgt	-10.4659
▁zeichnen	-10.4661
▁sha	-10.4663
▁quelle	-10.4668
▁staats	-10.4669
▁journalist	-10.4673
▁hinten	-10.4673
▁kriegen	-10.4676
arbeiter	-10.4681
▁nase	-10.4683
▁köpfe	-10.4684
▁bedien	-10.469
▁verbesserung	-10.469
▁haar	-10.4691
▁voran	-10.4691
material	-10.4692
iti	-10.4693
uk	-10.4719
▁winzige	-10.472
▁stoff	-10.473
tragen	-10.4732
cha	-10.4735
for	-10.4735
▁begrenzt	-10.4738
▁geändert	-10.4738
▁kreieren	-10.4738
▁finanzielle	-10.4739
▁anreiz	-10.4739
▁berühmt	-10.4739
▁bescheid	-10.4739
gegen	-10.474
▁air	-10.4751
zeug	-10.4755
▁teilt	-10.4757
▁beschlossen	-10.4759
▁aufzubauen	-10.4769
▁schimpansen	-10.4769
▁zweifel	-10.4772
▁med	-10.4772
▁demokratische	-10.4782
artikel	-10.4784
▁dokument	-10.4786
▁methoden	-10.4786
tausch	-10.4803
▁nerven	-10.4807
skraft	-10.481
gruppen	-10.4814
▁führer	-10.4814
▁international	-10.482
▁belohnung	-10.4828
▁kombination	-10.4828
▁toilette	-10.4828
astronom	-10.4829
häng	-10.4829
▁blumen	-10.483
▁toten	-10.4832
▁ledig	-10.4833
ata	-10.4844
▁gelöst	-10.4845
▁passen	-10.486
fragen	-10.4871
wechsel	-10.4875
organ	-10.4879
ate	-10.489
▁philosoph	-10.489
▁ausstellung	-10.4893
▁bekannte	-10.4896
▁vorfahr	-10.4902
▁viertel	-10.4905
▁bildet	-10.4906
▁überlegen	-10.4916
würdig	-10.4918
▁dünn	-10.4919
▁gewählt	-10.4919
▁existenz	-10.4919
▁lächeln	-10.4919
▁beinahe	-10.4919
▁abstrakt	-10.4919
▁verdient	-10.4919
▁zuschauer	-10.492
▁industrielle	-10.4921
▁james	-10.4922
▁körpers	-10.4924
▁dauern	-10.4929
▁vorne	-10.4934
▁komponente	-10.4939
▁berichtet	-10.4945
▁schreckliche	-10.4949
▁gebraucht	-10.4952
▁student	-10.496
▁lehren	-10.4966
▁redet	-10.4975
▁derselbe	-10.4979
schneid	-10.498
▁stabil	-10.4981
prozess	-10.4996
▁gemeinden	-10.5011
▁pakistan	-10.5011
▁potential	-10.5011
▁schatten	-10.5011
▁automatisch	-10.5011
▁zusätzlich	-10.5016
▁farm	-10.5018
▁hallo	-10.5019
gibt	-10.5027
▁herein	-10.5032
werte	-10.5048
stoß	-10.505
ippe	-10.5054
▁glaubte	-10.5056
▁nachhaltige	-10.5064
spieler	-10.5066
▁kurve	-10.5068
▁schlechter	-10.5101
▁erkennt	-10.5103
▁jährlich	-10.5104
▁verfolgt	-10.5104
höhle	-10.5104
▁pilz	-10.5104
▁gefällt	-10.511
▁tedx	-10.5114
▁freundin	-10.5117
▁blase	-10.5118
gas	-10.5128
▁tre	-10.5134
▁weh	-10.514
kreislauf	-10.5144
▁hai	-10.5148
▁saubere	-10.5148
grenze	-10.5156
qualität	-10.5158
tiere	-10.5164
fähigkeit	-10.5171
schwimm	-10.5178
▁schwere	-10.5184
hop	-10.5185
energie	-10.5192
▁australien	-10.5197
▁insbesonder	-10.5197
▁gelebt	-10.5197
▁school	-10.5197
▁fels	-10.5198
▁gottes	-10.5198
▁darstellung	-10.5199
gefühl	-10.52
▁signal	-10.5208
▁signale	-10.5212
alt	-10.5212
▁individuelle	-10.5217
ebene	-10.5225
▁stattfinde	-10.5229
▁entfernung	-10.5233
leiten	-10.5234
etze	-10.5235
▁gebiete	-10.5239
▁fehlt	-10.5241
5.000	-10.5244
desto	-10.5245
▁blätter	-10.5252
▁drauf	-10.5259
masse	-10.526
arch	-10.5264
▁mathematische	-10.5266
▁entstand	-10.5279
▁bildungs	-10.528
rechnung	-10.5282
hnen	-10.5283
team	-10.5284
▁aktion	-10.5291
▁teenager	-10.5291
▁definiert	-10.5291
▁ruhig	-10.5291
▁wikipedia	-10.5291
▁stahl	-10.5293
▁verglich	-10.5294
▁gefallen	-10.5298
▁21.	-10.53
▁entfern	-10.5302
▁spannend	-10.5305
▁instrument	-10.5306
▁unfall	-10.5308
▁nationale	-10.5328
▁kilo	-10.5329
tür	-10.5329
krankheit	-10.533
▁unterrichten	-10.533
▁kla	-10.5332
▁erkrankung	-10.5335
▁stuhl	-10.5342
▁spur	-10.5342
▁transport	-10.5344
▁erkannt	-10.5344
▁anschaut	-10.5352
frau	-10.5353
▁figur	-10.5357
▁schließ	-10.5364
▁menschlicher	-10.5365
▁damen	-10.5366
▁reale	-10.5374
öl	-10.5385
▁großmutter	-10.5387
▁kapitel	-10.5387
risiken	-10.5387
▁schätzen	-10.5388
▁angesicht	-10.539
▁oper	-10.5391
▁protein	-10.5393
▁nasa	-10.5395
▁erforscht	-10.5399
geführt	-10.5404
▁haushalt	-10.5406
▁chemikalien	-10.541
▁is	-10.5411
▁musiker	-10.5417
reserv	-10.5421
ax	-10.5425
▁bezeichnet	-10.5433
▁flach	-10.5436
▁vierte	-10.5441
▁verlauf	-10.5444
rus	-10.5448
▁todes	-10.5448
sprozess	-10.5454
▁fälle	-10.5456
person	-10.5457
liebe	-10.546
▁linien	-10.5464
leiter	-10.5466
▁kulturen	-10.5474
▁beschloss	-10.5478
qui	-10.5479
▁harvard	-10.5483
▁jünger	-10.5483
▁überraschung	-10.5483
▁gegründet	-10.5483
▁winter	-10.5483
▁2008	-10.5492
▁willst	-10.5499
▁bibliothek	-10.5499
▁befass	-10.5501
▁klinik	-10.5516
▁beschreib	-10.5519
▁fremde	-10.5521
▁top	-10.5525
▁unterricht	-10.5527
▁berichten	-10.5528
füllt	-10.5533
punkte	-10.5534
▁stet	-10.5536
▁gesichts	-10.5539
▁zug	-10.554
▁zuhören	-10.5543
kurs	-10.5547
▁eu	-10.555
▁statistiken	-10.5551
wissenschaftlich	-10.5557
dimension	-10.5559
fügen	-10.5569
kleid	-10.5569
▁kanada	-10.558
▁deutsch	-10.558
▁maßstab	-10.558
▁darstellt	-10.5581
▁196	-10.5583
▁virtuelle	-10.5585
▁bericht	-10.5592
▁schlafen	-10.5597
ami	-10.5601
neu	-10.5601
pri	-10.5607
pla	-10.5608
zy	-10.5609
ara	-10.5617
pause	-10.5622
▁rezept	-10.5625
grün	-10.5633
▁besitzt	-10.5646
letzt	-10.5656
▁hierher	-10.5659
▁merk	-10.566
schütz	-10.5667
▁physiker	-10.5667
▁akzeptieren	-10.5678
▁fasziniert	-10.5678
▁grippe	-10.5678
▁pfund	-10.5678
▁knie	-10.568
▁bedrohung	-10.568
▁einzigartig	-10.5691
▁umgeben	-10.5694
möglichkeit	-10.5703
▁zähne	-10.5707
ehm	-10.5715
▁realisier	-10.5715
▁ereignisse	-10.5721
▁ger	-10.5725
▁tom	-10.5731
▁blatt	-10.5732
▁klick	-10.5733
▁kriegs	-10.5734
▁flügel	-10.5739
politik	-10.5742
▁gründete	-10.5742
oberfläche	-10.5742
produktion	-10.5745
low	-10.5748
heil	-10.5748
▁verrückte	-10.5752
uc	-10.5756
▁schwierige	-10.576
▁kühl	-10.5777
bezüglich	-10.5777
▁innovativ	-10.5777
▁italien	-10.5777
▁symmetrie	-10.5777
▁gegenwart	-10.5777
▁bemerken	-10.5777
▁worauf	-10.5778
▁zwang	-10.5782
▁echtzeit	-10.5782
▁veränderte	-10.5789
▁meist	-10.5797
stunde	-10.5797
▁hol	-10.58
▁verbrechen	-10.5802
▁interessanter	-10.5806
▁austausch	-10.5809
▁mehrheit	-10.5815
▁singen	-10.5816
pal	-10.5817
graph	-10.5818
▁wovo	-10.5819
öhn	-10.5831
▁eier	-10.5832
▁herren	-10.5842
ita	-10.5843
▁derzeit	-10.5844
▁verbrauch	-10.5848
zelle	-10.5857
▁weiteren	-10.5858
▁interessen	-10.5861
losigkeit	-10.5864
tun	-10.5866
▁schwarzen	-10.5866
▁zusammenzu	-10.5869
▁solcher	-10.5874
geworfen	-10.5877
▁eindeutig	-10.5877
▁erweitern	-10.5877
▁gemälde	-10.5877
▁teufel	-10.5877
▁tötet	-10.5877
▁fahrrad	-10.5878
▁reduziert	-10.5878
▁tal	-10.5878
▁stammzellen	-10.5878
▁schlacht	-10.5878
▁schweine	-10.5879
▁robert	-10.5879
schieben	-10.5881
▁tour	-10.5886
▁europäische	-10.5891
▁lebe	-10.5895
▁erfinder	-10.5895
▁schuhe	-10.5898
▁spektrum	-10.5901
design	-10.5901
deckt	-10.5902
▁plattform	-10.5913
▁bedarf	-10.5916
▁chines	-10.5923
branche	-10.5929
hang	-10.5932
▁halt	-10.5935
funktion	-10.5944
plätze	-10.5977
bell	-10.5977
▁frank	-10.5978
▁inspiration	-10.5978
▁kürze	-10.5978
▁schicksal	-10.5978
▁erwartung	-10.5978
geleitet	-10.5978
▁mikroben	-10.5978
▁darunter	-10.5979
gelassen	-10.5985
▁23	-10.5986
▁szene	-10.5989
▁meinte	-10.5993
▁faszinierende	-10.5996
▁langer	-10.5998
rlei	-10.5998
▁sing	-10.601
▁decke	-10.601
anne	-10.6019
▁roh	-10.6023
▁600	-10.6025
▁schi	-10.6028
▁bemerkenswert	-10.6036
kamera	-10.6049
lampe	-10.6062
▁höre	-10.6068
iell	-10.6079
hütte	-10.608
▁marketing	-10.608
▁heirat	-10.608
▁kleidung	-10.608
▁etc	-10.6081
▁vermeiden	-10.6081
▁ozeane	-10.6081
▁umfeld	-10.6082
▁ewig	-10.6083
▁sal	-10.6084
▁langweilig	-10.6089
▁aufnahme	-10.6091
park	-10.6093
▁ausgebildet	-10.6094
▁sms	-10.6099
▁weltkrieg	-10.6101
▁22	-10.6111
▁schwieriger	-10.6119
▁nachts	-10.612
▁bemerkenswerte	-10.6124
schluss	-10.6141
▁kugel	-10.6143
▁interessantes	-10.6144
▁vorhersagen	-10.6146
▁schaf	-10.616
▁magie	-10.6161
rechnen	-10.6162
▁leichter	-10.6163
▁übernehmen	-10.6164
▁hyper	-10.6166
▁ausnahme	-10.6175
ino	-10.6179
▁gekauft	-10.6183
▁gemüse	-10.6183
▁langfristig	-10.6183
▁klassenzimmer	-10.6183
▁hieß	-10.6183
▁spa	-10.6184
▁froh	-10.6184
▁human	-10.6188
▁technisch	-10.619
▁skulptur	-10.6201
▁21	-10.6206
▁frisch	-10.6208
▁pan	-10.6209
▁bezieh	-10.6211
▁beteiligt	-10.6237
▁dichte	-10.625
▁van	-10.6257
wander	-10.6257
ance	-10.6257
▁element	-10.6268
▁flasche	-10.6273
▁resultat	-10.6275
▁jack	-10.6275
▁quer	-10.6276
lf	-10.6278
▁proteine	-10.628
▁entscheidend	-10.6286
▁verblüffend	-10.6287
▁knapp	-10.6287
▁erschien	-10.6287
▁überzeugung	-10.6287
▁elektronische	-10.629
▁prinzipien	-10.6291
▁funk	-10.6291
▁general	-10.6291
soweit	-10.6293
▁194	-10.6294
▁sw	-10.6294
▁tonnen	-10.6296
gemacht	-10.6297
▁angestellte	-10.63
gerufen	-10.6302
▁teilweise	-10.6309
stab	-10.6309
▁zufall	-10.631
▁fortschritte	-10.6311
▁bot	-10.6315
leute	-10.6323
hlt	-10.6323
räume	-10.6326
▁persönlichkeit	-10.6328
▁antwortete	-10.633
▁koch	-10.633
▁schieß	-10.6335
isst	-10.6338
orientiert	-10.6342
▁geräusche	-10.6342
▁fremd	-10.6351
treffen	-10.6354
endlich	-10.6355
▁stehe	-10.636
▁bekomme	-10.6363
▁rufen	-10.6377
▁wu	-10.6381
▁momente	-10.6388
▁fokus	-10.6388
▁therapie	-10.6389
nommen	-10.6391
▁seht	-10.6391
▁aufgeregt	-10.6392
▁nachbarschaft	-10.6392
▁trocken	-10.6393
▁präsentiert	-10.6393
▁ursache	-10.6393
winkel	-10.6393
▁überwinden	-10.6393
streif	-10.6393
▁komplizierte	-10.6398
▁ansieh	-10.6399
▁schlange	-10.6406
▁presse	-10.6408
▁alters	-10.6421
▁mikroskop	-10.6423
▁lenk	-10.6425
▁poe	-10.6428
▁geistes	-10.6434
▁ergibt	-10.6435
träger	-10.644
fache	-10.6448
▁erhöh	-10.6454
▁berge	-10.6456
▁körperlich	-10.6465
▁ohren	-10.6467
▁geschlossen	-10.6468
▁bedenken	-10.6472
ordnung	-10.6472
▁show	-10.6477
▁wunderschön	-10.6483
▁hör	-10.6486
▁fährt	-10.6488
städt	-10.6492
▁kur	-10.6494
▁youtube	-10.6499
▁dynamisch	-10.6499
▁ländlich	-10.6499
▁geburtstag	-10.6499
▁klinische	-10.6499
▁gewann	-10.6499
▁deutschland	-10.65
lösch	-10.6502
▁serie	-10.6512
▁basierend	-10.6521
▁wundervoll	-10.653
▁jugend	-10.6533
bul	-10.6537
▁kehr	-10.6544
gesellschaft	-10.6546
länder	-10.6548
▁av	-10.6549
▁technologische	-10.6549
▁taschen	-10.6549
▁wände	-10.6563
▁dauerte	-10.6565
▁stücke	-10.6567
▁tanzen	-10.6576
▁armee	-10.6579
geschwindigkeit	-10.658
bilder	-10.658
▁versprech	-10.6581
räumen	-10.6587
▁fä	-10.6587
▁weltweite	-10.6593
studie	-10.6597
sterblichkeit	-10.6601
▁korrekt	-10.6606
▁francisco	-10.6606
▁wüsste	-10.6606
utsch	-10.6607
▁staub	-10.6608
barkeit	-10.6611
▁afrikaner	-10.6614
▁sink	-10.6619
▁mental	-10.6622
▁süden	-10.6623
▁betreiben	-10.6623
▁tele	-10.6624
▁rock	-10.6627
▁11.	-10.6627
▁wohnung	-10.6632
▁mitglieder	-10.6635
▁videospiele	-10.6635
▁gewöhnlich	-10.664
▁19.	-10.665
▁stern	-10.6657
läd	-10.6681
ight	-10.6685
kanal	-10.6688
dollar	-10.669
▁bereichen	-10.6694
way	-10.6697
▁gleichung	-10.6702
verhalten	-10.6705
▁debatte	-10.6715
▁geschmack	-10.6715
▁erweitert	-10.6715
▁kongress	-10.6715
▁unmittelbar	-10.6715
▁infiziert	-10.6715
▁stieg	-10.6715
▁gerechtigkeit	-10.6716
▁exakt	-10.6716
▁geteilt	-10.6716
▁verstärk	-10.6717
▁atmen	-10.6717
▁wolken	-10.6717
▁vereint	-10.6718
platte	-10.672
▁verwendung	-10.672
▁wahrnehmen	-10.6721
liste	-10.6726
▁100.000	-10.6729
▁ruhe	-10.673
▁hinauf	-10.673
schuldig	-10.6731
▁produktiv	-10.6739
▁genetisch	-10.674
▁fakten	-10.674
▁mad	-10.6744
▁magazin	-10.6756
▁prüf	-10.676
▁breit	-10.6768
▁ereignis	-10.6777
▁trau	-10.6784
▁schlechtes	-10.6786
▁fein	-10.6789
▁jugendliche	-10.679
größe	-10.6801
▁tests	-10.6803
▁schild	-10.6805
▁drücken	-10.6807
▁lungen	-10.6807
▁dreh	-10.6811
▁iphone	-10.6825
▁lebenserwartung	-10.6825
▁älteste	-10.6825
▁weihnacht	-10.6825
▁vorbereitet	-10.6825
▁asien	-10.6826
▁1.000	-10.6835
▁verbreitung	-10.6842
▁ingenieure	-10.6848
reform	-10.685
▁meister	-10.685
▁fin	-10.685
▁schneide	-10.6852
mpel	-10.6861
▁ökologisch	-10.6864
▁bomb	-10.6866
einheit	-10.6871
▁regierungs	-10.6877
▁trick	-10.6898
▁wechseln	-10.69
▁streben	-10.6908
gewicht	-10.6911
bewusst	-10.6914
▁werbe	-10.6915
blase	-10.6916
▁verstehe	-10.6917
▁kap	-10.6926
▁beliebt	-10.6933
▁schock	-10.6935
▁brasilien	-10.6936
▁günstig	-10.6936
▁verschwunden	-10.6936
▁wiederholt	-10.6936
▁massive	-10.6936
▁weisheit	-10.6936
▁billionen	-10.6936
gewiesen	-10.6936
▁teleskop	-10.6936
schaffung	-10.6936
pfeil	-10.6937
▁sonnenlicht	-10.6937
▁bla	-10.6937
▁teilnehmer	-10.6938
▁milch	-10.694
▁schickte	-10.694
▁fokussier	-10.6941
zusehen	-10.6941
▁photo	-10.6958
▁lügen	-10.6958
schätze	-10.6958
probleme	-10.696
▁wachsende	-10.6968
car	-10.697
fressen	-10.6973
▁beweg	-10.6975
▁aufnehmen	-10.7013
▁sorge	-10.7014
▁bemerkte	-10.7015
▁konsequenzen	-10.7019
▁abfall	-10.7021
▁kampagne	-10.7021
▁einzigartige	-10.7033
▁eröffnet	-10.7035
bewohner	-10.7038
▁flog	-10.7044
▁zufrieden	-10.7047
▁genügen	-10.7048
▁getrennt	-10.7048
▁verdammt	-10.7048
▁wünschte	-10.7048
▁kopie	-10.705
hielt	-10.7055
▁verließ	-10.7066
▁alltag	-10.7069
wellen	-10.7072
sprach	-10.7073
▁langsamer	-10.7074
▁staatliche	-10.7077
anischen	-10.7085
▁cla	-10.7092
▁glücklicher	-10.7092
▁studio	-10.7093
ial	-10.7094
▁beleg	-10.711
▁fotograf	-10.7113
zwischen	-10.7125
▁ost	-10.7129
▁mittels	-10.7135
▁beschrieben	-10.714
gelöst	-10.7142
groß	-10.7142
methode	-10.7142
entwicklung	-10.7142
▁asteroid	-10.7162
▁intellektuelle	-10.7162
▁satelliten	-10.7162
▁street	-10.7162
▁kolonie	-10.7162
▁isolier	-10.7162
▁literatur	-10.7162
▁merkwürdig	-10.7162
▁tiefen	-10.7162
▁verursachen	-10.7163
▁pinguine	-10.7163
▁wen	-10.7165
▁herstellung	-10.7169
▁riech	-10.7175
▁gro	-10.7176
▁peter	-10.7177
ball	-10.7178
▁beobachtung	-10.7182
▁ski	-10.719
swert	-10.7199
▁mathematiker	-10.7201
▁wachstums	-10.7206
melde	-10.7208
▁kognitive	-10.7214
▁durchführen	-10.7217
▁2.	-10.7219
▁psycho	-10.7246
▁auswahl	-10.7249
weiß	-10.7259
experte	-10.7275
▁kümmert	-10.7276
wolke	-10.7277
männchen	-10.7277
teppich	-10.7277
▁impfstoff	-10.7277
▁motivation	-10.7277
▁kaputt	-10.7277
studium	-10.7277
▁buchstaben	-10.7277
▁engagier	-10.7277
▁stress	-10.7277
▁löst	-10.7277
▁front	-10.7277
▁organisieren	-10.7278
▁verlangt	-10.7278
▁schuf	-10.7285
bezogen	-10.7285
▁neuigkeit	-10.7288
▁negative	-10.7297
▁schritte	-10.7303
geschnitten	-10.7303
▁rennen	-10.7313
kunde	-10.7314
▁aufgewachsen	-10.7322
▁fließen	-10.7322
▁beizu	-10.7322
basierte	-10.7322
▁kredit	-10.7325
▁durchzu	-10.7334
▁prozesse	-10.7343
▁detail	-10.7345
▁schreibt	-10.7346
▁vorteile	-10.7347
bricht	-10.7348
▁profitier	-10.7348
▁chip	-10.7349
▁noten	-10.7349
bombe	-10.7355
▁goldene	-10.7367
▁stock	-10.737
freund	-10.7374
regierung	-10.7376
▁dreidimensional	-10.7382
▁irgend	-10.7383
fiel	-10.7388
▁sammelt	-10.7393
▁obama	-10.7393
flüsse	-10.7393
▁durfte	-10.7393
▁entsprechend	-10.7393
▁schnee	-10.7394
▁zerstörung	-10.7394
▁polio	-10.7394
▁strand	-10.7395
▁haiti	-10.7397
▁dimensionen	-10.7397
scheibe	-10.7397
▁chaos	-10.7398
tafel	-10.7399
▁hinunter	-10.7399
▁bibel	-10.7399
▁spenden	-10.7399
▁instrumente	-10.7409
▁mama	-10.7418
ographie	-10.742
teilung	-10.742
sorge	-10.7422
▁genie	-10.7424
▁suchte	-10.7428
jenige	-10.743
phil	-10.743
▁liefert	-10.7436
treiben	-10.7436
maßnahmen	-10.7438
▁bezeichnen	-10.7438
▁entscheidende	-10.744
▁stift	-10.7441
▁adam	-10.7441
▁fliege	-10.7446
▁transportier	-10.7447
▁leiten	-10.7451
ära	-10.7464
▁umher	-10.7466
▁level	-10.7476
▁springen	-10.7483
▁nutzung	-10.7492
▁such	-10.7498
▁quellen	-10.7501
gründe	-10.7504
▁investiert	-10.7511
▁irgendwelche	-10.7511
▁nachgedacht	-10.7511
▁scheitern	-10.7511
▁krankenhäuser	-10.7511
▁weshalb	-10.7511
▁scheinbar	-10.7511
▁ursprung	-10.7512
▁lücke	-10.7512
stapel	-10.7512
▁pollen	-10.7513
▁eingeladen	-10.7513
▁merkmal	-10.7513
apparat	-10.7514
▁kongo	-10.7515
gesteuert	-10.7517
▁mochte	-10.7519
▁eva	-10.752
▁enthüll	-10.752
flug	-10.7526
turm	-10.753
▁verkehrs	-10.7533
slos	-10.7537
▁altern	-10.7537
▁wellen	-10.7543
▁sinnvoll	-10.7545
▁ring	-10.7549
▁aktivier	-10.7554
▁mächtige	-10.7554
▁erzählung	-10.756
▁nachhaltig	-10.7563
ruhe	-10.7567
▁weiterer	-10.7568
▁dh	-10.7573
▁ausgesetzt	-10.7578
▁betrieben	-10.7578
▁fließ	-10.7588
finden	-10.76
▁fürchte	-10.7603
▁eingeführt	-10.7609
schritt	-10.7614
▁lese	-10.7618
▁biologisch	-10.7623
▁zusätzliche	-10.7624
▁chicago	-10.763
▁erdbeben	-10.763
▁molekulare	-10.763
▁nuklear	-10.763
▁stämme	-10.763
▁university	-10.763
▁2010	-10.763
▁status	-10.763
▁boston	-10.763
▁schauspieler	-10.7631
hersteller	-10.7631
▁option	-10.7631
▁geruch	-10.7632
▁versagen	-10.7632
▁island	-10.7632
▁strasse	-10.7632
▁teams	-10.7638
▁dahinter	-10.7638
▁interaktiv	-10.7653
▁vorträge	-10.7656
▁rechen	-10.7657
▁ökonomische	-10.7657
▁budget	-10.766
▁irgendein	-10.7665
▁verfahren	-10.7669
sichtig	-10.7679
ou	-10.7681
▁population	-10.7685
▁meme	-10.7696
▁aspekte	-10.7698
▁höchst	-10.7699
▁analyse	-10.7708
▁cra	-10.7715
▁liebte	-10.7716
▁biolog	-10.7737
klasse	-10.7741
▁rollen	-10.7743
kämpfe	-10.7748
behörde	-10.7748
▁zeichnung	-10.775
▁dörfer	-10.775
▁horizont	-10.775
▁impuls	-10.775
▁original	-10.775
▁übung	-10.775
▁röntgen	-10.775
▁freue	-10.7751
▁titan	-10.7751
▁erneut	-10.7751
▁comic	-10.7751
aktiv	-10.7752
greif	-10.7753
▁nachhaltigkeit	-10.7754
▁paris	-10.7755
▁mauer	-10.7759
▁nadel	-10.7759
▁hängen	-10.7759
▁achse	-10.7779
▁reis	-10.7792
▁beenden	-10.7798
▁erziel	-10.7809
▁versorgung	-10.7814
▁ernte	-10.7818
▁gewisser	-10.7827
bor	-10.7831
setzung	-10.7841
▁freundlich	-10.7853
gesamt	-10.786
▁kriege	-10.7866
▁inspirieren	-10.7866
▁besucht	-10.787
▁begreif	-10.787
ähnliche	-10.7871
▁begegnen	-10.7872
▁psychologie	-10.7872
▁reagiert	-10.7872
▁überlebt	-10.7872
▁unterwegs	-10.7873
▁beachten	-10.7873
schirm	-10.7876
▁fair	-10.7877
▁chef	-10.7887
▁vorsichtig	-10.7891
kunft	-10.7892
▁gesammelt	-10.79
▁leuchten	-10.79
▁intelligent	-10.7904
▁widerstand	-10.7908
politisch	-10.791
▁fotografiert	-10.791
▁stiftung	-10.7913
▁epidemie	-10.7915
xi	-10.7921
▁angenehm	-10.7924
ärz	-10.7928
▁schmerzen	-10.7928
▁center	-10.7928
▁merkt	-10.7931
▁kindes	-10.7933
▁aufnahmen	-10.7937
brett	-10.7944
▁philosophie	-10.795
▁spinne	-10.7952
▁schach	-10.7958
▁entdeckungen	-10.7963
▁tödlich	-10.7964
▁sternen	-10.7964
▁trat	-10.7968
schwer	-10.797
▁integriert	-10.797
▁norm	-10.7971
witz	-10.7978
out	-10.7982
computer	-10.7986
männer	-10.7986
▁logisch	-10.7991
algorithm	-10.7993
kündig	-10.7996
▁illegal	-10.7996
▁illusion	-10.7996
▁ägypten	-10.7996
▁berücksichtig	-10.7996
▁hinzufügen	-10.7997
veranstaltung	-10.7997
▁genial	-10.7998
▁sonnensystem	-10.8
eilt	-10.8008
▁deiner	-10.801
dach	-10.801
schuh	-10.801
▁enthalten	-10.8011
▁vorder	-10.8012
▁verschmutz	-10.8038
designer	-10.8041
▁erfüllt	-10.8043
▁täuschung	-10.8046
▁marke	-10.805
▁dichter	-10.8056
gebung	-10.806
▁chancen	-10.8065
schreiben	-10.8065
rechnet	-10.8065
führ	-10.8078
▁griff	-10.8082
▁sektor	-10.8084
▁verkauf	-10.8084
bank	-10.8099
▁last	-10.8107
▁berühren	-10.8121
▁gedächtnis	-10.8121
▁konfrontiert	-10.8121
▁nervös	-10.8121
kapazität	-10.8121
▁schweden	-10.8121
räder	-10.8121
▁varia	-10.8122
▁kreiert	-10.8122
▁regelmäßig	-10.8124
▁hinterlassen	-10.8127
▁müsst	-10.8128
▁1000	-10.8129
▁stille	-10.8129
▁startete	-10.8131
archie	-10.8134
▁optimistisch	-10.8135
steuer	-10.8137
▁flüssigkeit	-10.8142
▁salz	-10.8153
▁fläche	-10.8156
▁wette	-10.8159
sendung	-10.8162
regel	-10.8164
▁treiben	-10.8165
▁einblick	-10.8166
▁aufrecht	-10.817
▁mel	-10.8173
▁schlug	-10.8178
▁bush	-10.8182
▁statistik	-10.8185
kinder	-10.8188
▁matt	-10.8202
letztlich	-10.8204
zuhören	-10.8206
▁gebrochen	-10.8209
▁strecke	-10.8221
▁besuchte	-10.8229
faktor	-10.824
farbe	-10.8242
sphäre	-10.8246
schaltkreis	-10.8247
▁anstieg	-10.8247
▁aufstieg	-10.8247
▁flexib	-10.8247
▁lächerlich	-10.8247
▁genießen	-10.8247
▁physikalische	-10.8248
▁erfand	-10.8248
▁rational	-10.8249
▁gehör	-10.8251
▁1960	-10.8251
▁heilen	-10.8255
▁stil	-10.8273
▁tipp	-10.8275
▁erfüllen	-10.8279
▁mechanisch	-10.8282
felder	-10.8286
ula	-10.8288
rand	-10.8293
regen	-10.8297
geräte	-10.8297
board	-10.8307
▁pop	-10.8311
▁verletzt	-10.8312
▁filter	-10.8322
▁letzter	-10.8327
▁ford	-10.8344
▁fundament	-10.8364
sort	-10.8365
erkrankung	-10.837
geschäft	-10.837
region	-10.837
▁verkehr	-10.8371
zykl	-10.8373
▁konflikte	-10.8373
▁karikatur	-10.8376
▁angelegenheit	-10.8376
▁jüngste	-10.8376
▁potenzial	-10.8376
▁bewahre	-10.8376
▁befand	-10.8376
▁hitze	-10.8376
▁brown	-10.8376
reaktor	-10.8376
▁elegan	-10.8376
stätte	-10.838
schlüsse	-10.8388
gewandt	-10.8394
schwäche	-10.84
▁organe	-10.8402
marsch	-10.8404
▁gelangt	-10.8409
▁disziplin	-10.8415
▁wem	-10.8426
▁flächen	-10.8426
scheinend	-10.8433
zuwenden	-10.8434
schul	-10.8434
ria	-10.8435
▁fried	-10.8437
▁zählt	-10.8437
schub	-10.845
▁sequenz	-10.8466
▁zivil	-10.8466
unk	-10.8469
▁anzeige	-10.8469
stellungskraft	-10.847
▁japanische	-10.8475
änderung	-10.8492
▁roll	-10.8494
▁marken	-10.8495
▁grab	-10.8499
▁höchsten	-10.85
code	-10.8501
verkehr	-10.8501
krebs	-10.8502
pyramide	-10.8506
▁gegenwärtig	-10.8506
▁hervorragend	-10.8506
▁privileg	-10.8506
▁vagina	-10.8506
▁vergnügen	-10.8506
▁vorwärts	-10.8506
▁delfin	-10.8506
▁schriftsteller	-10.8506
▁jenseits	-10.8506
▁stirb	-10.8506
▁versorgen	-10.8506
▁gps	-10.8506
▁störung	-10.8506
▁medium	-10.8506
▁kommentar	-10.8507
▁erneuerbare	-10.8507
▁tätigkeit	-10.8507
▁kuh	-10.8508
▁erfassen	-10.8508
▁ballon	-10.8511
▁homo	-10.8512
▁sichtweise	-10.8514
▁apple	-10.8515
▁fundamentale	-10.8518
▁wasserstoff	-10.852
▁jud	-10.8532
▁bauch	-10.8535
▁anführer	-10.8541
▁umgang	-10.8546
färb	-10.8556
▁infektion	-10.8564
▁verletzung	-10.8567
▁you	-10.8569
stücke	-10.8581
▁250	-10.8587
▁tasche	-10.8587
▁geringer	-10.859
▁nu	-10.8597
bb	-10.8607
gewachsen	-10.861
▁haare	-10.8612
getrieben	-10.8613
▁negativ	-10.8614
▁gib	-10.8615
▁moralisch	-10.8618
kasten	-10.8627
▁einfachheit	-10.8633
video	-10.8635
firma	-10.8635
gebäude	-10.8635
gewinn	-10.8636
empfindlich	-10.8637
gezwungen	-10.8637
▁furchtbar	-10.8637
▁spezifische	-10.8637
▁klavier	-10.8637
▁bekämpfen	-10.8637
▁musikalische	-10.8637
▁brustkrebs	-10.8637
rekord	-10.8638
ministerium	-10.8638
▁russland	-10.8638
▁algorithmen	-10.864
▁professionelle	-10.864
▁seil	-10.8645
▁enkel	-10.8646
▁ohr	-10.8646
wort	-10.8651
bestandteil	-10.8652
▁scham	-10.8654
▁gezogen	-10.8665
▁resultate	-10.8679
▁32	-10.8682
▁anzusehen	-10.8692
500	-10.8693
modu	-10.8696
▁schaue	-10.8707
nathan	-10.8719
▁gewöhnliche	-10.8729
ture	-10.8732
▁geschäfte	-10.8733
▁saal	-10.8744
,000	-10.8753
▁hall	-10.8753
geld	-10.8763
störung	-10.8769
chromosom	-10.877
▁schweiz	-10.877
▁bedroht	-10.877
▁exponentiell	-10.877
▁gelehrt	-10.877
▁gipfel	-10.877
▁schätzung	-10.877
▁verliebt	-10.877
▁rettung	-10.877
▁ärger	-10.8771
▁globalisierung	-10.8772
▁entwurf	-10.8772
gebunden	-10.8773
klebe	-10.8778
▁misch	-10.8781
profil	-10.8782
▁bord	-10.8783
▁summe	-10.8785
▁spannung	-10.879
▁dazwischen	-10.879
▁diagnose	-10.8795
▁block	-10.8796
▁grossartig	-10.8798
logen	-10.8801
holz	-10.8805
▁finanziert	-10.8807
ock	-10.8807
▁brand	-10.8827
▁lehrt	-10.8828
▁haie	-10.8834
sonst	-10.8838
zeichnung	-10.8839
rolle	-10.884
▁bohr	-10.8843
▁gelassen	-10.8852
▁radikal	-10.8855
▁unbekannte	-10.8858
▁gesetzt	-10.8859
unwahrscheinlich	-10.8861
▁empfinden	-10.8865
▁brit	-10.8867
rauch	-10.8883
▁poster	-10.8885
fällt	-10.8897
▁physisch	-10.8902
▁studierende	-10.8904
▁bedeutsam	-10.8906
▁elefanten	-10.8906
▁relevant	-10.8906
▁befehl	-10.8906
▁kreatur	-10.8906
▁uganda	-10.8906
▁gemessen	-10.8906
▁denkweise	-10.8906
gewalt	-10.8907
gemeinschaft	-10.8907
▁städtische	-10.8907
▁spielzeug	-10.8908
▁jim	-10.891
▁brach	-10.8911
hack	-10.8911
▁anbau	-10.8914
▁1990	-10.8914
▁leit	-10.8915
▁nervenzelle	-10.8936
▁identifiziere	-10.8939
▁neugierig	-10.894
▁graph	-10.8954
▁gespräche	-10.896
▁profit	-10.8961
union	-10.8961
▁kritische	-10.8962
kenntnis	-10.8968
verbrauch	-10.8975
tja	-10.8977
▁nest	-10.8978
▁rechner	-10.8983
▁antrieb	-10.899
▁anhalten	-10.8994
▁bip	-10.8995
▁box	-10.9
klappe	-10.9006
▁chinesisch	-10.9007
hren	-10.9013
▁kletter	-10.9015
▁könne	-10.9016
▁kollektive	-10.9016
logisch	-10.9017
abteilung	-10.9042
▁bewunder	-10.9043
▁umgekehrt	-10.9043
▁veröffentlichen	-10.9043
▁ghana	-10.9043
▁dialog	-10.9043
▁örtliche	-10.9043
▁benzin	-10.9043
▁frankreich	-10.9043
▁sorgt	-10.9044
ano	-10.9045
▁orange	-10.9046
▁liebst	-10.9047
genoss	-10.9048
▁krieges	-10.9051
▁repräsentiert	-10.9052
▁2009	-10.9053
▁balk	-10.9054
streu	-10.9056
▁tinte	-10.9058
▁mutig	-10.908
▁versicher	-10.9081
▁islamische	-10.9087
▁anlage	-10.909
schied	-10.9092
▁spezial	-10.9102
▁dokumentier	-10.9107
▁begeister	-10.9113
▁gift	-10.9119
▁vorhin	-10.9119
▁ausmachen	-10.912
▁195	-10.9127
▁gebildet	-10.9131
▁ausser	-10.9154
läufig	-10.9168
▁zurecht	-10.9171
stütze	-10.9181
gewohnheit	-10.9181
▁fantasie	-10.9181
▁gerettet	-10.9181
▁hübsch	-10.9181
▁konservativ	-10.9181
▁polizist	-10.9181
▁rhythm	-10.9181
▁schokolade	-10.9181
▁ungeheuer	-10.9181
▁wählt	-10.9181
▁verliert	-10.9182
▁befreien	-10.9182
▁rohstoff	-10.9182
▁nahrungsmittel	-10.9183
schlepp	-10.9184
▁geschützt	-10.9185
übertragung	-10.9186
therapie	-10.9187
kapital	-10.9187
▁zurückkehren	-10.9188
▁philip	-10.9189
▁neigen	-10.9191
▁berechn	-10.9199
▁hingeh	-10.9201
▁erfuhr	-10.9202
▁linse	-10.9202
▁liebt	-10.9204
▁erstmal	-10.9208
gesetz	-10.9209
,5	-10.9212
zustand	-10.9213
▁entstehung	-10.9214
rey	-10.9231
▁historische	-10.924
▁umso	-10.924
▁stoß	-10.9244
▁höchste	-10.9247
▁ergeben	-10.9247
brachte	-10.9249
▁bier	-10.925
▁beteilig	-10.925
old	-10.9251
▁heutige	-10.9251
▁frequenz	-10.9257
ora	-10.9286
▁neugier	-10.9287
binden	-10.9297
▁architekt	-10.9298
▁zwi	-10.9315
brach	-10.9316
▁einwohner	-10.9322
▁mobiltelefon	-10.9322
origami	-10.9322
▁mäuse	-10.9322
▁ruanda	-10.9322
▁ersetzt	-10.9322
▁ärmste	-10.9322
▁gestaltet	-10.9323
geblieben	-10.9323
▁circ	-10.9325
▁aussah	-10.9325
▁weltbevölkerung	-10.9327
fahrzeug	-10.9328
▁ego	-10.9329
stamm	-10.933
flasche	-10.9331
▁28	-10.9332
▁mitglied	-10.934
▁nahezu	-10.9341
▁standpunkt	-10.9343
bus	-10.9351
▁trop	-10.9352
▁verleg	-10.9352
ografie	-10.9355
▁tricks	-10.9374
▁leber	-10.9379
▁fund	-10.9385
sperr	-10.9385
▁niveau	-10.9388
▁tote	-10.9391
▁anpassen	-10.9402
flogen	-10.9405
▁taucht	-10.9417
▁verbraucht	-10.9423
▁leiter	-10.9428
▁65	-10.9462
▁terror	-10.9463
▁übergang	-10.9465
▁ausgewählt	-10.9465
▁science	-10.9465
▁sowjet	-10.9465
▁stanford	-10.9465
▁inklusive	-10.9465
▁tempo	-10.9465
▁texas	-10.9465
▁tragödie	-10.9465
▁wohlbefinden	-10.9465
▁clever	-10.9465
▁gewöhnt	-10.9465
▁ritual	-10.9465
missbrauch	-10.9465
▁autismus	-10.9465
▁humor	-10.9465
▁ethisch	-10.9465
▁konsumenten	-10.9466
management	-10.9466
▁dienstleistung	-10.9466
▁vermittelt	-10.9466
▁angeles	-10.9468
▁gleichgewicht	-10.9469
▁symptome	-10.9471
▁lohn	-10.9472
▁papa	-10.9472
▁spazier	-10.9473
▁bewirken	-10.9473
▁hinblick	-10.9474
▁generier	-10.9475
temperatur	-10.9475
netzwerk	-10.9476
▁bedeckt	-10.9478
▁wiederholen	-10.9479
strom	-10.9486
▁oel	-10.9489
fliegen	-10.949
burg	-10.9491
dichte	-10.9492
▁überwach	-10.9494
position	-10.9498
füllen	-10.9524
▁ungewöhnlich	-10.9539
tank	-10.9545
stick	-10.9549
▁ausgegeben	-10.9554
▁geistige	-10.9554
durchschnittlich	-10.9575
▁fotografie	-10.9582
fest	-10.9584
oc	-10.9592
▁faser	-10.9601
▁magische	-10.9606
▁amazon	-10.961
▁beliebige	-10.961
▁gemeinnützige	-10.961
▁hypothese	-10.961
blüte	-10.961
gedreht	-10.961
händler	-10.961
▁manipulier	-10.961
▁offiziell	-10.961
▁parallel	-10.961
▁theoretisch	-10.961
▁befestig	-10.961
▁väter	-10.961
▁angepasst	-10.961
zeitig	-10.961
▁slum	-10.961
▁lärm	-10.9611
▁green	-10.9611
▁jegliche	-10.9611
▁kath	-10.9612
präsent	-10.9615
▁abhängigkeit	-10.9617
▁inspirierend	-10.9618
▁verteidigung	-10.9621
straße	-10.9622
gewebe	-10.9622
spitze	-10.9622
▁herauszu	-10.9642
▁explosion	-10.9647
rückt	-10.9651
▁brüder	-10.9651
▁weltall	-10.9653
▁laser	-10.9653
▁erwähnen	-10.9656
▁ausmacht	-10.966
▁komplexer	-10.9661
▁beschreibung	-10.9667
▁fordert	-10.9667
▁bad	-10.9671
bekommen	-10.9676
▁jeweil	-10.968
spalte	-10.9685
▁sauber	-10.9687
tasche	-10.9702
▁kleinste	-10.9712
▁bedürfnis	-10.9713
format	-10.9713
▁verschwinde	-10.9717
wind	-10.9717
reißen	-10.9726
12	-10.9746
schossen	-10.9747
ströme	-10.9757
▁möbel	-10.9757
▁dauerhaft	-10.9758
▁systematisch	-10.9758
▁fliegt	-10.9758
▁mathe	-10.9759
▁eigentum	-10.976
▁ausgaben	-10.976
▁höhepunkt	-10.9763
▁herausstellt	-10.9763
prothese	-10.9764
▁renn	-10.9765
▁protest	-10.9767
meister	-10.977
fabrik	-10.9771
▁36	-10.9771
forscher	-10.9771
unterricht	-10.9772
gerissen	-10.9782
▁aß	-10.9782
▁gerecht	-10.9782
▁eve	-10.9784
▁kategorie	-10.9787
▁geraten	-10.9787
▁0,	-10.9789
▁dame	-10.9795
rgestellt	-10.9799
▁begeh	-10.9804
▁mini	-10.9812
gefallen	-10.9814
geordnet	-10.9814
▁dez	-10.9816
▁wälder	-10.9823
messer	-10.9845
▁zeichne	-10.9847
▁verteilung	-10.9857
▁weich	-10.9861
spruch	-10.9864
▁wollt	-10.9867
versicherung	-10.9883
▁ausdrücke	-10.9892
able	-10.9901
service	-10.9906
▁abenteuer	-10.9906
▁baseball	-10.9906
▁feedback	-10.9906
▁oxford	-10.9906
▁spirituell	-10.9906
▁wütend	-10.9906
▁zwölf	-10.9906
▁auftaucht	-10.9906
▁intuition	-10.9906
▁käfer	-10.9906
▁logik	-10.9906
▁übersetzt	-10.9906
▁zwanzig	-10.9906
▁zwingen	-10.9906
▁futter	-10.9907
▁onkel	-10.9907
▁pilot	-10.9907
▁plus	-10.9907
▁bedauern	-10.9907
▁wirksam	-10.9907
▁präsentiere	-10.9908
▁raketen	-10.9909
▁verschwand	-10.9909
reicht	-10.9909
▁ziege	-10.991
▁alex	-10.9911
zubauen	-10.9915
▁organische	-10.9915
▁vorbild	-10.9915
▁2001	-10.9917
hundert	-10.9918
fährt	-10.9922
▁hindurch	-10.9927
▁teilnehmen	-10.9931
▁willkommen	-10.9935
▁erziehung	-10.9938
häuser	-10.9938
achse	-10.9938
amerikanische	-10.9944
brecher	-10.9944
▁king	-10.9952
▁erledig	-10.9961
▁ungewöhnliche	-10.998
▁zurückgehen	-10.9981
▁kombinier	-10.9987
verwaltung	-10.9991
▁kämpft	-10.9992
▁doppel	-10.9992
viel	-11.0018
▁gefährdet	-11.0022
frage	-11.0023
prüfung	-11.0028
▁ast	-11.0035
▁pflanze	-11.0046
hai	-11.0048
▁männliche	-11.0049
bett	-11.005
kehren	-11.0054
▁diabetes	-11.0058
▁initiative	-11.0058
▁januar	-11.0058
▁orchester	-11.0058
▁angemessen	-11.0058
▁anonym	-11.0058
▁geeignet	-11.0058
▁großzügig	-11.0058
▁higgs	-11.0058
▁interpretier	-11.0058
▁intuitiv	-11.0058
▁verurteilt	-11.0058
▁nachmittag	-11.0058
▁ehemalige	-11.0058
froren	-11.0058
▁juni	-11.0058
▁effizienz	-11.0058
▁psychologische	-11.0059
▁verleih	-11.0059
▁blickwinkel	-11.0059
verarbeitung	-11.006
▁martin	-11.006
mechanismus	-11.006
▁beendet	-11.0061
▁abhäng	-11.0063
▁erlern	-11.0063
▁kontroll	-11.0064
▁evolutionäre	-11.0066
▁26	-11.0069
▁sir	-11.0071
▁ausrüstung	-11.0076
physik	-11.0076
motor	-11.0079
▁auftrag	-11.0089
skop	-11.009
▁reiste	-11.0098
▁visuell	-11.0107
schuss	-11.0113
▁steiger	-11.0133
▁korallen	-11.0137
▁fri	-11.0139
▁psychologe	-11.0144
▁strahlung	-11.0164
areal	-11.0167
▁vorgang	-11.0167
kind	-11.0174
▁glaub	-11.0189
wachstum	-11.0194
grat	-11.0205
aktivität	-11.0206
▁waffe	-11.0206
schrecken	-11.0211
gestiegen	-11.0212
▁diskutieren	-11.0212
▁microsoft	-11.0212
▁reparieren	-11.0212
▁diagnostizier	-11.0212
▁geduld	-11.0212
▁praxis	-11.0212
▁züchte	-11.0212
▁entschuldigung	-11.0212
▁identisch	-11.0212
▁hässlich	-11.0212
▁william	-11.0212
club	-11.0212
▁vernetzt	-11.0213
wandlung	-11.0213
▁treibstoff	-11.0213
▁herrscht	-11.0213
belastung	-11.0215
▁herstellt	-11.0216
▁verhandlung	-11.022
▁festgestellt	-11.0222
▁guck	-11.0224
▁120	-11.0225
gesprochen	-11.0226
gestoßen	-11.0232
konferenz	-11.0233
▁dns	-11.0239
▁integr	-11.024
schön	-11.0247
zel	-11.025
▁spring	-11.0253
treib	-11.0253
▁leitet	-11.0257
boden	-11.0259
▁platzier	-11.0264
▁radikale	-11.027
▁hob	-11.028
klatsch	-11.0281
▁steh	-11.0284
qualle	-11.0313
▁pläne	-11.0315
▁felder	-11.0321
▁beschränkt	-11.0323
brille	-11.0348
▁liter	-11.0353
▁finanzier	-11.0362
▁flüssig	-11.0365
würfe	-11.0368
gefügt	-11.0368
schöpfung	-11.0368
syndrom	-11.0368
süchtig	-11.0368
▁begleitet	-11.0368
▁gestartet	-11.0368
▁manhattan	-11.0368
▁transparenz	-11.0368
▁verkünde	-11.0368
▁ängste	-11.0368
▁valley	-11.0368
▁herausfand	-11.0368
bezirk	-11.0368
▁smith	-11.0368
▁schädel	-11.0368
▁tendenz	-11.0368
▁bürgermeister	-11.0369
▁bürgerkrieg	-11.037
▁kopieren	-11.037
periode	-11.037
▁abendessen	-11.0372
▁überlegt	-11.0374
▁dankbar	-11.0374
▁vermisch	-11.038
▁schlicht	-11.038
▁pille	-11.0383
labor	-11.0385
alisiert	-11.0386
marke	-11.0402
▁reicher	-11.0418
▁95	-11.0425
▁leser	-11.0434
▁respektier	-11.0434
▁kombiniert	-11.0442
▁länge	-11.0451
▁dynamik	-11.0451
ville	-11.0457
▁nordamerika	-11.0472
getreten	-11.0483
▁führende	-11.0497
▁braun	-11.0498
▁aufwach	-11.0509
zeichnen	-11.052
▁parlament	-11.0527
▁urknall	-11.0527
▁außerordentlich	-11.0527
▁diskutiert	-11.0527
▁geliebt	-11.0527
▁mühe	-11.0527
▁simulation	-11.0527
▁substanz	-11.0527
▁vernünftig	-11.0527
▁gegessen	-11.0527
▁schwanz	-11.0527
▁lkw	-11.0527
▁richter	-11.0527
▁saturn	-11.0527
▁rettet	-11.0527
▁ladung	-11.0528
▁erwärmung	-11.0528
▁dringend	-11.0529
▁erfasst	-11.0529
▁zufriedenheit	-11.0531
▁schöner	-11.0532
▁hilfreich	-11.0535
organismus	-11.0538
▁draus	-11.0541
▁erfordert	-11.0543
chleife	-11.0548
▁unterwasser	-11.055
tanz	-11.0551
▁anbieten	-11.0555
türme	-11.0567
▁song	-11.0572
rös	-11.0574
▁fülle	-11.0582
▁hans	-11.0583
führer	-11.0587
nutzung	-11.06
atom	-11.06
▁beträg	-11.06
brems	-11.0601
▁sterbe	-11.061
anhand	-11.0615
▁erkenntnisse	-11.0646
▁nachfrage	-11.0647
▁behauptet	-11.0653
lia	-11.0658
förmige	-11.0659
▁gelände	-11.0663
▁trage	-11.0679
▁befrag	-11.0687
dringen	-11.0687
kontrolle	-11.0687
geprägt	-11.0688
▁beruhig	-11.0688
▁hölle	-11.0688
▁konzert	-11.0688
▁spontan	-11.0688
▁verlangsam	-11.0688
▁öfter	-11.0688
▁skelett	-11.0688
▁babies	-11.0688
▁installier	-11.0688
▁quanten	-11.0688
▁scharf	-11.0688
▁vereinbar	-11.0688
▁anhänger	-11.0689
▁kooperation	-11.0689
▁variation	-11.0689
▁betrachtung	-11.0689
▁geplant	-11.0689
▁terrorismus	-11.0689
▁ehemann	-11.069
▁1980	-11.0695
▁tragisch	-11.0696
▁schall	-11.0701
bal	-11.0708
▁anweisung	-11.0714
stimme	-11.0716
lehrer	-11.0718
schlaf	-11.0728
betrieb	-11.0729
flosse	-11.0738
▁pc	-11.0739
▁angetrieben	-11.0741
zieht	-11.0742
personal	-11.0742
topf	-11.0742
▁kamel	-11.0761
litz	-11.0765
ilität	-11.0777
▁beibring	-11.0792
▁emotion	-11.0794
▁auffassung	-11.0795
▁kb	-11.0824
▁militärische	-11.0833
wirken	-11.0833
▁penn	-11.0838
▁verteidig	-11.084
▁durcheinander	-11.0842
▁anpassung	-11.0849
rakete	-11.0851
▁südlich	-11.0851
gebühr	-11.0852
produzent	-11.0852
▁einschränkung	-11.0852
brüche	-11.0852
▁alzheimer	-11.0852
▁ignorieren	-11.0852
▁howard	-11.0852
▁aussterben	-11.0852
▁schief	-11.0852
▁distanz	-11.0852
▁kuchen	-11.0853
▁konstruktion	-11.0853
▁whit	-11.0853
regung	-11.0853
▁gerede	-11.0854
▁verhindert	-11.0859
▁reif	-11.0867
▁gefüllt	-11.0869
möglich	-11.0874
▁bang	-11.0876
▁ethnische	-11.0876
▁technolog	-11.0878
▁20.000	-11.0879
▁pazifik	-11.088
▁nutzer	-11.0882
küste	-11.0884
▁leder	-11.0886
▁verteilen	-11.0889
▁güter	-11.0889
▁ratten	-11.0889
schild	-11.0894
▁kiste	-11.0905
▁urban	-11.0913
▁aufzeichnung	-11.0914
▁lud	-11.0921
▁widm	-11.0922
▁psychische	-11.0923
eben	-11.0924
▁erscheinung	-11.0925
▁sexuelle	-11.0933
▁gri	-11.0933
▁anfühl	-11.0938
▁gerüst	-11.0943
▁vorgestellt	-11.0945
▁gefolg	-11.0949
obby	-11.0953
▁lieder	-11.0956
▁erledigt	-11.0958
mitten	-11.0971
span	-11.1005
▁klo	-11.1007
aktivist	-11.1008
nullsummen	-11.1019
spül	-11.1019
▁beschleunigt	-11.1019
▁business	-11.1019
▁cambridge	-11.1019
▁florida	-11.1019
▁muslimische	-11.1019
▁nährstoffe	-11.1019
▁schlagzeile	-11.1019
▁thunfisch	-11.1019
▁tränen	-11.1019
▁vietnam	-11.1019
▁vulkan	-11.1019
▁weiterentwickel	-11.1019
▁schwamm	-11.1019
▁notiz	-11.1019
ovember	-11.102
▁erkunden	-11.102
▁chor	-11.102
▁grausam	-11.1021
▁partnerschaft	-11.1022
▁watt	-11.1023
▁koran	-11.1025
▁media	-11.1026
▁elektronen	-11.1033
▁betreffen	-11.1033
zeitraum	-11.1039
▁okto	-11.104
säure	-11.1043
▁zeitschrift	-11.1047
student	-11.1053
strategie	-11.1053
feuer	-11.1053
▁unterhalten	-11.106
▁zurückkommen	-11.1061
▁erheb	-11.1069
▁vergleichbar	-11.1073
web	-11.1079
▁cap	-11.1083
direktor	-11.1094
▁verwalt	-11.1095
energieverbrauch	-11.1104
dex	-11.1141
▁verlor	-11.1145
11	-11.1154
▁mac	-11.1161
▁vorkommen	-11.1162
▁spin	-11.1164
▁schwanger	-11.1187
täuschen	-11.1188
▁anstrengung	-11.1188
▁behinderung	-11.1188
▁glühbirne	-11.1188
▁hollywood	-11.1188
▁muslime	-11.1188
▁optimismus	-11.1188
▁verknüpft	-11.1188
schüchter	-11.1188
▁balance	-11.1188
▁vielfältig	-11.1188
▁getestet	-11.1188
▁meeting	-11.1188
▁hormon	-11.1188
▁geöffnet	-11.1188
▁käme	-11.1188
plikation	-11.1189
kanäle	-11.1189
▁ungleichheit	-11.1191
▁menschlichkeit	-11.1192
▁mücke	-11.1194
gefertigt	-11.1195
zoom	-11.1197
▁weltbank	-11.1206
▁herab	-11.1215
▁tony	-11.1218
▁unterrichtet	-11.1225
verbindung	-11.1225
strecke	-11.1226
version	-11.1226
show	-11.1229
phase	-11.123
anda	-11.1231
stock	-11.1243
▁meta	-11.1275
▁grösser	-11.1296
▁mist	-11.1304
▁demokrat	-11.1307
▁sicherstell	-11.1315
ember	-11.1334
▁hill	-11.1335
▁allzu	-11.1351
rückkehr	-11.1359
gefäß	-11.136
▁involviert	-11.1361
▁kohlendioxid	-11.1361
▁völker	-11.1361
▁zentimeter	-11.1361
▁üben	-11.1361
▁tedtalk	-11.1361
stadium	-11.1361
▁motiviert	-11.1361
▁gestaltung	-11.1361
sensor	-11.1361
▁klingen	-11.1361
▁treppe	-11.1361
gestimmt	-11.1363
krabbe	-11.1364
lizenz	-11.1364
zyklus	-11.1365
▁datenbank	-11.1365
▁1950	-11.1366
forderung	-11.1367
▁schwerkraft	-11.1368
▁verdoppelt	-11.1371
▁lebensraum	-11.1373
▁schmerzhaft	-11.1376
▁romantische	-11.1376
▁rasse	-11.1377
▁hindernisse	-11.1384
▁antreib	-11.1389
▁französische	-11.139
berater	-11.1391
mächtig	-11.1395
▁gore	-11.1396
gehört	-11.1399
▁dreieck	-11.1401
probe	-11.1419
werkzeug	-11.1419
▁betreten	-11.1424
thema	-11.1425
▁euer	-11.1427
▁abbau	-11.1435
zeigen	-11.1447
▁fakt	-11.1466
▁grob	-11.148
wahlmöglichkeit	-11.1499
ziehung	-11.1503
▁repräsentier	-11.1524
gemäß	-11.153
detektor	-11.1536
krankenschwester	-11.1536
▁alkohol	-11.1536
▁ignoriert	-11.1536
▁pfeif	-11.1536
▁schizophren	-11.1536
▁synchron	-11.1536
▁überwältigend	-11.1536
▁konkret	-11.1536
▁mittagessen	-11.1536
▁phosphor	-11.1536
▁ermutigen	-11.1536
▁verborgen	-11.1536
▁präzise	-11.1536
▁rollstuhl	-11.1536
▁akteur	-11.1537
▁terroristen	-11.1537
▁gates	-11.1538
blume	-11.1538
▁ausreichend	-11.1538
meldung	-11.1539
▁blitz	-11.1539
bronx	-11.1539
▁fischerei	-11.154
▁elementar	-11.1541
▁taub	-11.1541
zählen	-11.1542
dämm	-11.1554
▁ungleich	-11.1554
▁mega	-11.1559
▁gegenstand	-11.1559
▁big	-11.1559
▁packt	-11.1564
▁wandert	-11.1564
15	-11.1568
▁eröffne	-11.1571
rief	-11.1574
kampagne	-11.1579
märkte	-11.1579
glück	-11.1597
▁sang	-11.161
▁angreif	-11.162
▁yea	-11.1631
streben	-11.1639
▁umfrage	-11.1641
▁bay	-11.1662
▁niedriger	-11.1664
▁künstlerische	-11.1688
wal	-11.1691
▁bob	-11.1695
▁ray	-11.1696
▁mahlzeit	-11.1715
knüpfen	-11.1715
▁atemberaubend	-11.1715
▁außerirdische	-11.1715
▁berührung	-11.1715
▁flughafen	-11.1715
▁hügel	-11.1715
▁simple	-11.1715
▁säugetiere	-11.1715
▁wähler	-11.1715
▁hilfsmittel	-11.1715
▁verzweifelt	-11.1715
▁befriedig	-11.1715
trockne	-11.1715
▁gewähr	-11.1715
▁umfassende	-11.1715
▁south	-11.1716
▁produktivität	-11.1716
▁blue	-11.1717
▁palm	-11.1717
▁anzuschauen	-11.1717
▁pocken	-11.172
▁kunstwerk	-11.1723
▁zusammenhäng	-11.1725
▁analogie	-11.1725
liegende	-11.173
▁newton	-11.1731
▁50.000	-11.1735
▁treu	-11.1743
▁abschnitt	-11.1744
▁leise	-11.1744
▁mobile	-11.1745
▁übersetzung	-11.1751
sache	-11.1754
gärt	-11.1756
element	-11.1763
▁lieb	-11.1769
teilchen	-11.1777
▁streich	-11.1802
▁russ	-11.1803
▁komplizierter	-11.1804
pflanzt	-11.1807
▁fehlende	-11.1809
aufgabe	-11.1841
▁stich	-11.1864
▁aufmerksam	-11.1893
▁raub	-11.1896
stühle	-11.1896
▁definitiv	-11.1896
▁empathie	-11.1896
▁getreide	-11.1896
▁interpretation	-11.1896
▁taliban	-11.1896
▁töchter	-11.1896
▁besaß	-11.1896
▁etablier	-11.1896
▁großvater	-11.1896
▁priorität	-11.1896
▁simulier	-11.1896
▁trainieren	-11.1896
▁größenordnung	-11.1896
geschätzt	-11.1896
▁linear	-11.1896
▁archiv	-11.1897
▁richtet	-11.1897
▁passiv	-11.1897
▁fußball	-11.1897
▁genetik	-11.1898
▁nackt	-11.1898
▁mutation	-11.1902
▁erlangen	-11.1902
▁individuum	-11.1905
▁reichtum	-11.1907
▁kleider	-11.1907
schaltet	-11.1908
▁vertrieb	-11.1925
finanzierung	-11.1929
▁hochzeit	-11.1933
food	-11.1938
bedingungen	-11.1946
partner	-11.1946
firmen	-11.1946
▁versehen	-11.1948
stift	-11.1949
virus	-11.1949
▁elend	-11.195
▁urteil	-11.1951
macher	-11.1973
▁mari	-11.1988
▁senke	-11.1999
▁blockier	-11.2
beamte	-11.2013
kammer	-11.2019
ologische	-11.2027
▁mono	-11.2044
▁nick	-11.2047
▁künstlich	-11.2053
▁held	-11.2053
elli	-11.2059
hülle	-11.2067
▁akzeptiert	-11.2082
▁anwälte	-11.2082
▁brilliant	-11.2082
▁fügt	-11.2082
▁gelähmt	-11.2082
▁gesünder	-11.2082
▁gletscher	-11.2082
▁hühner	-11.2082
▁löwen	-11.2082
▁phantom	-11.2082
▁unklar	-11.2082
▁verheiratet	-11.2082
▁äthiopien	-11.2082
▁bewirkt	-11.2082
▁installation	-11.2082
▁vertikal	-11.2082
▁unterscheidet	-11.2082
▁cyber	-11.2082
vertreter	-11.2082
▁trainiert	-11.2082
▁animation	-11.2082
▁unheimlich	-11.2082
▁pumpe	-11.2082
▁obdachlos	-11.2082
zettel	-11.2082
▁widerspruch	-11.2082
konzern	-11.2082
▁verbrennen	-11.2082
ößt	-11.2083
▁reiz	-11.2084
▁liest	-11.2085
▁autorität	-11.2085
▁black	-11.2086
▁flut	-11.2088
▁frühling	-11.2089
note	-11.2089
▁schwelle	-11.2097
▁abgeschlossen	-11.2103
▁verarbeiten	-11.2105
▁berechnet	-11.2119
▁türke	-11.2119
abhängig	-11.213
molekül	-11.2135
mitglieder	-11.2135
prinzip	-11.2135
▁anspruch	-11.2135
revolution	-11.2135
▁schreibtisch	-11.2136
wurzel	-11.2136
▁geling	-11.2137
arzt	-11.2141
▁weitermache	-11.2142
▁rio	-11.2145
kampf	-11.2147
▁jh	-11.2149
sekunde	-11.2152
▁formel	-11.2163
hört	-11.2176
▁kev	-11.2177
down	-11.2179
▁verbraucher	-11.2189
einkommen	-11.2205
fra	-11.2206
▁2,	-11.2213
▁sequenzier	-11.2263
frucht	-11.2266
▁königin	-11.2268
▁korea	-11.2269
hören	-11.2269
▁dopamin	-11.227
▁knopf	-11.227
▁korallenriff	-11.227
▁abraham	-11.227
▁attraktiv	-11.227
▁bakterium	-11.227
▁fütter	-11.227
▁kompromiss	-11.227
▁paradox	-11.227
▁spektakulär	-11.227
▁unangenehm	-11.227
▁stieß	-11.227
▁überqueren	-11.227
▁glatt	-11.227
herangehensweise	-11.227
gehoben	-11.227
▁konstant	-11.227
▁schnapp	-11.227
▁tiefsee	-11.227
▁heilung	-11.2271
▁henry	-11.2271
▁stoffwechsel	-11.2271
▁generell	-11.2271
▁voraussetzung	-11.2271
▁arbeitsplätze	-11.2272
▁export	-11.2272
▁verletzlichkeit	-11.2273
▁unsicherheit	-11.2273
▁kapitalismus	-11.2273
▁materielle	-11.2273
▁herkunft	-11.2274
zubringe	-11.2276
▁ekel	-11.2277
▁kunststoff	-11.228
▁holte	-11.2283
▁durchmesser	-11.2285
▁moore	-11.2287
▁33	-11.229
▁verfügen	-11.2291
▁optische	-11.2293
▁versammel	-11.2296
▁wahnsinnig	-11.2296
▁verhandel	-11.2297
▁auseinandersetz	-11.2298
▁zahlreiche	-11.2317
sektor	-11.2327
medizin	-11.2327
gebrochen	-11.2327
geschrieben	-11.2327
▁beschränk	-11.2327
wissen	-11.2329
fried	-11.2329
horn	-11.2331
landschaft	-11.2337
▁wall	-11.2338
einrichtung	-11.2339
level	-11.234
▁passend	-11.2349
▁erzähl	-11.2352
▁diplomat	-11.2371
wald	-11.2394
▁journal	-11.2411
▁güte	-11.2419
▁freizeit	-11.244
block	-11.2444
▁erfreu	-11.2447
▁verdoppel	-11.2451
geschaltet	-11.2451
▁mott	-11.2456
schütteln	-11.2463
▁expedition	-11.2463
▁fortgeschritten	-11.2463
▁gigantische	-11.2463
▁kontrovers	-11.2463
▁kühe	-11.2463
▁selektion	-11.2463
▁weibchen	-11.2463
▁apfel	-11.2463
▁benannt	-11.2463
▁verringern	-11.2463
▁käse	-11.2463
▁methan	-11.2463
▁ipod	-11.2463
▁abweich	-11.2463
▁glamourös	-11.2463
▁flagge	-11.2463
▁cousin	-11.2463
▁schott	-11.2463
▁selbstmord	-11.2463
▁ruder	-11.2463
▁statistisch	-11.2463
▁geformt	-11.2464
▁stabilität	-11.2465
▁supermarkt	-11.2465
▁brian	-11.2466
▁zelt	-11.2467
▁elite	-11.2469
▁riff	-11.2472
▁gegenstände	-11.2472
▁gewissermaß	-11.2488
▁tv	-11.249
▁strahlen	-11.249
▁massa	-11.2507
▁garage	-11.2509
▁olympische	-11.2519
figur	-11.2523
fleisch	-11.2523
signal	-11.2524
ju	-11.2547
strahlung	-11.256
▁800	-11.2568
▁chr	-11.2568
klang	-11.2576
▁historisch	-11.2577
ebru	-11.2582
▁lüg	-11.262
▁herauskomm	-11.262
halle	-11.2624
achtung	-11.2626
▁jane	-11.2628
herrschaft	-11.2629
▁funktionierende	-11.264
gängig	-11.2643
kritik	-11.2658
müde	-11.2659
▁antarktis	-11.2659
▁erstaunt	-11.2659
▁konstruiert	-11.2659
▁oxytocin	-11.2659
▁pharma	-11.2659
▁transparent	-11.2659
▁tänzer	-11.2659
interface	-11.2659
▁entwarf	-11.2659
▁optimier	-11.2659
▁primitiv	-11.2659
▁bestraf	-11.2659
▁kalorien	-11.2659
▁entropi	-11.2659
▁republikaner	-11.2659
▁riskier	-11.2659
▁versetzt	-11.2659
isation	-11.2659
▁knoten	-11.2659
▁regal	-11.2659
▁solarenergie	-11.2659
▁automobil	-11.266
truppe	-11.266
▁königreich	-11.266
▁zehntausende	-11.2661
▁peinlich	-11.2661
▁frühstück	-11.2663
▁gewässer	-11.2664
▁umfasst	-11.2664
▁rasch	-11.267
▁sturm	-11.2671
operieren	-11.2673
▁unrecht	-11.2676
▁mord	-11.2678
paket	-11.2679
▁mischung	-11.2681
äuber	-11.2683
▁weck	-11.2686
▁restliche	-11.27
weist	-11.2707
▁jeff	-11.2711
zität	-11.2712
bewusstsein	-11.2724
▁tru	-11.2727
▁erheblich	-11.2735
▁umkehr	-11.2772
▁planung	-11.2775
widmet	-11.2775
motiv	-11.279
▁def	-11.2827
dose	-11.2841
▁schickt	-11.2852
▁55	-11.2853
▁erneuer	-11.2857
▁glamour	-11.2859
▁delphin	-11.2859
▁eingeschränkt	-11.2859
▁geometrie	-11.2859
▁konzentration	-11.2859
▁lincoln	-11.2859
▁sorgfältig	-11.2859
▁tsunami	-11.2859
▁verzweiflung	-11.2859
▁wörtlich	-11.2859
▁gegner	-11.2859
▁sensib	-11.2859
▁atheist	-11.2859
▁zeile	-11.2859
▁vieh	-11.2859
▁umwandel	-11.2859
▁motivieren	-11.2859
transplantation	-11.2859
illiard	-11.286
▁fettleibigkeit	-11.286
▁1,5	-11.2861
▁manager	-11.2861
▁segel	-11.2872
▁tiger	-11.2873
▁litt	-11.2874
▁192	-11.2875
mechanism	-11.2876
▁jedermann	-11.2878
▁fuss	-11.2883
handlung	-11.2903
▁elf	-11.2914
lektr	-11.2919
maß	-11.2919
sequenz	-11.2927
pläne	-11.2928
geheimnisse	-11.2935
titel	-11.2942
▁befolg	-11.2946
▁giftige	-11.2955
▁existierende	-11.2957
▁marine	-11.2962
kunst	-11.2966
▁erkrank	-11.2978
▁sorte	-11.2995
▁spritz	-11.301
▁experimentieren	-11.3016
flüge	-11.3055
▁state	-11.3058
▁atlant	-11.306
käufe	-11.3061
kriminalität	-11.3063
toleranz	-11.3063
▁auswählen	-11.3063
▁begegnet	-11.3063
▁beschleunigen	-11.3063
▁bewältigen	-11.3063
▁dschihad	-11.3063
▁feuerwehr	-11.3063
▁jäger	-11.3063
▁portrait	-11.3063
▁potentielle	-11.3063
▁primaten	-11.3063
▁stattfand	-11.3063
▁treibhausgase	-11.3063
▁ultimative	-11.3063
▁zerbrechlich	-11.3063
▁ethik	-11.3063
▁regime	-11.3063
▁stickstoff	-11.3063
▁verabschied	-11.3063
▁termin	-11.3063
▁längst	-11.3063
▁zehen	-11.3063
▁architektonisch	-11.3063
▁versagt	-11.3063
▁ueber	-11.3063
▁blöd	-11.3063
▁tropfen	-11.3063
▁voraussagen	-11.3063
▁beschützen	-11.3063
▁probiert	-11.3063
▁akademische	-11.3063
▁immun	-11.3064
▁verboten	-11.3064
▁immunsystem	-11.3064
▁stunt	-11.3064
▁atomenergie	-11.3064
geholt	-11.3064
▁schenken	-11.3064
▁ausgezeichnet	-11.3065
▁minimal	-11.3066
▁pfad	-11.3066
▁informiert	-11.3066
▁panik	-11.3068
▁konsumieren	-11.3071
trunken	-11.3075
▁route	-11.3077
▁bildungssystem	-11.308
▁rauf	-11.3088
▁zweieinhalb	-11.3089
▁rosa	-11.3094
▁ameise	-11.3105
▁markiert	-11.3111
tschaftswachstum	-11.3116
fäng	-11.3117
ellig	-11.3119
▁derzeitige	-11.3127
▁unerwartete	-11.3131
gespräch	-11.3135
analyse	-11.3135
viertel	-11.3136
verständnis	-11.3136
roboter	-11.3136
▁vertrag	-11.3136
▁85	-11.3138
gelaufen	-11.3139
behandlung	-11.314
saal	-11.316
▁bereitet	-11.3183
▁brillante	-11.3191
▁gewiss	-11.3195
▁loszu	-11.32
▁kosmo	-11.3228
▁ablauf	-11.3242
werden	-11.3252
▁handwerk	-11.3263
taste	-11.3263
getränk	-11.3271
▁bizarr	-11.3271
▁gestohlen	-11.3271
▁nirgendwo	-11.3271
▁nördlich	-11.3271
▁pizza	-11.3271
▁shanghai	-11.3271
▁stärkste	-11.3271
▁synthetische	-11.3271
▁ultraschall	-11.3271
▁verfügt	-11.3271
▁andrew	-11.3271
▁behauptung	-11.3271
▁reporter	-11.3271
▁servier	-11.3271
gesteckt	-11.3271
▁versorgt	-11.3271
▁wohlhabend	-11.3271
▁wahrhaftig	-11.3271
▁jazz	-11.3271
▁vorlesung	-11.3271
▁regenwald	-11.3272
▁urheberrecht	-11.3272
▁biosphäre	-11.3273
▁geschäftsmodell	-11.3273
▁hausaufgabe	-11.3273
▁weizen	-11.3274
▁euro	-11.3276
▁fotografieren	-11.3278
▁freundschaft	-11.3279
▁comp	-11.3297
▁poly	-11.3298
▁ideo	-11.3298
▁durchführt	-11.3301
▁entscheide	-11.3303
▁grand	-11.3314
gebildet	-11.3325
rennen	-11.3332
▁schnellste	-11.3346
tiefst	-11.3347
erfahrung	-11.3349
▁grösse	-11.335
materialien	-11.3352
beziehung	-11.3354
▁beobachte	-11.3356
faser	-11.3381
wich	-11.3382
brenn	-11.3386
guck	-11.3395
▁letz	-11.3398
▁verrate	-11.3428
▁wochenende	-11.3456
sinnig	-11.3458
▁anhör	-11.3477
▁republik	-11.3484
gläubig	-11.3484
unterbrochen	-11.3484
▁august	-11.3484
▁ausgestorben	-11.3484
▁beeindruckt	-11.3484
▁differenz	-11.3484
▁fröhlich	-11.3484
▁gewohnt	-11.3484
▁gravitation	-11.3484
▁jüdische	-11.3484
▁luxus	-11.3484
▁scott	-11.3484
▁übel	-11.3484
▁demonstration	-11.3484
▁konversation	-11.3484
▁nelson	-11.3484
▁stephen	-11.3484
▁zuhörer	-11.3484
▁pandemie	-11.3484
▁grösste	-11.3484
▁verstecken	-11.3484
▁protozelle	-11.3484
▁kosmische	-11.3484
▁heiz	-11.3484
▁würfel	-11.3484
▁gitter	-11.3484
▁redner	-11.3484
skript	-11.3484
▁klappt	-11.3484
▁sonntag	-11.3484
▁mitleid	-11.3485
▁gedruckt	-11.3486
▁barriere	-11.3486
▁hervorruf	-11.3487
▁kluft	-11.3487
▁albert	-11.3489
▁verschick	-11.349
▁hacker	-11.3491
▁hong	-11.3492
▁jahrelang	-11.3493
▁unsicher	-11.3493
▁ufer	-11.3495
▁besprech	-11.3496
▁unabhängigkeit	-11.3498
▁lego	-11.3499
▁aktuell	-11.3499
▁hals	-11.35
abdruck	-11.3501
▁unfälle	-11.3502
▁3.000	-11.3504
▁mytho	-11.3504
▁uralte	-11.3519
▁besorg	-11.3529
▁bringe	-11.3534
▁allererste	-11.356
blog	-11.3561
ingenieur	-11.3566
experiment	-11.3566
papier	-11.3566
flügel	-11.3573
freiheit	-11.3573
box	-11.3576
dimensionale	-11.3579
▁sach	-11.361
▁rente	-11.3615
wendung	-11.3625
▁neueste	-11.3625
▁fliegende	-11.3629
▁rose	-11.3634
▁betrag	-11.3655
▁schmi	-11.3656
ison	-11.3662
rotten	-11.3692
uhr	-11.3695
protokoll	-11.3701
▁ausländische	-11.3701
▁beschädigt	-11.3701
▁engagement	-11.3701
▁explodiert	-11.3701
▁kriminelle	-11.3701
▁richtlinie	-11.3701
▁earth	-11.3701
▁erwischt	-11.3701
▁feynman	-11.3701
▁gandhi	-11.3701
▁melodie	-11.3701
▁silicon	-11.3701
▁wohltätigkeit	-11.3701
▁amateur	-11.3701
foundation	-11.3701
▁chaotisch	-11.3701
▁detailliert	-11.3701
▁beleuchtung	-11.3701
▁larry	-11.3701
▁america	-11.3701
▁tiefgreifend	-11.3701
▁verpflichtung	-11.3701
▁bequem	-11.3701
▁bundesstaat	-11.3701
▁anwalt	-11.3702
▁insekt	-11.3702
▁bestäub	-11.3702
▁verwirklichen	-11.3703
▁treffe	-11.3703
▁kandidaten	-11.3703
▁zustimmen	-11.3704
▁drückt	-11.3704
klebt	-11.3705
▁behörden	-11.3705
▁unterschätz	-11.3706
▁surf	-11.3707
▁denkst	-11.3707
▁johnson	-11.3707
▁entschuldige	-11.3707
paar	-11.3707
▁drahtlose	-11.3708
▁behindert	-11.3709
▁ironisch	-11.3713
bericht	-11.3718
▁überwachung	-11.372
▁spanisch	-11.3721
▁packen	-11.3727
verschwendung	-11.3732
▁tiefste	-11.3743
willig	-11.3744
▁realistisch	-11.3746
▁alltägliche	-11.3749
sparen	-11.3758
höhe	-11.3762
rausch	-11.3771
▁unbekannt	-11.3778
spiegel	-11.3787
situation	-11.3788
flugzeug	-11.3788
gesagt	-11.3789
zehn	-11.3789
luft	-11.3796
kugel	-11.3799
▁mau	-11.3808
triff	-11.3816
fahr	-11.3827
▁sea	-11.383
▁hyp	-11.387
schiff	-11.3886
sahara	-11.3891
▁herzlich	-11.3894
▁beunruhig	-11.3899
▁draht	-11.3917
▁betreib	-11.3919
▁pinguin	-11.3921
stimul	-11.3922
rwärmung	-11.3922
▁antibiotika	-11.3923
▁assoziier	-11.3923
▁beschaffen	-11.3923
▁cloud	-11.3923
▁cricket	-11.3923
▁gelegentlich	-11.3923
▁hawaii	-11.3923
▁bewiesen	-11.3923
▁bewerb	-11.3923
▁bzw	-11.3923
kortex	-11.3923
▁börse	-11.3924
▁thermo	-11.3924
▁daniel	-11.3924
▁prinz	-11.3924
▁streng	-11.3924
oxid	-11.3924
▁teller	-11.3924
ji	-11.3924
▁rannte	-11.3924
▁robust	-11.3924
▁mandela	-11.3924
▁mentor	-11.3924
▁ruin	-11.3925
▁aufgezeichnet	-11.3925
▁mount	-11.3925
▁dampf	-11.3925
▁klänge	-11.3926
▁jesus	-11.3926
▁wörterbuch	-11.3926
▁beantwortet	-11.3932
▁kino	-11.3933
▁autobahn	-11.3936
▁notwendigkeit	-11.3937
▁kindersitz	-11.3938
▁fassen	-11.394
▁festhalten	-11.3941
town	-11.3943
▁bewohn	-11.3945
▁gesucht	-11.3951
▁sendet	-11.3957
▁wandern	-11.3959
▁freitag	-11.3964
saison	-11.3976
wahl	-11.3994
ökonom	-11.4015
gesundheit	-11.4016
unterschied	-11.4016
information	-11.4019
▁personalisier	-11.402
lzt	-11.402
▁diplomati	-11.4031
chu	-11.4039
▁verricht	-11.409
gefordert	-11.4091
speis	-11.4105
▁marc	-11.4111
▁frag	-11.4136
musik	-11.4144
reflex	-11.4151
kollaps	-11.4151
schlussfolgerung	-11.4151
▁allgegenwärtig	-11.4151
▁arzneimittel	-11.4151
▁benjamin	-11.4151
▁clinton	-11.4151
▁erschwinglich	-11.4151
▁eventuell	-11.4151
▁großeltern	-11.4151
▁konkurrieren	-11.4151
▁rückwärts	-11.4151
▁transformation	-11.4151
▁vergewaltigt	-11.4151
▁zigarette	-11.4151
▁göttlich	-11.4151
▁langlebig	-11.4151
▁ordentlich	-11.4151
▁verbrannt	-11.4151
▁orbit	-11.4151
▁verarbeitet	-11.4151
▁alpha	-11.4151
▁herbst	-11.4151
lässig	-11.4151
▁universal	-11.4151
▁ablehn	-11.4152
▁bären	-11.4152
▁bausteine	-11.4152
▁sexual	-11.4153
▁jones	-11.4153
▁erlaubnis	-11.4153
▁arbeitsplatz	-11.4154
▁sensoren	-11.4155
▁fallschirm	-11.4155
▁betrug	-11.4155
▁platten	-11.4156
▁tempel	-11.4156
adresse	-11.4156
▁wahrgenommen	-11.4158
▁long	-11.4158
▁ansah	-11.4158
gereist	-11.416
▁unschuldig	-11.4161
▁feder	-11.4162
▁29	-11.4164
▁legal	-11.4164
berechtig	-11.4164
ridge	-11.417
entwickler	-11.4176
▁ordn	-11.4176
▁who	-11.4186
▁anliegen	-11.4188
▁reiß	-11.4201
▁hebel	-11.4204
▁wund	-11.4205
▁hoffnungslos	-11.4212
chip	-11.4218
▁lunge	-11.4235
▁regionale	-11.4242
stärke	-11.4243
antwort	-11.4247
filter	-11.4247
blätter	-11.4248
verteilung	-11.4254
besitz	-11.4259
▁häufigste	-11.426
ergebnisse	-11.4262
generation	-11.4275
▁russische	-11.428
▁friedlich	-11.4282
köpf	-11.4291
vollzieh	-11.4311
▁riesig	-11.4315
messung	-11.4317
▁französisch	-11.4343
▁basieren	-11.4345
▁entsetzlich	-11.4383
▁erläuter	-11.4383
▁ermutigt	-11.4383
▁fledermäuse	-11.4383
▁hungrig	-11.4383
▁hüfte	-11.4383
▁künste	-11.4383
▁physiologi	-11.4383
▁premierminister	-11.4383
▁project	-11.4383
▁verwirrt	-11.4383
▁willkürlich	-11.4383
▁liberale	-11.4383
▁angewendet	-11.4383
▁spanien	-11.4383
▁externe	-11.4384
▁applau	-11.4384
▁daneben	-11.4384
▁filmemacher	-11.4384
▁mitfühlend	-11.4384
▁brutal	-11.4384
▁erschreckend	-11.4384
▁wohnzimmer	-11.4385
▁schweben	-11.4385
atmet	-11.4386
gemischt	-11.4387
▁leih	-11.4393
gelöscht	-11.4395
▁nebel	-11.4395
▁seti	-11.4397
▁48	-11.4399
▁intim	-11.4399
▁zusammenbruch	-11.4407
▁vorherige	-11.4414
▁camp	-11.4424
kämpft	-11.4485
rechner	-11.4485
glaubt	-11.4486
zweck	-11.4486
▁kritisch	-11.4523
▁witzig	-11.4525
wände	-11.4528
bieten	-11.4571
rücken	-11.4591
▁bewegende	-11.4591
rüstung	-11.4592
gua	-11.4595
klopf	-11.4614
▁tätig	-11.4618
▁moskito	-11.4621
▁bemühen	-11.4621
▁beängstigend	-11.4621
▁errichtet	-11.4621
▁götter	-11.4621
▁joshua	-11.4621
▁konkurrenz	-11.4621
▁rückenmark	-11.4621
▁sklaverei	-11.4621
▁umgewandelt	-11.4621
▁virginia	-11.4621
gläser	-11.4621
▁populär	-11.4621
▁wright	-11.4621
▁griechen	-11.4621
▁indonesi	-11.4621
▁lateinamerika	-11.4621
▁meeresspiegel	-11.4622
shirt	-11.4622
▁kritiker	-11.4622
▁variable	-11.4622
▁zusammenfassen	-11.4622
sprochen	-11.4622
▁wertschätz	-11.4622
▁monster	-11.4622
▁erdöl	-11.4623
▁erdgas	-11.4623
▁truppen	-11.4624
äumt	-11.4626
▁rückseite	-11.4627
▁email	-11.4627
▁zirk	-11.4628
▁fördert	-11.4628
▁montag	-11.4631
▁taxi	-11.4634
▁männlich	-11.4635
▁46	-11.4637
▁make	-11.464
gegriffen	-11.4644
▁lacht	-11.4644
▁wiegt	-11.4651
▁raster	-11.4658
▁spart	-11.4665
statue	-11.4685
konto	-11.4688
wood	-11.4689
sammeln	-11.4711
verhältnisse	-11.4714
gurt	-11.4715
bühne	-11.473
bänder	-11.4735
▁objektiv	-11.4736
▁stu	-11.4736
empfänger	-11.4786
helm	-11.4788
▁grenz	-11.479
reihe	-11.4797
▁spann	-11.485
▁verletzlich	-11.4862
anthrop	-11.4864
▁flüchtling	-11.4865
▁buddhis	-11.4865
▁elektromagnet	-11.4865
▁glüh	-11.4865
▁halluzination	-11.4865
▁verdeutlich	-11.4865
▁verstorben	-11.4865
füllung	-11.4865
▁anerkannt	-11.4865
▁april	-11.4865
▁beeinträchtig	-11.4865
▁bestätigt	-11.4865
▁bräuchte	-11.4865
▁cartoon	-11.4865
▁idiot	-11.4865
▁investoren	-11.4865
▁joseph	-11.4865
▁konstruieren	-11.4865
▁koordinier	-11.4865
▁münze	-11.4865
▁unvorstellbar	-11.4865
▁zeitgenössische	-11.4865
▁ähnelt	-11.4865
▁gesunken	-11.4865
▁leinwand	-11.4865
▁aristotel	-11.4865
▁charlie	-11.4865
▁vorgehensweise	-11.4865
psychopath	-11.4865
▁frosch	-11.4865
stürzen	-11.4865
▁parasit	-11.4865
▁verabreich	-11.4865
▁minus	-11.4866
▁anschließend	-11.4867
▁action	-11.4867
▁hmm	-11.4867
▁nervensystem	-11.4868
▁atlantik	-11.4868
▁raumschiff	-11.4868
▁fox	-11.4869
▁grundschul	-11.487
▁veranstalte	-11.487
automat	-11.487
▁hemd	-11.4871
▁logo	-11.4872
▁tauschen	-11.4873
▁markieren	-11.4873
sauce	-11.4874
▁chirurgie	-11.4875
▁ultra	-11.4876
gefasst	-11.4877
▁pink	-11.4881
▁mike	-11.4882
antwortet	-11.4884
▁luc	-11.4893
▁zusammensetz	-11.4896
sandwich	-11.4897
volt	-11.4906
▁integrier	-11.4909
▁geringste	-11.4922
▁bestehende	-11.4923
mpt	-11.4934
▁agieren	-11.495
▁kollege	-11.495
▁hervorbring	-11.4967
chirurg	-11.4977
frequenz	-11.4979
künstler	-11.498
blatt	-11.498
gearbeitet	-11.498
klick	-11.4981
moment	-11.4987
drehen	-11.5
spezialist	-11.5006
psycholog	-11.504
▁act	-11.5045
▁ash	-11.5064
▁hea	-11.5069
▁zugrunde	-11.5109
▁bemühung	-11.5115
sprüche	-11.5115
▁begegnung	-11.5115
▁dilemma	-11.5115
▁empfehle	-11.5115
▁früchte	-11.5115
▁hardware	-11.5115
▁herkömmliche	-11.5115
▁kristall	-11.5115
▁leonardo	-11.5115
▁räumlich	-11.5115
▁schöpfer	-11.5115
▁vernachlässig	-11.5115
▁hektar	-11.5115
▁verringert	-11.5115
▁woanders	-11.5115
▁clip	-11.5115
▁erwerb	-11.5115
▁kritisier	-11.5115
▁dächer	-11.5115
▁subtil	-11.5115
▁greifbar	-11.5116
▁nebenwirkung	-11.5116
▁nordpol	-11.5117
▁wildnis	-11.5118
▁spender	-11.5119
▁bieg	-11.5121
nerzähler	-11.5124
▁mix	-11.5132
hindert	-11.5141
▁krebszelle	-11.5158
fragment	-11.5162
▁leidet	-11.5165
schutzgebiet	-11.5176
jagt	-11.5204
fuhr	-11.5208
▁fortsetz	-11.5234
▁hochschul	-11.5235
dynamik	-11.5236
stuhl	-11.5236
rahmen	-11.5236
bleiben	-11.5236
kurve	-11.5237
▁grundstück	-11.525
text	-11.525
▁folter	-11.5257
spuren	-11.526
schildkröte	-11.5372
▁aggressiv	-11.5372
▁angiogenese	-11.5372
▁ausgestattet	-11.5372
▁buddha	-11.5372
▁county	-11.5372
▁embryo	-11.5372
▁gewalttätig	-11.5372
▁instinktiv	-11.5372
▁lebensunterhalt	-11.5372
▁registrier	-11.5372
▁trommel	-11.5372
▁vakuum	-11.5372
▁verletzen	-11.5372
▁ansteckend	-11.5372
▁gedeih	-11.5372
▁verdräng	-11.5372
▁helium	-11.5372
▁dvd	-11.5372
▁zuverlässig	-11.5372
▁panzer	-11.5372
▁north	-11.5372
▁schweigen	-11.5372
▁priester	-11.5372
▁flucht	-11.5372
agentur	-11.5372
etikett	-11.5372
▁sänger	-11.5372
▁identifiziert	-11.5373
▁zutaten	-11.5374
▁verschaffen	-11.5374
▁stachel	-11.5374
scanner	-11.5374
▁iq	-11.5375
▁notfall	-11.5376
▁zusammengefasst	-11.5377
implantat	-11.5377
▁standort	-11.5378
▁kerze	-11.5382
▁raumfahrt	-11.5383
▁bevorzuge	-11.5387
▁free	-11.5391
▁digitalisier	-11.5393
▁eigenartig	-11.5411
kapsel	-11.5433
▁musikstück	-11.5449
▁2,5	-11.546
wirkung	-11.5469
▁ressource	-11.5469
potent	-11.5477
eimer	-11.5481
speicher	-11.5499
bürger	-11.55
museum	-11.55
familie	-11.55
nummer	-11.55
steigerung	-11.5505
mauer	-11.5506
▁steigende	-11.5517
▁cu	-11.5523
▁ökologi	-11.5542
kontroll	-11.5547
▁feucht	-11.557
▁öko	-11.5578
▁alphabet	-11.5602
twicklungsländer	-11.5618
▁durchdring	-11.5618
schränke	-11.5632
▁proportion	-11.5635
veröffentlichung	-11.5635
▁ausgedrückt	-11.5635
▁ausprobiert	-11.5635
▁carolina	-11.5635
▁demonstriert	-11.5635
▁erweiterung	-11.5635
▁kälte	-11.5635
▁kühn	-11.5635
▁mcdonald	-11.5635
▁mumbai	-11.5635
▁optimal	-11.5635
▁völkermord	-11.5635
▁transistor	-11.5635
▁zeitspanne	-11.5635
▁everest	-11.5635
▁tendieren	-11.5635
▁drastisch	-11.5635
▁östlich	-11.5635
▁leistet	-11.5635
stream	-11.5635
▁heftig	-11.5635
▁angeblich	-11.5635
▁agenda	-11.5635
▁arthur	-11.5635
▁stirn	-11.5635
zeremonie	-11.5635
▁veranlass	-11.5635
▁stimm	-11.5636
▁schwangerschaft	-11.5636
▁kopiert	-11.5636
▁tabelle	-11.5636
▁harmonie	-11.5636
▁hafen	-11.5637
▁trost	-11.5637
▁quadratmeter	-11.5637
▁saudi	-11.5638
▁zitiere	-11.5639
▁scherz	-11.564
▁konventionelle	-11.5642
▁söhne	-11.5642
▁abgelegen	-11.5643
▁strich	-11.5644
▁daumen	-11.5645
▁instabil	-11.5646
▁schockierend	-11.5646
screen	-11.565
▁wiki	-11.5654
▁indus	-11.5656
▁abschneide	-11.5658
schnecke	-11.5662
▁authentisch	-11.567
förmig	-11.5683
▁schliess	-11.5687
▁beschrieb	-11.5688
▁nutze	-11.5696
▁mathematisch	-11.5706
▁these	-11.5715
▁empfinde	-11.5715
▁vorhersage	-11.5732
▁experimentelle	-11.5744
▁besetz	-11.5751
rohr	-11.5754
prall	-11.576
operation	-11.5768
risiko	-11.577
foto	-11.577
kommunikation	-11.5771
himmel	-11.5773
abschluss	-11.5774
zubilden	-11.5781
▁unerwartet	-11.5816
gras	-11.5817
▁satt	-11.5824
erfolg	-11.5826
nehmer	-11.5834
weisung	-11.5877
programmier	-11.5901
kolleg	-11.5902
wurf	-11.5905
▁absorbier	-11.5905
▁bahnbrechende	-11.5905
▁beherrschen	-11.5905
▁connectome	-11.5905
▁ehrgeiz	-11.5905
▁frustriert	-11.5905
▁geographic	-11.5905
▁hybrid	-11.5905
▁kartoffel	-11.5905
▁referenz	-11.5905
▁reflektieren	-11.5905
▁rezession	-11.5905
▁schmeckt	-11.5905
▁tansania	-11.5905
▁erleichter	-11.5905
▁fiktion	-11.5905
▁wiederaufbau	-11.5905
▁2020	-11.5905
▁redwood	-11.5905
▁transformieren	-11.5905
▁gänse	-11.5905
▁absurd	-11.5905
▁einsetzt	-11.5905
kompetenz	-11.5905
▁enzym	-11.5905
▁bestechung	-11.5905
▁agrar	-11.5905
▁beseitigen	-11.5905
▁koffer	-11.5905
▁fusion	-11.5905
▁tragbare	-11.5905
▁tugend	-11.5905
▁vorbereitung	-11.5905
▁waisen	-11.5905
blöcke	-11.5906
▁myzel	-11.5906
▁begründet	-11.5906
▁gelungen	-11.5906
▁recycling	-11.5906
▁koennen	-11.5906
▁verlink	-11.5907
▁innenstadt	-11.5907
▁trinkwasser	-11.5907
▁gewehr	-11.5909
▁sprang	-11.591
grube	-11.591
▁schädlich	-11.5912
stellige	-11.5912
▁immens	-11.5914
▁tunnel	-11.5915
▁voranzu	-11.5932
ventil	-11.5937
scheide	-11.596
▁bedingung	-11.5966
zuarbeiten	-11.5999
schwärme	-11.6026
▁sexuell	-11.6046
metall	-11.6048
menschliche	-11.6048
abgeordnete	-11.6075
fäl	-11.6077
▁beinhalte	-11.6079
religiös	-11.6094
▁bach	-11.6134
täter	-11.6142
▁wahnsinn	-11.6144
dosi	-11.6159
rührt	-11.6173
▁geolog	-11.6181
histori	-11.6182
sprüh	-11.6183
▁enthusias	-11.6183
▁kyros	-11.6183
▁bestätigen	-11.6183
▁demonstrieren	-11.6183
▁empfangen	-11.6183
▁hühnchen	-11.6183
▁kambodscha	-11.6183
▁katastrophal	-11.6183
▁kontinuierlich	-11.6183
▁kopenhagen	-11.6183
▁kostengünstig	-11.6183
▁mysteriös	-11.6183
▁paradigma	-11.6183
▁robotik	-11.6183
▁stewart	-11.6183
▁tastatur	-11.6183
▁vitamin	-11.6183
▁asthma	-11.6183
▁befürchte	-11.6183
▁sylvia	-11.6183
▁wilson	-11.6183
szenari	-11.6183
▁audio	-11.6183
▁beurteilen	-11.6183
▁parkinson	-11.6183
▁beruht	-11.6183
gräb	-11.6183
▁verschwendet	-11.6183
▁gespeichert	-11.6183
▁tattoo	-11.6183
▁beratung	-11.6183
▁kreation	-11.6183
▁krähen	-11.6183
▁irrational	-11.6183
▁keller	-11.6183
▁stört	-11.6183
▁andauernd	-11.6184
▁verdau	-11.6184
helfer	-11.6184
▁spezialisiert	-11.6184
▁biomasse	-11.6186
▁ibm	-11.6186
▁simon	-11.6188
▁überschreite	-11.6189
umweltfreundlich	-11.6189
▁fortpflanz	-11.6192
▁kraftvolle	-11.6192
▁homosexuell	-11.6193
▁kuba	-11.6194
▁einflussreich	-11.62
geschoss	-11.6205
▁beunruhigend	-11.6214
▁lehm	-11.622
▁leistungsfähig	-11.6227
versuch	-11.6236
hauen	-11.6236
▁antenne	-11.6238
▁chirurgische	-11.6238
imitieren	-11.6246
▁nachweis	-11.6248
fächer	-11.6249
zählt	-11.6296
▁meile	-11.6303
▁bunt	-11.6309
haufen	-11.6333
verletzung	-11.6333
büro	-11.6333
sozial	-11.6334
liefert	-11.6335
▁psychisch	-11.6345
▁mechani	-11.6362
▁paradi	-11.6373
▁südamerika	-11.6388
▁geografi	-11.6429
findung	-11.6433
campus	-11.6439
bekämpfung	-11.6469
▁1,2	-11.6469
▁alexander	-11.6469
▁allmählich	-11.6469
▁bangladesch	-11.6469
▁bündel	-11.6469
▁depressiv	-11.6469
▁eingebettet	-11.6469
▁geleistet	-11.6469
▁griechische	-11.6469
▁highschool	-11.6469
▁minderheit	-11.6469
▁reduktion	-11.6469
▁shakespeare	-11.6469
▁smartphone	-11.6469
getaucht	-11.6469
▁auslöst	-11.6469
▁bewaffnet	-11.6469
▁intervention	-11.6469
▁kollision	-11.6469
▁louis	-11.6469
▁replizier	-11.6469
▁schätzt	-11.6469
▁ungeheure	-11.6469
▁verdächtig	-11.6469
▁gattung	-11.6469
▁health	-11.6469
▁garantiert	-11.6469
▁senior	-11.6469
▁rabbi	-11.6469
▁frösche	-11.6469
▁delhi	-11.6469
▁primär	-11.6469
celsi	-11.6469
▁plakat	-11.6469
▁gründlich	-11.6469
▁streitgespräch	-11.6469
▁berlin	-11.6469
träumt	-11.6469
▁dirigent	-11.6469
▁problematisch	-11.647
▁stören	-11.647
stimulation	-11.6471
▁ausbreiten	-11.6472
einsparung	-11.6472
▁puls	-11.6472
seitige	-11.6484
schärfe	-11.6486
vermeid	-11.6486
orientierung	-11.6495
kabine	-11.6503
▁betreu	-11.6509
▁schmutzige	-11.651
▁schnittstelle	-11.6519
klammer	-11.6523
▁fasst	-11.6524
schlauch	-11.6533
forscht	-11.6534
tödliche	-11.6544
▁konsequenz	-11.6547
▁täte	-11.6547
beutel	-11.6561
▁glob	-11.6578
print	-11.6589
▁bundes	-11.6598
allererst	-11.6612
▁jeweilige	-11.6621
rezept	-11.6626
population	-11.6627
schieß	-11.6627
ernährung	-11.6627
mädchen	-11.6628
fehler	-11.6628
niveau	-11.6628
starrt	-11.6629
▁hinausgeh	-11.6645
handschuh	-11.6677
▁freud	-11.6729
klären	-11.6735
stange	-11.6744
▁virtuell	-11.6746
kandidat	-11.676
▁errungenschaft	-11.6763
▁veranschaulich	-11.6763
▁verschmelz	-11.6763
fakultät	-11.6763
lüfte	-11.6763
▁bergsteiger	-11.6763
▁betrüger	-11.6763
▁endgültig	-11.6763
▁grönland	-11.6763
▁lähmung	-11.6763
▁mammographie	-11.6763
▁netzhaut	-11.6763
▁entschlüssel	-11.6763
▁überquert	-11.6763
▁doodle	-11.6763
▁komponist	-11.6763
▁chronische	-11.6763
▁waschmaschine	-11.6763
▁relation	-11.6763
▁erwecken	-11.6763
▁lebensstil	-11.6763
▁story	-11.6763
▁bearbeitet	-11.6763
▁essentiell	-11.6763
körner	-11.6763
▁sarah	-11.6763
▁formuliert	-11.6763
▁wußte	-11.6763
▁aufrichtig	-11.6763
▁säulen	-11.6763
▁tesla	-11.6763
▁knall	-11.6763
▁garantiere	-11.6763
▁silber	-11.6763
▁widerspiegel	-11.6763
▁befreit	-11.6763
▁älterwerden	-11.6763
▁kosov	-11.6765
▁solarzellen	-11.6765
▁puppen	-11.6765
▁antikörper	-11.6765
geachtet	-11.6765
▁wiederherstell	-11.6768
gehörigkeit	-11.6769
dyna	-11.677
▁fruchtbar	-11.677
▁hirte	-11.6773
▁artenvielf	-11.6773
amerikaner	-11.6774
▁anwesend	-11.6774
▁susan	-11.6786
▁kratz	-11.6797
beugen	-11.6815
▁kollektiv	-11.6821
▁beiträg	-11.6827
pflege	-11.6847
▁statisch	-11.6869
▁loswerde	-11.6889
verhältnis	-11.6892
▁verliere	-11.6901
wälder	-11.693
infektion	-11.693
zauber	-11.693
quat	-11.6933
bohr	-11.6939
▁hingeg	-11.7001
drehung	-11.7014
▁verschreib	-11.7015
▁hindernis	-11.7024
strömt	-11.7066
entzündung	-11.7066
flüster	-11.7066
ästhetik	-11.7066
▁aufklärung	-11.7066
▁demütig	-11.7066
▁herzinfarkt	-11.7066
▁humanitäre	-11.7066
▁multiplizier	-11.7066
▁provinz	-11.7066
▁reflektiert	-11.7066
▁regulierung	-11.7066
▁unterhaltsam	-11.7066
▁unzählige	-11.7066
▁urlaub	-11.7066
▁ursprünge	-11.7066
▁verzeih	-11.7066
▁anspruchsvolle	-11.7066
▁bananen	-11.7066
▁vernetzung	-11.7066
▁erschuf	-11.7066
▁knack	-11.7066
▁ostküste	-11.7066
▁empir	-11.7066
splitte	-11.7066
cluster	-11.7066
▁meeresboden	-11.7067
▁geschäftsführer	-11.7067
▁todesfälle	-11.7067
▁rechenschaft	-11.7068
▁gemalt	-11.7069
sturz	-11.7069
erzeugung	-11.7073
getan	-11.7082
stoss	-11.7086
potenz	-11.7094
meisterschaft	-11.7122
▁sprech	-11.7154
zähler	-11.7193
schlug	-11.7243
wörter	-11.7243
software	-11.7243
gezeigt	-11.7243
blind	-11.7244
fenster	-11.7269
einigt	-11.727
zeugnis	-11.7273
prozentige	-11.7294
201	-11.7298
▁alltäglich	-11.731
schliessen	-11.7317
▁ethanol	-11.7378
▁vernunft	-11.7378
regisseur	-11.7378
verschiebung	-11.7378
▁aluminium	-11.7378
▁anderthalb	-11.7378
▁apollo	-11.7378
▁brooklyn	-11.7378
▁chemotherapie	-11.7378
▁child	-11.7378
▁cholera	-11.7378
▁comedy	-11.7378
▁dominiert	-11.7378
▁enttäuscht	-11.7378
▁frustration	-11.7378
▁gescheitert	-11.7378
▁gespür	-11.7378
▁gewünscht	-11.7378
▁infrarot	-11.7378
▁maximal	-11.7378
▁monterey	-11.7378
▁neuseeland	-11.7378
▁passagier	-11.7378
▁sebastian	-11.7378
▁signifikant	-11.7378
▁sputnik	-11.7378
▁symphonie	-11.7378
▁veteranen	-11.7378
bilanz	-11.7378
▁chemiker	-11.7378
▁herausragend	-11.7378
▁permanent	-11.7378
▁primzahl	-11.7378
▁überholt	-11.7378
fresser	-11.7378
▁schlamm	-11.7378
▁vertief	-11.7378
▁ideologie	-11.7378
assistent	-11.7378
▁banjo	-11.7378
cortex	-11.7378
▁gründung	-11.7378
▁rosling	-11.7378
▁szenario	-11.7378
▁lippen	-11.7379
▁gecko	-11.7379
ctus	-11.738
▁wuerde	-11.738
generator	-11.738
verkäufer	-11.7382
▁sonderbare	-11.7382
▁eigenständig	-11.7383
siedlung	-11.7385
▁nigerianische	-11.7386
view	-11.7386
▁wurm	-11.7388
▁schützt	-11.7393
house	-11.7396
grove	-11.7399
▁verdreh	-11.7403
ough	-11.7432
▁wegwerf	-11.7446
▁speise	-11.7461
▁umdreh	-11.7472
zusamm	-11.7489
bf	-11.7515
positiv	-11.7565
kredit	-11.7565
geräusch	-11.7565
fotograf	-11.7565
kreuz	-11.7565
professor	-11.7565
verlust	-11.7565
▁trank	-11.7672
▁bereitstell	-11.7686
▁computerspiele	-11.7691
▁unterzeichne	-11.7692
▁skep	-11.7698
qual	-11.7699
▁empfand	-11.7701
▁intellekt	-11.7701
▁membran	-11.7701
▁subvention	-11.7701
▁verwundbar	-11.7701
katalog	-11.7701
künfte	-11.7701
square	-11.7701
▁annähernd	-11.7701
▁ausüben	-11.7701
▁babbage	-11.7701
▁beherrscht	-11.7701
▁bewerkstelligen	-11.7701
▁bonobo	-11.7701
▁canyon	-11.7701
▁gespannt	-11.7701
▁indirekt	-11.7701
▁introvertiert	-11.7701
▁jerusalem	-11.7701
▁jupiter	-11.7701
▁präfrontale	-11.7701
▁regulieren	-11.7701
▁schmelzen	-11.7701
▁seattle	-11.7701
▁synapse	-11.7701
▁verkleiner	-11.7701
▁ägypter	-11.7701
volumen	-11.7701
▁2030	-11.7701
▁unterdrückt	-11.7701
▁anatomie	-11.7701
▁intensität	-11.7701
▁kokain	-11.7701
▁walmart	-11.7701
▁tibet	-11.7701
▁verpackung	-11.7701
▁wohlergehen	-11.7701
▁vorsitzende	-11.7701
▁tomaten	-11.7701
▁gieß	-11.7701
▁power	-11.7701
▁killer	-11.7701
▁albern	-11.7701
▁wechselwirkung	-11.7701
kaninchen	-11.7701
▁implantier	-11.7702
▁förderung	-11.7702
▁unberührt	-11.7702
▁mobilisier	-11.7702
▁nachdachte	-11.7702
▁erhitz	-11.7702
freak	-11.7702
▁deuten	-11.7702
▁privatsphäre	-11.7702
▁east	-11.7703
▁gezielt	-11.7703
wärmt	-11.7703
gesperrt	-11.7706
bearbeitung	-11.7709
▁sauer	-11.7711
▁raubtier	-11.7714
gepackt	-11.7716
▁steril	-11.7716
erblichkeitsrate	-11.7718
▁vorantreib	-11.7727
datei	-11.7751
wärme	-11.7755
feuchtigkeit	-11.7781
brücke	-11.7803
gestanden	-11.7808
▁vergess	-11.7816
guru	-11.7839
▁ziehe	-11.7862
täuschung	-11.7898
restaurant	-11.7899
objekt	-11.7899
perspektive	-11.7899
▁zoo	-11.7975
▁übernimm	-11.8016
▁ironi	-11.8016
würm	-11.8033
strömung	-11.8034
ausrottung	-11.8034
bombenzielgerät	-11.8034
cocktail	-11.8034
▁beerdigung	-11.8034
▁beschäm	-11.8034
▁exemplar	-11.8034
▁fesselnd	-11.8034
▁höflich	-11.8034
▁kurzfristig	-11.8034
▁pestizid	-11.8034
▁prognose	-11.8034
▁psychiater	-11.8034
▁reputation	-11.8034
▁singapur	-11.8034
▁verdreifach	-11.8034
▁vereinfacht	-11.8034
▁verheerend	-11.8034
▁verwunder	-11.8034
▁widersprüchlich	-11.8034
▁wiederholung	-11.8034
▁wortwörtlich	-11.8034
▁überwältigt	-11.8034
▁beherberg	-11.8034
▁bosnien	-11.8034
▁eröffnung	-11.8034
▁helikopter	-11.8034
▁jefferson	-11.8034
▁jordan	-11.8034
▁mobilität	-11.8034
▁schadstoffe	-11.8034
▁tedglobal	-11.8034
▁verschlechter	-11.8034
▁remix	-11.8034
schöpft	-11.8034
schöpfen	-11.8034
▁recherche	-11.8034
▁skizze	-11.8034
▁kontrast	-11.8034
▁schatz	-11.8034
anbieter	-11.8034
▁gefeiert	-11.8034
▁universen	-11.8035
▁informieren	-11.8035
▁probanden	-11.8035
▁milchstraße	-11.8035
klassifizier	-11.8035
▁informatik	-11.8035
▁neurologische	-11.8035
▁gesang	-11.8035
▁verhaftet	-11.8035
▁zorn	-11.8035
▁honig	-11.8035
töpfe	-11.8036
▁damalige	-11.8037
▁skeptisch	-11.8037
▁einheimische	-11.8038
ometrische	-11.8038
▁jahrtausende	-11.8047
▁niedlich	-11.8052
▁kasse	-11.8074
trasse	-11.8077
▁arktische	-11.8113
nährt	-11.8123
▁osteurop	-11.815
sharing	-11.8151
schreibung	-11.8188
▁abhol	-11.8195
▁koralle	-11.8199
▁bedenk	-11.8212
verkauf	-11.8243
studio	-11.8243
bedarf	-11.8243
wettbewerb	-11.8244
hälfte	-11.8244
konsum	-11.8244
blau	-11.8248
gelernt	-11.8248
▁nütz	-11.8289
transfer	-11.8323
▁schmutz	-11.833
▁tempe	-11.8372
▁korrupt	-11.8377
defizit	-11.8379
fühlungsvermögen	-11.8379
klässler	-11.8379
manipulation	-11.8379
schüttelt	-11.8379
▁1,3	-11.8379
▁beauftragt	-11.8379
▁berkeley	-11.8379
▁diktator	-11.8379
▁hürde	-11.8379
▁krokodil	-11.8379
▁libanon	-11.8379
▁montana	-11.8379
▁namibia	-11.8379
▁neanderthaler	-11.8379
▁palästina	-11.8379
▁phoenix	-11.8379
▁potenziell	-11.8379
▁rekonstruier	-11.8379
▁tyrann	-11.8379
▁vermächtnis	-11.8379
▁verzerrung	-11.8379
▁vogelgrippe	-11.8379
▁wellenlänge	-11.8379
▁wolfram	-11.8379
▁öffnung	-11.8379
▁akademiker	-11.8379
▁fußgänger	-11.8379
▁geschwister	-11.8379
▁powerpoint	-11.8379
▁stolper	-11.8379
▁athlet	-11.8379
▁ebay	-11.8379
▁nachahmen	-11.8379
vielversprechend	-11.8379
▁katholische	-11.8379
▁insulin	-11.8379
▁empor	-11.8379
▁gummi	-11.8379
▁kanadische	-11.8379
▁social	-11.8379
▁libellen	-11.8379
▁kelly	-11.8379
▁spreng	-11.8379
▁undeutlich	-11.8379
▁barrel	-11.8379
▁oliver	-11.8379
▁schwingung	-11.8379
▁deutet	-11.8379
schraube	-11.8379
segment	-11.8379
▁beachtlich	-11.838
▁erhob	-11.838
▁ausbeut	-11.838
schüttet	-11.838
invasiv	-11.838
▁würmer	-11.838
fonds	-11.8381
vertrauenswürdig	-11.8382
▁einerseit	-11.8405
folgsgeschichte	-11.8415
fieber	-11.8426
puppe	-11.8428
liegt	-11.8524
▁kognitiv	-11.8573
bevölkerung	-11.8588
deckung	-11.8599
architekt	-11.86
zweifel	-11.86
magazin	-11.86
konflikt	-11.8601
vögel	-11.8601
schüler	-11.8601
interesse	-11.8601
präsident	-11.8601
fordert	-11.8658
▁vornehm	-11.8693
▁bekomm	-11.8714
▁analog	-11.8716
▁bestreb	-11.872
symptom	-11.8722
drohung	-11.8728
anstalt	-11.8735
akademi	-11.8735
engineering	-11.8736
nobelpreisträger	-11.8736
stipendium	-11.8736
stündige	-11.8736
verstümmel	-11.8736
▁akzeptanz	-11.8736
▁aquarium	-11.8736
▁ausbreitung	-11.8736
▁düne	-11.8736
▁dürre	-11.8736
▁frustrierend	-11.8736
▁hamburger	-11.8736
▁handgelenk	-11.8736
▁hawking	-11.8736
▁jonglier	-11.8736
▁klüger	-11.8736
▁komfort	-11.8736
▁kühlschrank	-11.8736
▁legitim	-11.8736
▁meditation	-11.8736
▁propaganda	-11.8736
▁prostatakrebs	-11.8736
▁ruhm	-11.8736
▁skelettmuskel	-11.8736
▁spaghetti	-11.8736
▁symmetrische	-11.8736
▁thailand	-11.8736
▁therapeut	-11.8736
▁vereinfachen	-11.8736
▁zittern	-11.8736
▁übereinstimmen	-11.8736
▁astronaut	-11.8736
▁drängt	-11.8736
▁empfindung	-11.8736
▁favorit	-11.8736
▁fixiert	-11.8736
▁minerali	-11.8736
kolonial	-11.8736
▁bildhauer	-11.8736
▁fraktale	-11.8736
▁selbständig	-11.8736
▁einkaufen	-11.8736
sponsor	-11.8736
▁verbrennung	-11.8736
▁watson	-11.8736
▁royal	-11.8736
▁mythen	-11.8736
spaltung	-11.8736
▁nächte	-11.8736
▁vermutung	-11.8736
▁donner	-11.8736
▁harmlos	-11.8736
▁blutgefäße	-11.8736
▁drachen	-11.8736
▁polymer	-11.8737
▁stockwerke	-11.8737
▁zitiert	-11.8737
▁verrät	-11.8737
▁huhn	-11.8737
sylv	-11.8737
▁solide	-11.8752
stoppt	-11.8838
ivilgesellschaft	-11.8848
▁fungi	-11.8859
▁überraschen	-11.886
▁hervorheb	-11.8863
▁welch	-11.8868
plattform	-11.8971
komplex	-11.8971
training	-11.8971
entscheidung	-11.8971
basis	-11.8973
grafische	-11.8983
aussage	-11.8989
▁aufweis	-11.8992
▁zusammenkomm	-11.9071
reduzier	-11.9101
ektivität	-11.9105
gemütlich	-11.9106
träglich	-11.9106
zündet	-11.9106
▁absolvier	-11.9106
▁analysis	-11.9106
▁bemüht	-11.9106
▁cyberkriminelle	-11.9106
▁deprimiert	-11.9106
▁düstere	-11.9106
▁eliminier	-11.9106
▁gouverneur	-11.9106
▁himalaya	-11.9106
▁knochenmark	-11.9106
▁korrigieren	-11.9106
▁lotterie	-11.9106
▁multinationale	-11.9106
▁mysterium	-11.9106
▁phantasie	-11.9106
▁quantenmechani	-11.9106
▁selbstvertrauen	-11.9106
▁ushahidi	-11.9106
▁verbündete	-11.9106
▁äquator	-11.9106
qaida	-11.9106
▁ausgerottet	-11.9106
▁beseitigt	-11.9106
▁fluktuation	-11.9106
▁football	-11.9106
▁glänzend	-11.9106
▁gänzlich	-11.9106
▁mikrofon	-11.9106
▁todesstrafe	-11.9106
▁unnötig	-11.9106
▁unterirdisch	-11.9106
▁unterscheidung	-11.9106
▁österreich	-11.9106
▁alaska	-11.9106
▁historiker	-11.9106
▁verminder	-11.9106
▁prophet	-11.9107
▁resistent	-11.9107
▁erholt	-11.9107
verfolgung	-11.9107
▁aufgeteilt	-11.9107
▁veraltet	-11.9107
▁oscar	-11.9107
▁ipad	-11.9107
pistole	-11.9107
brunnen	-11.9107
tablett	-11.9107
▁maßstäbe	-11.9107
▁leugn	-11.9107
▁klient	-11.9107
▁nutzlos	-11.9107
▁genuss	-11.9107
▁bmw	-11.9107
▁jetzige	-11.9107
▁smart	-11.9108
▁imitiert	-11.9108
▁authenti	-11.911
▁server	-11.9112
gehängt	-11.9117
moeglich	-11.9117
drohne	-11.9123
▁erleide	-11.9123
▁belaste	-11.9134
beschwerde	-11.9141
erregend	-11.9152
▁tabu	-11.9155
▁rasier	-11.9203
▁vergeb	-11.9243
▁angehör	-11.9279
bedeutend	-11.9352
epidemie	-11.9355
klinik	-11.9355
mütter	-11.9356
bäume	-11.9356
helfen	-11.9356
widerstandsfähig	-11.9385
▁freisetz	-11.9421
weitaus	-11.9455
ffizienz	-11.9462
wässer	-11.948
▁pessimis	-11.9491
gestützt	-11.9491
▁begrüßt	-11.9491
▁brokkoli	-11.9491
▁checkliste	-11.9491
▁edward	-11.9491
▁fledermaus	-11.9491
▁goliath	-11.9491
▁isolation	-11.9491
▁knöpfe	-11.9491
▁kupfer	-11.9491
▁nordkorea	-11.9491
▁pittsburgh	-11.9491
▁verärgert	-11.9491
▁zipcar	-11.9491
▁ähneln	-11.9491
▁ästhetische	-11.9491
▁ölkatastrophe	-11.9491
anästhesie	-11.9491
▁bösartig	-11.9491
▁erstreckt	-11.9491
▁gespendet	-11.9491
▁interagiert	-11.9491
▁migräne	-11.9491
▁nichol	-11.9491
▁psyche	-11.9491
▁superheld	-11.9491
▁sämtliche	-11.9491
▁unausweichlich	-11.9491
▁unbegrenzt	-11.9491
▁verkürz	-11.9491
▁vorhersehbar	-11.9491
▁zeitraffer	-11.9491
▁besiegen	-11.9491
▁eisbär	-11.9491
▁jacque	-11.9491
▁unvermeidlich	-11.9491
▁befreiung	-11.9491
▁kennedy	-11.9491
glanz	-11.9491
▁margar	-11.9491
▁akzent	-11.9491
▁gefaltet	-11.9491
▁kalender	-11.9491
gordon	-11.9492
▁fürchterlich	-11.9493
▁regenerieren	-11.9493
▁sensorische	-11.9493
▁hoffnungsvoll	-11.9493
▁automatisier	-11.9495
▁ikone	-11.9497
▁niederlande	-11.95
sonderlich	-11.9503
▁moschee	-11.9503
▁drama	-11.9537
zulerne	-11.9543
stäb	-11.9558
▁rassis	-11.959
dating	-11.9621
siedeln	-11.9633
verschmutz	-11.9653
▁widersteh	-11.9668
▁stringtheor	-11.9677
▁erkläre	-11.9715
löcher	-11.9756
geschickt	-11.9756
wunsch	-11.9756
freude	-11.9756
▁olymp	-11.9773
▁herunterlade	-11.9774
▁arktis	-11.9797
▁tunesi	-11.9816
haltige	-11.9866
▁bevölker	-11.9876
fühlst	-11.9879
▁konstrukt	-11.9889
schmeiß	-11.9891
geklärt	-11.9891
getäuscht	-11.9891
minütige	-11.9891
simulator	-11.9891
tifikation	-11.9891
▁anstrengen	-11.9891
▁beschleunigung	-11.9891
▁columbia	-11.9891
▁dylan	-11.9891
▁einkaufszentr	-11.9891
▁ermordet	-11.9891
▁fellow	-11.9891
▁gefälscht	-11.9891
▁hartnäckig	-11.9891
▁ignoran	-11.9891
▁illustrier	-11.9891
▁konzipier	-11.9891
▁kultivier	-11.9891
▁nairobi	-11.9891
▁pipeline	-11.9891
▁recherchiert	-11.9891
▁teszler	-11.9891
▁unfair	-11.9891
▁venezuela	-11.9891
▁äquivalent	-11.9891
▁übereinstimmt	-11.9891
plünder	-11.9891
puzzle	-11.9891
▁biolumineszenz	-11.9891
▁entspannt	-11.9891
▁fitness	-11.9891
▁mönch	-11.9891
▁riskant	-11.9891
▁schnurrbart	-11.9891
wkins	-11.9891
▁anthropologe	-11.9891
▁mozart	-11.9891
▁verweiger	-11.9891
▁wäsche	-11.9891
▁mikrobielle	-11.9891
▁vereinigung	-11.9891
dehnung	-11.9891
▁heilmittel	-11.9891
▁norwegen	-11.9891
▁album	-11.9891
▁graham	-11.9891
▁unvermeidbar	-11.9891
▁kumpel	-11.9891
▁schoß	-11.9891
▁vernichten	-11.9891
▁exotische	-11.9891
▁ränder	-11.9891
▁polarisier	-11.9891
▁moskitonetze	-11.9891
▁christus	-11.9891
▁dreißig	-11.9891
▁einverstande	-11.9892
▁ferien	-11.9892
▁klischee	-11.9892
▁belastbar	-11.9893
▁koreanisch	-11.9895
▁christliche	-11.9896
onald	-11.9899
▁beliebteste	-11.9901
▁anpassungsfähig	-11.9901
▁neurale	-11.9906
atraz	-11.9908
mobil	-11.9915
▁radiolog	-11.9933
genutzt	-11.9952
▁auswirk	-11.996
▁landesweit	-11.9981
▁empfäng	-12.0023
▁erfinde	-12.0063
▁beheb	-12.0073
▁soldat	-12.0091
persönlichkeit	-12.0172
konzept	-12.0172
batterie	-12.0172
grafik	-12.0172
geburt	-12.0172
▁demokratisier	-12.021
klettern	-12.0249
betreuung	-12.0255
▁fettleibig	-12.0304
▁unterdrückung	-12.0308
abwärts	-12.0308
gestürzt	-12.0308
gürtel	-12.0308
hölzer	-12.0308
mühle	-12.0308
schmuggel	-12.0308
▁akkord	-12.0308
▁altmodisch	-12.0308
▁auswendig	-12.0308
▁beethoven	-12.0308
▁blutgefässe	-12.0308
▁cameron	-12.0308
▁druckerpresse	-12.0308
▁dünger	-12.0308
▁edinburgh	-12.0308
▁explodieren	-12.0308
▁favela	-12.0308
▁franzose	-12.0308
▁improvisation	-12.0308
▁improvisieren	-12.0308
▁kollaborative	-12.0308
▁monument	-12.0308
▁natasha	-12.0308
▁neandertaler	-12.0308
▁oberflächlich	-12.0308
▁oecd	-12.0308
▁oktopus	-12.0308
▁orgasmus	-12.0308
▁philadelphia	-12.0308
▁prominente	-12.0308
▁resonanz	-12.0308
▁südasien	-12.0308
▁testosteron	-12.0308
▁analphabet	-12.0308
▁aufspür	-12.0308
▁begrenzung	-12.0308
▁lakota	-12.0308
▁leopard	-12.0308
▁liberia	-12.0308
▁metaphorisch	-12.0308
▁nektar	-12.0308
▁verspür	-12.0308
▁ausgeglichen	-12.0308
▁fairness	-12.0308
▁happy	-12.0308
▁schmecken	-12.0308
▁übereinstimmung	-12.0308
bewußt	-12.0308
▁tweet	-12.0308
▁ärztin	-12.0308
▁windows	-12.0308
▁quäl	-12.0308
monitor	-12.0308
▁erwider	-12.0308
▁nordwest	-12.0308
▁entdecker	-12.0308
▁afro	-12.0308
▁echo	-12.0308
äugige	-12.0308
▁gratis	-12.0308
▁erlitt	-12.0308
attacke	-12.0309
koppel	-12.0309
▁gallone	-12.031
▁nutzbar	-12.0311
kitzel	-12.0311
▁importier	-12.0315
▁diverse	-12.0315
schadet	-12.033
geschichtlich	-12.0341
wirtschaftskrise	-12.0387
geisteskrankheit	-12.0389
spritze	-12.0417
▁widerspreche	-12.0417
▁abdeck	-12.0495
rüstet	-12.0502
▁mög	-12.0503
▁techno	-12.0551
philosoph	-12.0606
gemeinde	-12.0606
disziplin	-12.0607
gebrauch	-12.0607
verändernde	-12.0633
zählung	-12.0706
▁konvention	-12.0731
▁lehne	-12.0732
▁profession	-12.0732
verwirklich	-12.0739
höfe	-12.0742
▁schwefel	-12.0742
controller	-12.0743
erschütterung	-12.0743
▁aminosäure	-12.0743
▁anekdote	-12.0743
▁bhutan	-12.0743
▁bleistift	-12.0743
▁ehrfurcht	-12.0743
▁folglich	-12.0743
▁gekennzeichnet	-12.0743
▁gesegnet	-12.0743
▁gestört	-12.0743
▁horror	-12.0743
▁hospital	-12.0743
▁immobilien	-12.0743
▁insulinresisten	-12.0743
▁jersey	-12.0743
▁kooperative	-12.0743
▁kopernik	-12.0743
▁köstlich	-12.0743
▁linux	-12.0743
▁mythologie	-12.0743
▁neocortex	-12.0743
▁network	-12.0743
▁patriot	-12.0743
▁philanthropie	-12.0743
▁portugal	-12.0743
▁princeton	-12.0743
▁projiziert	-12.0743
▁präzision	-12.0743
▁rehabilitation	-12.0743
▁renaissance	-12.0743
▁supraleiter	-12.0743
▁sydney	-12.0743
▁synthese	-12.0743
▁wandertaube	-12.0743
▁zweitgrößte	-12.0743
▁akustik	-12.0743
▁belohnen	-12.0743
▁geographisch	-12.0743
▁korrelation	-12.0743
▁prozedur	-12.0743
▁qualifiziert	-12.0743
▁reparatur	-12.0743
▁repräsentativ	-12.0743
▁seriös	-12.0743
▁bestmögliche	-12.0743
▁familienplanung	-12.0743
▁schüssel	-12.0743
▁aktualisier	-12.0743
▁komplikation	-12.0743
▁experti	-12.0743
▁falken	-12.0743
▁pension	-12.0743
aufenthalt	-12.0743
▁ausgedacht	-12.0743
▁indianer	-12.0743
▁märchen	-12.0743
▁ärmer	-12.0743
▁larven	-12.0743
fesselt	-12.0743
▁gespart	-12.0743
▁kometen	-12.0743
▁regieren	-12.0743
▁trivial	-12.0743
▁stimuliert	-12.0743
▁fruchtfliege	-12.0743
▁gekocht	-12.0743
tribut	-12.0743
▁eindrucksvoll	-12.0743
▁tankstelle	-12.0743
spray	-12.0744
sichtsausdrücke	-12.0745
▁adapti	-12.0745
▁vorbehalt	-12.0746
▁aqua	-12.0747
ablagerung	-12.0769
fühlen	-12.0792
insasse	-12.0839
▁aufbewahr	-12.095
▁verlasse	-12.1031
erlebnis	-12.1061
instrument	-12.1061
zähne	-12.1062
minuten	-12.1062
effiziente	-12.1064
▁zweidimensional	-12.112
▁ethni	-12.1128
▁überdenk	-12.1146
schwommen	-12.1197
▁rekrutier	-12.1197
käfig	-12.1197
murray	-12.1197
▁adoption	-12.1197
▁befürworte	-12.1197
▁belästig	-12.1197
▁carnegie	-12.1197
▁dschungel	-12.1197
▁dänemark	-12.1197
▁ergänzen	-12.1197
▁expansion	-12.1197
▁explizit	-12.1197
▁fortwährend	-12.1197
▁gitarre	-12.1197
▁industrialisier	-12.1197
▁kopfhörer	-12.1197
▁lithium	-12.1197
▁quantifizier	-12.1197
▁scheidung	-12.1197
▁sprichwort	-12.1197
▁synästhesi	-12.1197
▁taiwan	-12.1197
▁ticket	-12.1197
▁transplantier	-12.1197
▁verfeiner	-12.1197
–	-13.4813
?	-13.4814
:	-13.4815
&	-13.4816
ü	-13.4817
