@@PADDING@@	0
@@UNKNOWN@@	0
@start@	0
@end@	0
▁	-2.80256
s	-3.11997
,	-3.1393
▁.	-3.31265
▁the	-3.33524
;	-3.71507
▁&	-3.74702
▁and	-3.82567
▁to	-3.96575
apos	-4.01798
▁a	-4.0352
▁of	-4.09308
▁that	-4.30215
▁i	-4.37594
▁in	-4.43881
▁it	-4.48103
▁you	-4.56786
y	-4.59644
▁we	-4.64753
ed	-4.65268
ing	-4.67022
▁is	-4.71416
▁thi	-4.91702
ly	-4.99111
t	-5.12831
▁so	-5.2037
▁be	-5.2467
quot	-5.26253
▁on	-5.39284
▁was	-5.40769
▁for	-5.42896
▁--	-5.45443
▁what	-5.52713
▁have	-5.52909
▁are	-5.53924
d	-5.55007
▁but	-5.56903
▁with	-5.57605
▁can	-5.61822
re	-5.67417
-	-5.69611
▁?	-5.74013
n	-5.77746
▁about	-5.7782
▁there	-5.82053
▁at	-5.87249
▁all	-5.87578
▁do	-5.88643
▁one	-5.9316
▁not	-5.93559
▁an	-5.97658
▁my	-6.01791
▁people	-6.02434
▁like	-6.04527
▁he	-6.0587
▁if	-6.07092
▁from	-6.08505
m	-6.15417
▁now	-6.16697
▁as	-6.18272
▁these	-6.19676
▁just	-6.20246
e	-6.21252
cause	-6.22573
▁or	-6.23768
▁our	-6.24964
:	-6.26427
▁when	-6.27327
▁out	-6.31063
very	-6.31333
▁how	-6.31675
▁think	-6.31746
▁us	-6.32314
▁me	-6.32961
▁know	-6.33192
▁by	-6.37395
▁up	-6.40265
▁some	-6.41408
▁going	-6.43817
ve	-6.44752
▁them	-6.44925
▁which	-6.46041
▁see	-6.47331
▁get	-6.47802
▁had	-6.47893
▁who	-6.49035
▁more	-6.49123
▁here	-6.49269
▁look	-6.50262
▁would	-6.52074
▁your	-6.54504
▁their	-6.56962
▁want	-6.58284
▁were	-6.58589
▁world	-6.62639
▁time	-6.65993
▁then	-6.67638
▁actual	-6.68473
▁has	-6.68799
▁no	-6.71774
▁other	-6.73038
▁don	-6.73206
▁into	-6.74852
▁go	-6.75459
▁way	-6.7603
▁could	-6.77319
▁where	-6.78975
▁will	-6.7953
▁did	-6.81976
▁things	-6.82567
▁years	-6.8318
▁well	-6.84564
▁make	-6.87433
▁every	-6.88337
er	-6.89258
▁say	-6.89374
▁right	-6.92828
▁she	-6.93571
▁said	-6.94664
▁real	-6.95559
es	-6.96816
▁th	-6.97393
been	-6.9761
▁start	-6.97684
▁something	-6.99934
▁two	-7.00038
▁work	-7.0016
ose	-7.00855
▁need	-7.01203
▁first	-7.0315
▁new	-7.04301
ll	-7.04727
▁kind	-7.07052
▁got	-7.07247
▁his	-7.07452
▁over	-7.07942
▁than	-7.08237
▁talk	-7.08441
▁call	-7.08567
▁thing	-7.09575
▁little	-7.09768
lso	-7.11559
▁back	-7.12014
▁most	-7.13079
▁much	-7.13502
r	-7.13893
▁take	-7.14978
▁life	-7.14989
▁reall	-7.15067
.	-7.16361
▁lot	-7.1743
▁any	-7.21439
▁even	-7.22135
▁good	-7.25233
ies	-7.27326
a	-7.27386
▁many	-7.27679
▁does	-7.31204
around	-7.33928
▁through	-7.34508
▁down	-7.34523
▁different	-7.34582
▁why	-7.34943
▁use	-7.36239
▁her	-7.36594
l	-7.3844
in	-7.38556
day	-7.38761
▁come	-7.38936
▁let	-7.39615
▁change	-7.40074
▁show	-7.40315
▁mean	-7.42507
al	-7.42556
▁great	-7.45662
▁put	-7.4676
▁three	-7.47558
▁try	-7.47888
▁same	-7.48324
o	-7.50174
▁being	-7.51288
▁tell	-7.54413
▁give	-7.56151
▁part	-7.56364
▁doing	-7.57106
▁human	-7.6089
▁day	-7.60991
one	-7.61123
h	-7.61129
▁percent	-7.63353
▁made	-7.64798
able	-7.65296
▁after	-7.65943
other	-7.67469
▁year	-7.68633
▁fact	-7.68699
▁big	-7.69401
▁find	-7.70386
▁own	-7.70419
▁happen	-7.70681
body	-7.70734
▁question	-7.71822
▁idea	-7.7266
▁last	-7.72892
▁should	-7.73078
▁thought	-7.74458
c	-7.74915
▁ask	-7.75694
▁him	-7.77589
▁before	-7.78823
▁end	-7.79846
▁important	-7.80255
ion	-7.8073
went	-7.81353
▁off	-7.84163
▁system	-7.84333
▁never	-7.84445
▁long	-7.85033
▁point	-7.85636
▁problem	-7.85732
▁course	-7.86153
▁design	-7.86233
▁live	-7.86352
▁story	-7.87085
▁again	-7.87284
▁brain	-7.87397
▁better	-7.87538
▁help	-7.88229
ally	-7.8881
▁play	-7.89534
▁sort	-7.8965
▁thank	-7.89716
▁bit	-7.89814
▁million	-7.9017
▁place	-7.90483
▁might	-7.90497
ic	-7.90908
▁next	-7.90988
▁example	-7.91296
▁each	-7.92414
▁ago	-7.92762
▁love	-7.9283
▁still	-7.93167
▁few	-7.9374
▁create	-7.9378
w	-7.9396
▁technology	-7.94051
▁together	-7.94089
▁water	-7.94606
▁came	-7.97073
i	-7.98748
▁learn	-8.00079
▁between	-8.00546
k	-8.01306
▁found	-8.02227
en	-8.02681
on	-8.02829
▁school	-8.0328
▁able	-8.04271
▁second	-8.04684
▁too	-8.05443
▁become	-8.05656
▁maybe	-8.06009
▁four	-8.06317
▁light	-8.06473
▁understand	-8.0655
▁believe	-8.06579
▁whole	-8.06828
th	-8.06834
▁done	-8.07757
▁children	-8.08064
ok	-8.08482
▁data	-8.08883
▁may	-8.09332
▁guy	-8.11209
▁un	-8.12134
▁power	-8.12358
▁car	-8.12951
▁al	-8.13956
▁building	-8.14575
▁cell	-8.14724
▁feel	-8.15656
▁10	-8.15837
▁person	-8.1584
▁five	-8.16143
▁b	-8.16756
▁project	-8.17331
0	-8.17613
ity	-8.1788
▁money	-8.18138
▁women	-8.18223
▁home	-8.18316
▁man	-8.19109
▁always	-8.19602
▁everything	-8.19603
▁space	-8.19687
▁working	-8.20413
le	-8.20885
▁number	-8.21166
▁basic	-8.21606
▁reason	-8.21622
▁picture	-8.21673
p	-8.21799
▁kids	-8.2183
▁country	-8.22013
▁small	-8.22075
ers	-8.22557
b	-8.23475
▁food	-8.23749
is	-8.2379
away	-8.24557
▁health	-8.24583
▁ever	-8.25192
▁high	-8.25299
▁old	-8.25654
▁sense	-8.25741
▁information	-8.27892
est	-8.28031
▁20	-8.28204
▁open	-8.28472
ation	-8.29103
▁bring	-8.29931
▁future	-8.2996
▁energy	-8.30026
▁form	-8.30566
▁under	-8.311
▁experience	-8.31389
ever	-8.31413
▁move	-8.31535
▁left	-8.32075
▁best	-8.32132
▁case	-8.32202
▁interesting	-8.32608
quite	-8.32706
▁enough	-8.33384
▁probabl	-8.33478
▁turn	-8.33606
▁develop	-8.33608
▁social	-8.34138
▁hard	-8.34254
▁mak	-8.34515
▁moment	-8.35276
ld	-8.35511
▁group	-8.35656
ce	-8.36297
▁gett	-8.36764
▁without	-8.3711
▁stuff	-8.37124
▁science	-8.37515
▁earth	-8.37617
▁large	-8.38514
▁hand	-8.39019
us	-8.39632
▁side	-8.39662
▁build	-8.40066
▁africa	-8.41003
▁less	-8.41113
▁grow	-8.41279
▁simple	-8.42166
▁half	-8.42406
or	-8.42513
where	-8.42798
▁game	-8.4296
▁room	-8.43204
▁keep	-8.43268
▁dollars	-8.43462
▁de	-8.43932
▁business	-8.44208
▁name	-8.44209
ar	-8.4434
▁coming	-8.44436
▁image	-8.44585
▁answer	-8.44733
▁else	-8.44735
ther	-8.45075
▁anything	-8.45263
▁imagine	-8.45899
▁bad	-8.46217
▁am	-8.46432
▁face	-8.46555
▁process	-8.46934
▁billion	-8.47201
▁piece	-8.47347
ment	-8.47385
▁comes	-8.47485
▁pretty	-8.4773
▁area	-8.47972
▁seem	-8.48541
g	-8.48788
▁across	-8.48822
ness	-8.49625
▁far	-8.49633
▁unit	-8.4964
▁once	-8.49678
▁line	-8.49712
▁student	-8.50038
▁set	-8.50052
▁such	-8.50175
▁allow	-8.50239
ch	-8.50475
▁mind	-8.50588
▁model	-8.51504
▁planet	-8.51586
▁city	-8.51642
▁living	-8.51697
▁six	-8.51702
▁close	-8.51796
▁yet	-8.51863
▁care	-8.51905
▁walk	-8.52186
▁week	-8.52415
▁saw	-8.52728
▁u	-8.52786
▁particular	-8.5343
amp	-8.53492
▁countries	-8.53545
▁young	-8.53582
▁oka	-8.53723
▁war	-8.53987
▁times	-8.5403
▁computer	-8.54188
▁book	-8.54267
▁government	-8.54373
▁while	-8.54574
▁seen	-8.54745
▁family	-8.54936
▁hav	-8.55015
▁complete	-8.55242
▁body	-8.55478
▁read	-8.56063
▁remember	-8.56229
▁e	-8.56837
▁lives	-8.56839
▁later	-8.56855
▁c	-8.57095
um	-8.57888
▁video	-8.57898
▁inside	-8.58077
▁art	-8.58609
ready	-8.58661
▁global	-8.58905
▁interest	-8.5915
▁watch	-8.5923
▁single	-8.59845
▁per	-8.61139
▁head	-8.61387
▁certain	-8.61698
▁cancer	-8.61825
▁goe	-8.62001
▁sure	-8.6216
▁child	-8.62286
▁machine	-8.62325
▁whe	-8.62536
▁nothing	-8.62585
▁both	-8.62912
▁history	-8.62955
▁level	-8.62998
▁hope	-8.63015
▁language	-8.63589
▁wrong	-8.63972
▁happens	-8.64471
▁almost	-8.64485
▁thousand	-8.64846
▁nature	-8.65002
▁age	-8.65007
▁matter	-8.65633
ten	-8.65736
▁patient	-8.65795
▁beautiful	-8.65908
▁music	-8.65981
▁disease	-8.66038
▁oh	-8.66203
▁problems	-8.6638
▁states	-8.66656
▁god	-8.66667
▁figure	-8.6681
▁share	-8.66998
▁study	-8.67219
▁mov	-8.67446
ry	-8.67573
▁saying	-8.6789
▁american	-8.67998
▁200	-8.68108
▁top	-8.68325
▁cost	-8.68362
▁run	-8.68814
▁ideas	-8.68839
▁self	-8.6901
▁heart	-8.69076
▁possible	-8.69137
▁amazing	-8.69162
▁true	-8.69252
▁market	-8.69708
▁days	-8.70063
▁pe	-8.70245
an	-8.70414
▁exact	-8.70575
▁final	-8.70629
▁control	-8.70875
▁test	-8.71047
stead	-8.7126
▁universe	-8.7126
▁1	-8.71652
▁often	-8.71817
less	-8.71906
▁order	-8.72037
▁co	-8.72061
▁ted	-8.72116
▁research	-8.72434
▁heard	-8.72516
▁makes	-8.7309
▁community	-8.73684
▁house	-8.73691
ta	-8.73904
▁india	-8.74045
▁since	-8.74473
▁force	-8.74667
taking	-8.74767
▁environment	-8.74845
to	-8.75052
▁w	-8.75336
5	-8.75487
▁unti	-8.75672
ra	-8.76214
▁men	-8.76384
▁months	-8.76532
▁state	-8.76582
▁spend	-8.76601
▁myself	-8.76611
▁public	-8.76679
▁yes	-8.76728
▁hundred	-8.7677
▁difference	-8.7677
▁middle	-8.76915
▁follow	-8.77061
▁education	-8.77258
▁built	-8.77262
el	-8.77335
▁stop	-8.7749
▁discover	-8.7751
▁couple	-8.77792
▁50	-8.77977
▁30	-8.78066
▁stories	-8.78094
▁mother	-8.7829
▁natural	-8.78772
▁sometimes	-8.79244
▁ok	-8.7967
▁...	-8.79732
▁past	-8.79798
▁species	-8.80328
▁sound	-8.80461
▁entire	-8.8062
▁issue	-8.80623
▁decided	-8.80633
came	-8.81234
▁term	-8.81425
▁internet	-8.8153
▁individual	-8.81682
man	-8.81703
91	-8.81827
▁creat	-8.82795
▁rather	-8.82916
▁job	-8.83321
▁words	-8.83404
▁pay	-8.8395
▁quick	-8.83998
▁land	-8.84164
▁oil	-8.84166
▁societ	-8.84396
▁tool	-8.84414
z	-8.84673
▁must	-8.84803
▁ways	-8.85003
▁air	-8.85049
▁yea	-8.8505
2	-8.85388
ability	-8.85421
▁ourselves	-8.85426
▁hear	-8.85491
ive	-8.85604
93	-8.85677
▁free	-8.85967
▁g	-8.86081
▁19	-8.86171
▁third	-8.8626
▁leave	-8.86366
▁night	-8.86493
▁buy	-8.86717
▁itself	-8.86884
it	-8.8695
▁themselves	-8.87021
▁though	-8.87263
▁huge	-8.87346
age	-8.87699
▁clear	-8.88141
▁focus	-8.88304
▁word	-8.88388
▁woman	-8.88437
company	-8.88467
ter	-8.88669
gan	-8.89044
▁minutes	-8.89202
▁america	-8.89297
▁won	-8.89909
▁experiment	-8.89942
u	-8.90036
▁dur	-8.90345
▁animals	-8.90481
▁15	-8.90698
▁object	-8.90764
▁along	-8.90861
▁happy	-8.90946
▁center	-8.90986
not	-8.90988
▁100	-8.9171
▁challenge	-8.92015
▁places	-8.92678
▁green	-8.92722
▁listen	-8.92822
▁happening	-8.92915
▁realize	-8.92991
▁structure	-8.93151
▁view	-8.93249
▁ocean	-8.93308
▁explain	-8.94005
▁front	-8.94111
▁act	-8.94327
▁teacher	-8.94364
▁seven	-8.94492
▁rule	-8.94878
▁lead	-8.94916
▁turns	-8.95031
▁hours	-8.95293
▁china	-8.95395
▁color	-8.9575
▁sea	-8.96231
▁friends	-8.96368
rhaps	-8.96629
▁death	-8.96635
▁amount	-8.96982
▁early	-8.97134
▁opportunit	-8.9716
▁population	-8.97295
▁full	-8.9795
▁program	-8.98151
▁short	-8.98413
▁plant	-8.98488
▁wonderful	-8.98602
ne	-8.98806
against	-8.98822
▁paper	-8.98959
▁gave	-8.98963
ance	-8.99176
ur	-8.9949
up	-8.99542
▁outside	-8.99573
▁kne	-8.99573
▁kill	-8.99886
▁bigge	-9.00053
▁culture	-9.00311
9	-9.00357
▁eight	-9.00557
▁black	-9.00604
▁common	-9.00787
▁least	-9.00972
tic	-9.01038
▁local	-9.01529
▁learning	-9.01698
ous	-9.02135
ither	-9.02608
▁audience	-9.02651
▁york	-9.02651
▁wait	-9.02652
▁pick	-9.02655
▁poor	-9.02668
▁deal	-9.0276
▁obvious	-9.03217
ate	-9.03534
▁team	-9.03563
ism	-9.03821
▁economic	-9.03929
▁fish	-9.04275
▁difficult	-9.04551
▁century	-9.047
old	-9.0483
▁pattern	-9.05078
▁film	-9.05126
f	-9.05272
▁beginning	-9.05711
▁tree	-9.05726
▁drive	-9.05831
▁personal	-9.06078
▁behavior	-9.0624
▁k	-9.06254
▁powerful	-9.06313
▁sun	-9.06365
▁media	-9.06368
co	-9.06842
land	-9.06921
▁em	-9.07394
▁father	-9.07671
▁deep	-9.07761
▁present	-9.07975
▁relationship	-9.08064
▁works	-9.0835
▁support	-9.08661
▁feeling	-9.08841
▁size	-9.09249
▁blue	-9.09261
▁device	-9.09463
▁behind	-9.09665
▁wall	-9.09758
▁die	-9.09875
▁exist	-9.0992
ton	-9.10018
1	-9.10041
▁begin	-9.10068
out	-9.10244
▁scale	-9.10329
▁produce	-9.1038
▁surface	-9.10475
year	-9.1052
il	-9.1073
▁yourself	-9.10788
▁normal	-9.10826
ian	-9.10908
▁rest	-9.10959
▁eyes	-9.114
cy	-9.11483
▁red	-9.11573
▁phone	-9.11723
▁add	-9.12152
▁absolute	-9.12323
▁perfect	-9.12323
as	-9.12349
▁value	-9.12365
▁easy	-9.12739
▁arm	-9.12795
▁simpl	-9.12822
▁slow	-9.13995
▁friend	-9.14044
4	-9.14438
▁fall	-9.14469
▁save	-9.14756
▁stage	-9.15022
▁risk	-9.15269
▁near	-9.1528
▁doctor	-9.15482
▁shows	-9.15511
▁stand	-9.15589
▁treat	-9.15893
te	-9.1657
▁40	-9.16801
▁con	-9.16942
▁non	-9.17131
▁map	-9.17321
▁longer	-9.17373
▁stay	-9.1743
▁national	-9.17467
▁access	-9.1757
▁eat	-9.18019
▁ground	-9.18342
▁notice	-9.18386
▁spen	-9.1844
▁choice	-9.18522
▁movement	-9.18793
▁resource	-9.18968
▁girl	-9.1897
ma	-9.19037
▁reach	-9.19042
gone	-9.19112
▁systems	-9.19344
▁physical	-9.19408
▁shape	-9.19563
▁complex	-9.1957
▁news	-9.19599
▁fun	-9.19651
▁general	-9.19814
▁dream	-9.19854
▁incredible	-9.19896
▁step	-9.20326
▁safe	-9.20483
▁sudden	-9.20527
▁tried	-9.20936
▁toward	-9.20987
▁political	-9.21203
▁wonder	-9.21205
▁field	-9.21426
ought	-9.21565
▁condition	-9.21673
▁nice	-9.22119
▁white	-9.22125
▁low	-9.22204
▁parents	-9.22474
ri	-9.22531
▁street	-9.22539
▁extreme	-9.22588
3	-9.22702
▁animal	-9.22754
▁cities	-9.22811
▁product	-9.2299
▁generation	-9.2299
▁cut	-9.23083
▁hold	-9.23117
ac	-9.2314
▁rate	-9.23363
▁organization	-9.23503
▁service	-9.23727
▁seeing	-9.2397
▁cool	-9.23972
▁hands	-9.24133
▁compani	-9.24161
▁south	-9.24237
▁feet	-9.24248
▁fight	-9.24428
▁sitt	-9.24455
▁fear	-9.24672
▁dna	-9.24911
ent	-9.25102
▁speak	-9.25203
▁growth	-9.25204
▁send	-9.25265
rote	-9.25364
▁record	-9.25368
▁situation	-9.25841
ized	-9.26181
▁pull	-9.26813
▁12	-9.26826
▁fly	-9.26947
lost	-9.26969
▁travel	-9.27033
▁blood	-9.27034
op	-9.27209
▁connect	-9.27726
aught	-9.27755
▁material	-9.28084
▁expect	-9.28215
▁photograph	-9.28414
▁economy	-9.28484
▁innovation	-9.28728
▁pass	-9.28761
ie	-9.28863
▁result	-9.28953
▁morning	-9.28973
giving	-9.28973
ia	-9.28986
▁technologies	-9.29217
▁write	-9.29222
way	-9.29333
ling	-9.29483
▁fire	-9.29558
▁18	-9.29571
▁mo	-9.29574
ni	-9.29584
▁reality	-9.29754
tention	-9.29801
▁pre	-9.29827
▁born	-9.3009
▁kid	-9.3009
▁key	-9.30204
▁protect	-9.30218
▁literal	-9.30272
▁felt	-9.30452
▁known	-9.30477
▁modern	-9.30701
▁lab	-9.30716
▁knowledge	-9.31621
li	-9.31667
▁village	-9.31702
▁miles	-9.31703
▁hit	-9.31783
et	-9.32014
▁climate	-9.3246
▁forward	-9.32606
▁bottom	-9.32713
▁universit	-9.32713
▁studie	-9.32714
▁theory	-9.32895
▁train	-9.33072
la	-9.33165
▁hospital	-9.33223
▁dark	-9.33224
▁law	-9.33537
▁web	-9.33609
▁impact	-9.33737
▁takes	-9.33863
▁page	-9.34162
▁essential	-9.3425
▁plan	-9.34301
▁similar	-9.34508
▁solve	-9.34624
▁touch	-9.34638
▁cover	-9.34867
▁action	-9.3546
▁network	-9.35841
▁strong	-9.3591
▁books	-9.36147
▁consider	-9.36284
▁3	-9.36427
▁average	-9.366
▁message	-9.36606
▁measure	-9.36837
ha	-9.36939
▁scientists	-9.36994
given	-9.37071
▁revolution	-9.37134
▁bas	-9.37169
▁fast	-9.37279
ful	-9.37346
▁continue	-9.37615
un	-9.37769
▁movie	-9.37835
▁development	-9.379
ant	-9.38045
▁sell	-9.38168
▁dead	-9.38193
ro	-9.38321
▁major	-9.3833
8	-9.38683
self	-9.38715
▁runn	-9.38799
▁eye	-9.38809
▁increase	-9.39006
▁guess	-9.3901
▁understanding	-9.3903
▁activit	-9.39788
▁english	-9.39822
▁potential	-9.39822
ine	-9.39891
v	-9.40074
▁smart	-9.40143
▁camera	-9.40163
ary	-9.40216
▁office	-9.4029
▁solution	-9.40617
▁approach	-9.40711
▁table	-9.4073
changing	-9.40764
▁affect	-9.40919
at	-9.40975
▁late	-9.41018
▁p	-9.41172
▁source	-9.41354
▁current	-9.41472
▁chance	-9.41475
▁please	-9.41549
▁nation	-9.41777
▁north	-9.41779
go	-9.41808
,000	-9.41989
ver	-9.42108
▁met	-9.42298
▁avail	-9.42308
ck	-9.42368
▁sign	-9.42528
▁star	-9.42603
▁ice	-9.42641
▁break	-9.43051
▁compassion	-9.43141
▁track	-9.43194
▁recently	-9.43249
▁sit	-9.4343
▁gre	-9.43576
▁type	-9.4367
▁wind	-9.43703
▁effect	-9.43817
▁meet	-9.43855
ul	-9.43973
▁medical	-9.44287
▁main	-9.44461
taken	-9.44479
▁region	-9.44858
▁gas	-9.45131
▁industry	-9.45145
▁humans	-9.45462
do	-9.45632
▁chinese	-9.46012
specially	-9.46477
▁boy	-9.46539
▁scientific	-9.46812
▁fair	-9.46889
▁park	-9.46915
▁truth	-9.46922
▁african	-9.47027
▁soon	-9.47156
turned	-9.47288
▁evolution	-9.47314
incredibly	-9.47474
▁among	-9.47477
▁special	-9.47569
▁somebod	-9.47695
ge	-9.47752
▁voice	-9.47765
▁fundamental	-9.47769
▁easi	-9.47814
alone	-9.47891
▁direct	-9.4802
▁girls	-9.48055
tiny	-9.48113
▁usual	-9.48123
▁wish	-9.48157
▁invent	-9.48256
▁telling	-9.4835
▁2	-9.48358
▁solar	-9.48365
▁digital	-9.48366
▁subject	-9.48958
▁east	-9.48959
ial	-9.49358
▁suggest	-9.49516
▁push	-9.49558
▁online	-9.49603
▁la	-9.4977
▁vision	-9.49802
▁beyond	-9.50161
▁fail	-9.50162
▁baby	-9.50165
▁pro	-9.50331
be	-9.50527
▁concept	-9.50595
▁11	-9.50732
▁rich	-9.51092
▁worth	-9.51094
▁nine	-9.51126
ga	-9.51131
▁25	-9.51136
▁writing	-9.51495
▁provide	-9.51534
▁teach	-9.51658
▁moral	-9.52018
▁carbon	-9.52054
▁happiness	-9.52143
x	-9.5226
how	-9.52283
▁extraordinar	-9.52302
▁month	-9.524
▁price	-9.52453
▁skin	-9.525
▁europe	-9.52595
▁numbers	-9.52644
▁cars	-9.52678
▁dis	-9.5271
▁visual	-9.52746
▁count	-9.52787
▁securit	-9.52793
▁mass	-9.53049
▁represent	-9.53206
▁dr	-9.53232
▁putting	-9.53277
▁draw	-9.53545
00	-9.53558
▁hiv	-9.5359
▁benefit	-9.53718
▁period	-9.53765
▁hole	-9.53771
▁success	-9.53851
rought	-9.54066
▁led	-9.54492
mo	-9.54682
▁west	-9.55058
▁lt	-9.5512
▁evidence	-9.55123
▁door	-9.55208
▁mine	-9.5523
▁molecule	-9.55309
▁medicine	-9.55442
▁several	-9.55442
▁speed	-9.55496
vi	-9.55569
deed	-9.55573
▁80	-9.5565
▁gt	-9.55677
▁effective	-9.55748
▁connection	-9.55815
▁f	-9.55828
▁specific	-9.55966
ize	-9.56019
head	-9.56024
▁post	-9.56038
▁further	-9.56086
▁base	-9.56206
▁robot	-9.56242
▁fund	-9.56309
ated	-9.56387
▁trust	-9.5643
ig	-9.56656
son	-9.56738
▁stick	-9.56837
▁college	-9.57049
▁predict	-9.57333
▁john	-9.57374
▁class	-9.57559
ol	-9.57571
▁religion	-9.577
▁function	-9.57906
▁spread	-9.58169
▁lose	-9.58192
eries	-9.58452
▁journey	-9.58683
and	-9.58693
▁super	-9.58803
bu	-9.58844
▁necessar	-9.59013
▁cap	-9.59103
▁anyway	-9.59117
▁screen	-9.59143
▁google	-9.59345
▁hot	-9.59369
▁list	-9.59487
om	-9.59571
▁code	-9.59674
▁tru	-9.59939
▁conversation	-9.6001
▁j	-9.60018
▁road	-9.60028
▁square	-9.60033
▁treatment	-9.60377
▁event	-9.60406
der	-9.60612
▁store	-9.60705
▁song	-9.60981
▁search	-9.61019
▁recognize	-9.61092
▁materials	-9.61095
▁positive	-9.61192
▁mom	-9.61278
▁box	-9.6128
▁st	-9.61506
▁bank	-9.6169
▁trial	-9.61717
▁throw	-9.62034
▁br	-9.62146
rry	-9.62149
fi	-9.62156
▁transform	-9.6223
▁fuel	-9.62376
▁character	-9.62408
▁excit	-9.62466
more	-9.62994
▁sex	-9.63243
▁tend	-9.63284
▁attack	-9.63407
▁block	-9.63411
▁flow	-9.63634
time	-9.63674
▁international	-9.63752
▁practice	-9.63893
▁bar	-9.64053
na	-9.64195
▁position	-9.64214
ow	-9.64217
▁plastic	-9.64448
▁software	-9.64448
▁successful	-9.64457
▁quality	-9.64561
▁raise	-9.64609
hi	-9.64775
▁mental	-9.64779
ho	-9.64791
▁direction	-9.65051
▁fill	-9.65423
ence	-9.65624
▁institution	-9.65665
▁foot	-9.65678
pe	-9.65746
▁asking	-9.65781
▁clean	-9.65839
▁computers	-9.65928
▁nuclear	-9.66051
ca	-9.66071
▁version	-9.66148
▁onto	-9.66284
▁finish	-9.66303
▁collect	-9.66448
the	-9.66459
▁democracy	-9.66664
▁eventual	-9.66926
▁role	-9.66942
▁di	-9.66964
▁carry	-9.6701
▁favorite	-9.67281
▁offer	-9.67529
▁strange	-9.67564
▁principle	-9.67639
▁creative	-9.67673
▁90	-9.6785
▁adult	-9.67861
▁appear	-9.67988
▁response	-9.68
ily	-9.68045
▁ka	-9.68182
▁hour	-9.68297
▁describe	-9.68323
▁connected	-9.68349
di	-9.68409
com	-9.68414
▁depend	-9.68517
▁fit	-9.68801
▁zero	-9.68862
▁involv	-9.68921
▁emotion	-9.68991
▁poverty	-9.69091
▁realiz	-9.69386
▁sounds	-9.6951
▁artist	-9.6951
▁aren	-9.69603
▁content	-9.69702
▁except	-9.69784
▁earlie	-9.69833
he	-9.70059
oc	-9.70117
▁require	-9.70128
▁traditional	-9.70169
▁peace	-9.70186
▁japan	-9.70194
▁perspective	-9.70194
▁possibilit	-9.70194
▁shot	-9.70571
▁ma	-9.70756
▁grand	-9.71137
▁join	-9.71138
▁warm	-9.71189
▁memor	-9.71235
▁expert	-9.7131
▁rise	-9.71355
▁serious	-9.71376
by	-9.71406
▁drug	-9.7148
▁return	-9.71565
▁sleep	-9.71601
ja	-9.71628
▁president	-9.71684
▁remain	-9.71684
▁surprise	-9.71684
▁fine	-9.71801
▁meeting	-9.71801
▁shift	-9.7205
▁david	-9.7206
▁galax	-9.72061
▁waste	-9.72187
▁lesson	-9.72188
▁finding	-9.72335
▁equal	-9.72592
▁wear	-9.72639
▁card	-9.72848
older	-9.72999
▁supposed	-9.73001
▁total	-9.73084
▁bill	-9.73206
▁electricity	-9.73214
▁agree	-9.73257
▁account	-9.73578
▁signal	-9.7366
▁pain	-9.73988
ard	-9.74056
▁sub	-9.74173
▁trade	-9.74237
died	-9.74268
▁immediate	-9.74346
▁above	-9.74349
▁higher	-9.74413
▁wild	-9.74477
ish	-9.74532
▁sand	-9.74614
▁genetic	-9.74669
▁task	-9.74733
▁site	-9.74767
▁heat	-9.74814
▁publish	-9.74923
▁goal	-9.74926
▁enjoy	-9.75119
▁impossibl	-9.75119
am	-9.75165
▁minute	-9.75421
▁larger	-9.75434
▁famous	-9.75434
refore	-9.75547
▁secret	-9.75874
▁context	-9.759
▁central	-9.759
▁brother	-9.75955
▁includ	-9.76222
▁check	-9.76292
▁writ	-9.76664
▁crazy	-9.76685
like	-9.76694
▁dad	-9.76701
▁meaning	-9.76976
▁li	-9.7711
though	-9.77126
ese	-9.77171
▁deliver	-9.7725
▁schools	-9.77329
▁math	-9.77619
line	-9.77624
▁policy	-9.7782
▁progress	-9.7782
▁remarkabl	-9.77896
che	-9.78125
que	-9.78193
▁interact	-9.7822
▁typical	-9.78221
▁element	-9.78267
▁freedom	-9.78276
▁architecture	-9.78277
▁wife	-9.78278
▁cross	-9.7854
mi	-9.7857
▁accept	-9.78677
▁beauty	-9.78677
▁fantastic	-9.78677
bo	-9.7886
▁bacteria	-9.78939
▁complicate	-9.7908
▁ultimate	-9.7908
▁results	-9.79113
▁14	-9.79113
▁po	-9.79161
▁standard	-9.79161
▁leaders	-9.79227
▁letter	-9.79258
▁visit	-9.79385
me	-9.79413
▁forest	-9.79512
▁original	-9.79668
▁feed	-9.79885
▁none	-9.79906
▁inter	-9.79947
▁famili	-9.80279
▁excited	-9.80308
ir	-9.80578
▁reading	-9.80701
▁museum	-9.8071
▁critical	-9.80839
aid	-9.80886
▁training	-9.81002
▁concern	-9.81121
▁crisis	-9.81122
▁address	-9.81123
▁win	-9.81141
▁sh	-9.81197
ood	-9.81298
os	-9.81355
▁rock	-9.81502
▁board	-9.81509
▁website	-9.81535
▁products	-9.81638
▁o	-9.81739
▁jobs	-9.81758
po	-9.81772
▁town	-9.81834
▁charge	-9.8195
▁worse	-9.8195
▁son	-9.8197
▁report	-9.82309
▁enormous	-9.82366
▁communication	-9.82376
▁mention	-9.82393
▁sent	-9.82444
ber	-9.82501
▁link	-9.82511
▁faster	-9.82528
▁x	-9.82693
▁bunch	-9.82785
de	-9.82806
▁communit	-9.82933
▁launch	-9.83205
▁protein	-9.83205
▁cheap	-9.83205
▁biology	-9.83206
▁purpose	-9.83215
▁alive	-9.833
▁invest	-9.83507
▁afford	-9.83627
▁choose	-9.83627
▁surprising	-9.83627
▁increasing	-9.83627
▁straight	-9.83627
tro	-9.83674
ci	-9.8372
▁western	-9.83984
▁expensive	-9.8405
▁floor	-9.8405
▁press	-9.84208
▁lo	-9.84225
▁lower	-9.84254
ical	-9.84338
▁range	-9.84406
▁creature	-9.84482
▁argument	-9.84483
▁ran	-9.84644
▁decision	-9.84752
▁conference	-9.84903
▁unique	-9.84903
▁temperature	-9.84903
▁terribl	-9.84904
tion	-9.85101
▁particle	-9.85139
▁unfortunate	-9.85332
▁neurons	-9.85386
▁genes	-9.85547
▁path	-9.85637
▁drugs	-9.85685
▁remind	-9.85839
▁humanity	-9.86032
▁dance	-9.86043
▁environmental	-9.8605
▁daughter	-9.86226
▁income	-9.86247
▁indian	-9.86361
▁genome	-9.86631
▁military	-9.86682
▁sky	-9.86758
▁skills	-9.86762
▁ne	-9.86763
▁roll	-9.87001
▁wave	-9.87081
▁relative	-9.87135
▁cultural	-9.87268
per	-9.87275
▁colleague	-9.87506
▁smaller	-9.876
kept	-9.87606
▁ha	-9.87748
▁ready	-9.87829
▁familiar	-9.87886
▁cook	-9.87903
pi	-9.87935
▁physics	-9.87947
▁r	-9.87983
▁jo	-9.8816
▁stars	-9.88225
▁surviv	-9.88475
▁explore	-9.88638
▁dangerous	-9.88839
▁passion	-9.88896
em	-9.8896
▁production	-9.89365
▁massive	-9.89447
▁cold	-9.89527
▁police	-9.8956
▁ball	-9.8971
▁effort	-9.89729
▁virtual	-9.89827
▁perform	-9.89857
bi	-9.89966
▁extra	-9.90059
▁survive	-9.90092
▁enter	-9.901
bodie	-9.90105
▁drop	-9.90143
▁dog	-9.90153
▁blind	-9.90159
pa	-9.90257
wa	-9.90643
▁tv	-9.90692
▁san	-9.91007
▁mars	-9.91014
▁bio	-9.91081
▁river	-9.91087
pl	-9.91179
▁moon	-9.91241
▁wide	-9.91244
▁violence	-9.91353
ot	-9.91443
▁tissue	-9.91543
▁spot	-9.91941
▁prevent	-9.9196
ger	-9.91971
▁forget	-9.92006
▁organism	-9.92007
▁produc	-9.92013
▁meant	-9.92035
▁magic	-9.92052
▁bone	-9.92347
▁slide	-9.92644
▁decade	-9.92664
▁politic	-9.92916
▁drink	-9.92925
▁intelligence	-9.92925
▁private	-9.92925
▁influence	-9.92932
▁paint	-9.92955
bas	-9.93257
▁urban	-9.9339
▁rain	-9.93444
▁emotional	-9.93518
▁slight	-9.93534
ag	-9.93692
▁gene	-9.93734
▁significant	-9.93774
▁scar	-9.93842
▁driving	-9.93861
▁hair	-9.93868
▁teaching	-9.93884
▁respect	-9.94234
▁active	-9.94283
▁reduce	-9.94285
▁finger	-9.94333
▁foundation	-9.94499
▁weight	-9.94664
id	-9.9476
upon	-9.94765
▁trouble	-9.94799
▁constant	-9.94799
▁performance	-9.94812
▁surgery	-9.94996
j	-9.95042
▁ba	-9.95084
▁becom	-9.95257
▁convince	-9.95273
▁photo	-9.95607
ex	-9.95666
▁luck	-9.95711
▁double	-9.95749
▁summer	-9.95752
▁shark	-9.95783
▁aid	-9.95895
▁fe	-9.95959
▁breath	-9.95969
▁television	-9.96228
▁glass	-9.96236
▁camp	-9.96325
▁vi	-9.96428
▁financial	-9.96708
▁instance	-9.96709
▁biological	-9.96714
▁poet	-9.96729
0,000	-9.96793
▁mid	-9.9682
▁decide	-9.96866
▁improve	-9.96926
end	-9.97139
▁solutions	-9.97238
▁virus	-9.97248
▁conflict	-9.97289
▁edge	-9.97507
▁instrument	-9.97677
▁chair	-9.97678
▁fix	-9.97691
▁21	-9.97697
▁legs	-9.97783
▁useful	-9.97794
▁decisions	-9.97849
da	-9.97851
▁walked	-9.9789
lin	-9.98145
▁sat	-9.98164
▁landscape	-9.98167
side	-9.98169
men	-9.98308
▁match	-9.98458
ember	-9.98608
▁vehicle	-9.98655
▁civilization	-9.98658
▁factor	-9.98732
▁shar	-9.98746
▁career	-9.98796
fe	-9.98823
▁disappear	-9.99148
▁respond	-9.99148
▁pressure	-9.9915
▁creativity	-9.99162
▁hell	-9.99173
▁professional	-9.99226
▁corner	-9.99233
ble	-9.9946
▁underst	-9.99521
▁expand	-9.99644
▁race	-9.99672
▁saving	-9.99753
▁values	-9.99827
ron	-9.99914
▁achieve	-9.99982
▁engine	-10.0001
▁flying	-10.0011
▁dynamic	-10.0014
▁various	-10.0014
▁gain	-10.0015
ler	-10.0036
standing	-10.005
▁german	-10.0065
▁ho	-10.0097
▁circle	-10.0098
▁male	-10.0099
▁robots	-10.0103
▁meter	-10.0105
▁insect	-10.0114
▁chemical	-10.0124
hand	-10.0125
▁layer	-10.0139
▁recent	-10.0148
▁engineering	-10.0152
▁express	-10.0161
ped	-10.0164
▁architect	-10.0165
▁random	-10.0165
▁funny	-10.0166
ut	-10.0172
▁capital	-10.0192
▁mu	-10.0196
▁evolv	-10.0201
▁technique	-10.0216
▁bomb	-10.0216
▁bear	-10.0221
▁jump	-10.0221
▁seat	-10.0225
▁fold	-10.0229
q	-10.0232
▁mark	-10.0232
▁pr	-10.025
ster	-10.0258
off	-10.026
▁199	-10.0272
ier	-10.0293
ors	-10.0297
ible	-10.0311
▁tremendous	-10.0318
▁sister	-10.0318
▁profound	-10.0318
▁island	-10.0319
▁brand	-10.032
▁station	-10.0322
▁forth	-10.0326
▁compar	-10.0326
▁bridge	-10.0341
▁na	-10.0341
ivity	-10.0349
▁shared	-10.0365
▁201	-10.0366
▁babies	-10.0369
▁muscle	-10.0369
work	-10.0384
▁societies	-10.0392
▁possibl	-10.0401
▁king	-10.0406
▁rid	-10.0408
▁desert	-10.0421
▁london	-10.0421
▁coast	-10.0421
▁popular	-10.0421
istic	-10.0433
wise	-10.0438
▁scientist	-10.0448
▁article	-10.0473
▁female	-10.0473
▁consciousness	-10.0475
▁24	-10.0475
▁bo	-10.0476
▁consumer	-10.0488
gi	-10.0489
▁separate	-10.0497
▁ex	-10.0511
▁speaking	-10.0525
▁below	-10.0526
▁infrastructure	-10.0526
▁se	-10.053
▁inspired	-10.0571
▁farm	-10.0571
▁professor	-10.0578
▁responsibilit	-10.0578
▁flight	-10.0579
▁mountain	-10.058
▁sequence	-10.0581
▁radio	-10.0612
▁mr	-10.0616
▁destroy	-10.0631
▁target	-10.0631
▁airplane	-10.0631
▁wealth	-10.0632
▁notion	-10.0635
▁birth	-10.0635
▁brains	-10.066
ating	-10.0663
▁dimension	-10.0679
▁apply	-10.0705
▁boat	-10.0714
▁user	-10.0719
▁emerg	-10.0736
▁demand	-10.0738
fer	-10.0753
▁cat	-10.0755
▁balance	-10.0763
▁basi	-10.0771
▁aware	-10.0787
▁ancient	-10.0792
▁campaign	-10.0792
tally	-10.08
ious	-10.0809
▁stopp	-10.0816
▁birds	-10.0817
▁chris	-10.0819
▁catch	-10.082
▁text	-10.0821
▁le	-10.0825
▁argue	-10.0832
▁apart	-10.0836
▁supply	-10.0846
▁afghanistan	-10.0846
▁belief	-10.0846
▁coffee	-10.09
▁component	-10.09
ru	-10.0905
spite	-10.0907
▁ro	-10.0907
▁prison	-10.091
▁accident	-10.0911
▁engineer	-10.0921
▁industrial	-10.0929
▁communicate	-10.094
▁twice	-10.0955
▁tumor	-10.0955
▁micro	-10.0955
▁ta	-10.0957
▁mit	-10.0962
▁miss	-10.0965
▁involve	-10.098
▁flu	-10.098
▁sw	-10.098
▁13	-10.0992
▁interview	-10.0997
▁washing	-10.1
▁networks	-10.1003
▁mobile	-10.101
▁honest	-10.101
▁frank	-10.101
▁hopeful	-10.1013
▁prize	-10.1013
▁mission	-10.1014
▁worry	-10.1025
▁etc	-10.1037
ab	-10.105
▁sector	-10.1065
▁atmosphere	-10.1068
▁contain	-10.1081
ifi	-10.1092
▁types	-10.1107
▁capacity	-10.112
▁rough	-10.1121
▁hu	-10.1122
ud	-10.1123
ko	-10.1124
▁crowd	-10.1135
ium	-10.1159
▁giant	-10.1176
▁interaction	-10.1182
▁complexit	-10.1191
▁manage	-10.1208
▁anti	-10.1216
▁plane	-10.1224
▁smell	-10.1232
▁option	-10.1233
▁oxygen	-10.1233
▁careful	-10.1237
▁boys	-10.1248
ities	-10.1269
▁500	-10.1275
▁controll	-10.1288
▁continent	-10.1289
▁commercial	-10.1289
▁richard	-10.129
▁investment	-10.1292
▁window	-10.13
water	-10.131
▁cycle	-10.1331
ick	-10.1334
ada	-10.1338
eath	-10.1339
▁breast	-10.1346
▁california	-10.1346
▁iraq	-10.1346
▁plann	-10.1386
tra	-10.139
gen	-10.1392
▁beat	-10.1395
▁imagination	-10.1404
▁noise	-10.1413
▁detail	-10.1419
▁effects	-10.1437
▁lu	-10.1438
har	-10.1449
ba	-10.146
▁neighbor	-10.146
▁horse	-10.1461
▁email	-10.1461
▁damage	-10.1487
▁distance	-10.1507
▁worst	-10.1518
▁failure	-10.1519
▁motor	-10.1519
▁broken	-10.1537
▁9	-10.1553
▁feature	-10.1576
▁yellow	-10.1576
▁crime	-10.1577
▁bread	-10.1577
▁reward	-10.1578
▁wood	-10.158
▁artists	-10.1582
▁10,000	-10.1584
▁ten	-10.1592
▁mad	-10.1599
▁sustainabl	-10.1601
▁method	-10.1615
▁8	-10.1617
▁document	-10.162
▁workers	-10.1623
▁sample	-10.1635
▁classroom	-10.1635
▁paid	-10.1637
▁lack	-10.1637
▁aids	-10.164
▁gold	-10.1652
▁researcher	-10.1665
▁rare	-10.1673
▁ju	-10.1678
▁foreign	-10.1694
▁garden	-10.1694
▁patent	-10.1694
▁vast	-10.1699
▁pa	-10.1716
▁decades	-10.1727
no	-10.1732
▁ship	-10.1747
▁magazine	-10.1753
▁ca	-10.1753
▁operation	-10.1757
▁brilliant	-10.1758
▁citizens	-10.1766
▁eating	-10.1773
▁print	-10.1774
ak	-10.1805
▁compare	-10.1806
▁correct	-10.1809
▁civil	-10.1811
term	-10.1812
▁desire	-10.1812
▁dramatic	-10.1813
▁dying	-10.1818
we	-10.1821
▁apple	-10.1833
▁loss	-10.1866
▁threat	-10.1869
▁hearing	-10.1869
▁ecosystem	-10.1872
▁phenomeno	-10.1872
ley	-10.1879
▁degrees	-10.1892
▁sad	-10.1895
▁painting	-10.1906
▁graph	-10.1911
▁trip	-10.1921
▁thanks	-10.1924
▁define	-10.1928
▁economist	-10.1932
▁neighborhood	-10.1933
▁jam	-10.1933
▁tough	-10.1933
▁prove	-10.1935
dimensional	-10.1938
▁fashion	-10.1956
▁designers	-10.1964
▁laws	-10.1972
au	-10.1981
▁reflect	-10.1983
▁stone	-10.1991
▁negative	-10.1993
▁speech	-10.1993
▁fellow	-10.1994
▁300	-10.1996
▁trick	-10.1997
▁lay	-10.1999
▁sick	-10.2022
▁row	-10.2023
ture	-10.2042
▁identit	-10.2054
▁drawing	-10.2054
uc	-10.2054
▁electric	-10.2084
▁sum	-10.2091
▁minds	-10.21
▁legal	-10.211
▁technical	-10.2115
▁radical	-10.2116
▁recover	-10.2116
▁paul	-10.2116
ep	-10.2117
▁tradition	-10.212
▁unlike	-10.212
▁definition	-10.2157
cha	-10.2158
▁pop	-10.2171
▁algorithm	-10.2177
▁encourage	-10.2177
▁religious	-10.2177
▁honor	-10.2177
▁monkey	-10.2177
▁outcome	-10.2177
▁198	-10.2178
▁farmers	-10.2182
va	-10.2186
▁joy	-10.2197
▁ph	-10.2204
night	-10.2206
▁enable	-10.2208
izing	-10.221
▁laugh	-10.2215
▁mouth	-10.2239
▁sentence	-10.224
▁labor	-10.2245
▁generate	-10.2255
lan	-10.2265
diversity	-10.2265
▁introduce	-10.2267
val	-10.2269
▁hate	-10.2273
ship	-10.2286
▁profit	-10.2286
▁mis	-10.2301
▁afr	-10.2309
of	-10.2311
▁4	-10.2343
ping	-10.2351
▁ge	-10.2358
▁spirit	-10.2364
▁restaurant	-10.2365
▁collective	-10.2367
aking	-10.2397
▁bed	-10.2397
min	-10.2401
car	-10.2403
▁designer	-10.2407
▁copy	-10.2408
▁associat	-10.2424
▁aspect	-10.2428
▁attempt	-10.2428
▁bottle	-10.2428
▁net	-10.2433
▁spin	-10.2455
▁grade	-10.2455
▁arab	-10.2481
▁universal	-10.2492
▁stem	-10.2493
▁include	-10.2498
▁cloud	-10.2498
▁willing	-10.2524
▁engage	-10.2526
▁efficient	-10.2548
▁application	-10.2556
▁competition	-10.2556
▁soldier	-10.2556
▁1,000	-10.256
▁sa	-10.257
ah	-10.2574
▁extend	-10.2577
▁app	-10.2589
tor	-10.2594
▁ben	-10.2596
▁rais	-10.2597
▁release	-10.2607
▁operat	-10.261
▁highly	-10.2611
▁cr	-10.2613
▁sexual	-10.2621
▁coral	-10.2622
▁missing	-10.2671
ization	-10.2673
▁dan	-10.2673
▁expression	-10.2678
▁tie	-10.2684
▁mathematics	-10.2685
▁worri	-10.2685
▁quote	-10.2685
▁el	-10.271
▁avoid	-10.2716
▁muslim	-10.2721
ip	-10.2745
▁hop	-10.275
▁husband	-10.275
▁independent	-10.2752
▁tube	-10.2752
▁gap	-10.2752
▁suffering	-10.2765
▁agricultur	-10.28
wood	-10.2801
▁metaphor	-10.2804
▁newspaper	-10.2816
▁uncle	-10.2816
▁remote	-10.2816
▁gift	-10.2816
▁scene	-10.2816
▁reveal	-10.2816
▁contact	-10.2817
▁insight	-10.2819
▁band	-10.2821
if	-10.2821
▁dec	-10.2852
▁vote	-10.2853
▁dollar	-10.2872
▁mess	-10.2878
▁fossil	-10.2883
▁french	-10.2883
▁flat	-10.2883
▁reaction	-10.2885
▁bag	-10.2913
▁fully	-10.2936
▁members	-10.2944
▁wisdom	-10.2949
▁church	-10.2949
▁interface	-10.2949
▁chain	-10.295
▁facebook	-10.295
▁asia	-10.295
▁background	-10.2955
▁meat	-10.2958
▁note	-10.2971
▁driver	-10.2977
▁iran	-10.2983
▁hall	-10.2993
▁stream	-10.2993
▁core	-10.2998
▁v	-10.3003
chi	-10.3015
▁previous	-10.3016
▁fresh	-10.3016
▁mouse	-10.3017
▁disaster	-10.3018
▁fr	-10.3027
▁ab	-10.3041
▁metal	-10.3047
▁limit	-10.3053
▁date	-10.3062
▁forever	-10.3069
tu	-10.3071
ches	-10.3077
▁adopt	-10.3084
▁laptop	-10.3084
▁justice	-10.3084
▁fac	-10.3091
▁bubble	-10.3104
ari	-10.3138
▁capture	-10.314
▁fascinating	-10.3141
▁mar	-10.3142
▁rapid	-10.3152
▁chicken	-10.3152
▁election	-10.3154
▁lock	-10.3161
ham	-10.3163
▁photos	-10.3172
ists	-10.3175
▁era	-10.318
ka	-10.3182
▁bird	-10.3188
▁cry	-10.32
▁institute	-10.322
▁responsibl	-10.322
▁measur	-10.3222
ade	-10.3245
▁master	-10.3246
ap	-10.3256
▁related	-10.3267
ants	-10.3287
▁advantage	-10.3289
▁court	-10.3289
▁british	-10.3289
▁display	-10.329
▁symbol	-10.3301
ball	-10.332
▁organic	-10.332
▁practical	-10.3323
▁den	-10.3326
▁switch	-10.3332
▁litera	-10.3332
▁wire	-10.3354
▁debate	-10.3359
▁leaving	-10.3359
▁weird	-10.3361
▁gra	-10.3366
log	-10.3366
▁curve	-10.3368
sha	-10.3372
▁mal	-10.3378
bur	-10.3392
▁continu	-10.341
▁traffic	-10.3419
▁cl	-10.342
han	-10.3425
▁adapt	-10.3425
▁ra	-10.3426
▁budget	-10.3429
▁channel	-10.3429
▁bright	-10.343
▁cognitive	-10.3431
▁odd	-10.345
mer	-10.3451
▁degree	-10.3458
▁graduate	-10.3474
▁soil	-10.3479
▁statistics	-10.3481
loved	-10.3494
▁location	-10.3499
▁platform	-10.3499
▁motion	-10.3501
▁rocket	-10.3501
▁smile	-10.3507
▁facilit	-10.3508
tric	-10.3511
▁occurr	-10.3514
▁detect	-10.3519
ise	-10.3529
▁fle	-10.3529
▁circuit	-10.3534
▁z	-10.3541
▁pocket	-10.357
▁regular	-10.357
▁evil	-10.357
▁border	-10.3571
▁brown	-10.3571
▁transformation	-10.3576
▁leg	-10.3577
▁creation	-10.3585
▁shop	-10.3612
▁collapse	-10.3621
▁diet	-10.3622
▁400	-10.3623
▁promise	-10.3627
▁author	-10.3641
▁pack	-10.3646
▁stress	-10.3646
fa	-10.365
▁advance	-10.3655
▁caus	-10.3655
▁suit	-10.3657
▁party	-10.3662
▁engineers	-10.3665
led	-10.367
▁solv	-10.367
▁intelligent	-10.3686
▁mc	-10.3703
▁discovery	-10.3708
▁lunch	-10.3714
▁opposite	-10.3714
▁depression	-10.3716
▁theater	-10.3717
▁chose	-10.3717
ator	-10.3717
▁invention	-10.3723
▁according	-10.3723
▁streets	-10.3724
▁multi	-10.3733
▁intellectual	-10.3786
▁invisible	-10.3786
▁minister	-10.3786
▁childhood	-10.3787
▁wow	-10.3791
▁writer	-10.3801
▁fat	-10.3804
pr	-10.3847
▁alternative	-10.3859
▁artificial	-10.3859
▁dolphin	-10.3859
▁error	-10.3859
▁roof	-10.3859
versus	-10.3859
▁brief	-10.3859
▁vo	-10.386
▁yester	-10.3866
▁serve	-10.3882
▁electrical	-10.3893
▁conscious	-10.3902
▁click	-10.3916
▁seriously	-10.3919
▁grandmother	-10.3932
▁ordinar	-10.3932
▁quiet	-10.3933
▁equip	-10.3933
▁string	-10.3933
▁holding	-10.3938
▁pen	-10.3945
▁carrie	-10.3952
▁kilometer	-10.3964
▁ideal	-10.3969
▁puzzle	-10.3981
top	-10.3989
▁cow	-10.3992
▁burn	-10.4003
▁mirror	-10.4006
▁george	-10.4007
▁dinner	-10.4007
▁stuck	-10.4007
▁empower	-10.4007
▁proud	-10.4008
▁politician	-10.4008
▁hill	-10.4014
▁crash	-10.4017
▁european	-10.4042
▁govern	-10.4073
▁israel	-10.4079
▁opinion	-10.4081
▁valley	-10.4081
▁kenya	-10.4081
▁variet	-10.4081
▁taste	-10.4097
▁truck	-10.4102
▁spring	-10.4103
▁fourth	-10.4114
nk	-10.4117
▁combine	-10.4138
▁sugar	-10.4156
▁score	-10.4159
▁beach	-10.4163
▁nor	-10.4165
▁proper	-10.417
▁topic	-10.4176
▁prime	-10.4179
▁sold	-10.4209
▁mix	-10.4212
▁bang	-10.4229
▁charles	-10.4232
▁equivalent	-10.4232
▁tomorrow	-10.4232
▁round	-10.4232
▁sp	-10.4237
▁zone	-10.4239
ng	-10.4249
▁deeply	-10.4266
▁organiz	-10.4267
ack	-10.4268
▁consumption	-10.4269
▁bi	-10.4282
▁claim	-10.4294
▁pleasure	-10.4308
▁satellite	-10.4308
▁talent	-10.4309
▁perception	-10.4309
▁weather	-10.4309
▁lift	-10.4309
▁analys	-10.4309
board	-10.4314
▁ring	-10.4321
▁brita	-10.4322
▁dry	-10.4342
▁replace	-10.4351
▁estimate	-10.4361
▁suffer	-10.4368
ite	-10.4379
▁clinic	-10.4381
▁survey	-10.4385
▁mathematical	-10.4386
den	-10.4387
▁van	-10.4389
▁lie	-10.4398
▁pounds	-10.4398
▁director	-10.4407
▁150	-10.4436
▁atom	-10.4443
▁shoot	-10.4446
uar	-10.4448
▁scan	-10.445
▁mexic	-10.4462
▁mechanism	-10.4463
▁battle	-10.4463
▁transition	-10.4464
▁peak	-10.4467
▁grown	-10.4468
▁harder	-10.4469
▁bush	-10.447
▁authorit	-10.4479
ner	-10.4481
▁highest	-10.4486
ker	-10.4517
▁department	-10.4541
▁studio	-10.4541
▁volunteer	-10.4541
▁illness	-10.4542
▁clip	-10.4545
▁factory	-10.455
art	-10.4563
▁broad	-10.4572
▁blow	-10.4583
bit	-10.4588
▁occur	-10.4603
▁ancestor	-10.462
▁rural	-10.462
▁malaria	-10.462
▁employee	-10.462
▁dress	-10.4621
▁injur	-10.4623
ative	-10.4628
▁climb	-10.4632
well	-10.4632
▁applie	-10.4632
▁conduct	-10.4636
▁nurse	-10.4636
▁grain	-10.4637
ris	-10.464
rg	-10.4649
▁parent	-10.4654
▁35	-10.4659
ray	-10.4661
meter	-10.4664
▁hero	-10.4665
▁speaker	-10.4676
▁robotic	-10.4678
▁wheel	-10.4681
▁due	-10.4694
▁mat	-10.4696
▁einstein	-10.4699
▁monitor	-10.4699
▁succeed	-10.4699
▁multiple	-10.4699
▁dozen	-10.4699
▁hidden	-10.4699
▁vaccine	-10.4699
▁leadership	-10.47
▁distribution	-10.4701
▁silk	-10.4701
▁ear	-10.4706
pu	-10.4725
▁suppose	-10.474
▁partner	-10.474
▁wi	-10.4753
▁tail	-10.4761
ua	-10.4772
▁spider	-10.4779
▁telescope	-10.4779
▁hurt	-10.4779
▁lung	-10.478
▁corruption	-10.478
▁reform	-10.478
▁weapons	-10.4782
▁pig	-10.4783
ram	-10.4786
▁exchange	-10.4792
▁su	-10.4822
▁clinical	-10.4839
▁entertain	-10.486
▁faith	-10.486
▁heavy	-10.486
▁crack	-10.486
▁chip	-10.486
▁narrative	-10.4861
▁pair	-10.4861
▁milk	-10.4861
▁2,000	-10.4862
kin	-10.4867
fu	-10.4867
▁harm	-10.487
▁du	-10.4871
▁planets	-10.4882
▁sweet	-10.4894
▁min	-10.4898
ification	-10.4905
▁fl	-10.4915
▁actor	-10.4931
▁strength	-10.4938
▁shoes	-10.4939
▁awful	-10.4941
▁advi	-10.4941
▁lady	-10.4942
▁discussion	-10.4945
▁precise	-10.4946
▁100,000	-10.495
held	-10.4953
▁comfort	-10.496
▁extract	-10.4964
▁whom	-10.4968
▁gu	-10.4975
▁determine	-10.4986
▁fields	-10.499
▁load	-10.4991
▁bus	-10.4994
▁trans	-10.501
▁shock	-10.5011
▁strategy	-10.5023
▁counter	-10.5024
▁para	-10.5027
▁viruses	-10.5041
▁gather	-10.5051
▁closed	-10.506
io	-10.5065
▁imp	-10.5067
▁surround	-10.5094
▁fortunate	-10.5106
▁marriage	-10.5106
▁explanation	-10.5106
▁desk	-10.5107
▁worldwide	-10.5108
▁pole	-10.5112
▁fiber	-10.5113
▁mistake	-10.5115
▁democratic	-10.5116
▁angel	-10.5124
life	-10.5135
▁limited	-10.5135
▁earn	-10.5142
iv	-10.515
▁da	-10.5167
▁infect	-10.5169
gram	-10.517
▁setting	-10.5183
▁therap	-10.5184
▁discuss	-10.5185
▁epidemic	-10.5189
▁michael	-10.5189
▁physicist	-10.5189
▁curious	-10.5189
▁construction	-10.5193
▁peer	-10.5224
▁operate	-10.5227
▁coal	-10.5229
▁del	-10.523
▁ride	-10.5235
▁frame	-10.5241
▁fan	-10.5257
▁bat	-10.5264
▁england	-10.5273
▁equation	-10.5273
▁feedback	-10.5273
▁hotel	-10.5277
▁evolve	-10.5286
▁struggle	-10.5289
▁fell	-10.529
av	-10.53
▁spoke	-10.531
▁dinosaurs	-10.5345
▁translate	-10.5345
▁protection	-10.5348
▁liquid	-10.5358
▁stupid	-10.5358
▁steel	-10.5358
▁northern	-10.5358
▁review	-10.5359
▁rat	-10.5369
tive	-10.5371
▁lifetime	-10.5377
▁joke	-10.5382
mate	-10.5388
▁leader	-10.539
▁player	-10.5393
ala	-10.5394
▁pet	-10.5399
ff	-10.5408
▁inner	-10.5418
▁45	-10.5421
ran	-10.5429
▁skill	-10.543
rse	-10.5439
▁novel	-10.5441
▁identify	-10.5443
▁nervous	-10.5443
▁official	-10.5443
▁teeth	-10.5443
▁incentive	-10.5443
▁library	-10.5443
▁lawyer	-10.5445
▁losing	-10.5447
▁tea	-10.5452
▁killing	-10.5457
▁belong	-10.5481
▁swim	-10.5484
▁opening	-10.5486
▁stoo	-10.5501
▁divide	-10.5501
over	-10.5509
▁symmetr	-10.5522
▁majorit	-10.5523
▁darwin	-10.5528
▁elephant	-10.5529
▁vessel	-10.5529
▁pump	-10.553
▁poem	-10.5531
▁initial	-10.5532
▁plate	-10.5535
▁demonstrate	-10.5565
light	-10.5615
▁enem	-10.5617
mon	-10.5619
▁sustain	-10.5621
▁journalist	-10.5625
scale	-10.5628
▁economics	-10.5644
let	-10.5656
ui	-10.5666
▁nigeria	-10.5673
▁remove	-10.5674
pp	-10.5685
▁bor	-10.5689
▁aging	-10.5692
ek	-10.5695
▁construct	-10.5699
▁spectrum	-10.5704
▁trillion	-10.5704
▁twitter	-10.5704
▁accurate	-10.5704
▁chemistry	-10.5705
▁matters	-10.5716
▁consequences	-10.5716
▁recycl	-10.5732
▁tour	-10.5742
▁obes	-10.575
▁molecul	-10.5784
▁tens	-10.5792
▁empty	-10.5793
▁title	-10.5793
▁dealing	-10.5793
▁mortality	-10.5793
▁property	-10.5793
▁solid	-10.5793
▁season	-10.5797
▁exercise	-10.58
▁presentation	-10.5804
▁arriv	-10.5811
▁port	-10.5815
rit	-10.5823
▁union	-10.5841
▁australia	-10.585
ward	-10.5869
ral	-10.5871
▁invite	-10.5874
▁maintain	-10.5882
▁status	-10.5882
▁convert	-10.5882
▁conclusion	-10.5882
▁chapter	-10.5882
▁alien	-10.5882
▁voices	-10.5883
▁grid	-10.5884
▁passionate	-10.5884
▁marrie	-10.5885
▁hyper	-10.5888
▁kick	-10.5889
▁gang	-10.589
▁musician	-10.589
▁tag	-10.5891
▁member	-10.5891
▁appropriate	-10.5894
point	-10.5904
▁addition	-10.5923
af	-10.5939
maker	-10.5941
▁congress	-10.5972
▁encounter	-10.5972
▁establish	-10.5972
▁kitchen	-10.5972
▁sculpture	-10.5972
▁boom	-10.5973
▁attract	-10.5975
▁flies	-10.598
▁daily	-10.5995
▁orbit	-10.5995
▁arms	-10.6
zi	-10.6004
▁nasa	-10.6007
▁5	-10.6012
▁battery	-10.6015
50	-10.6025
▁seed	-10.6037
▁efficienc	-10.6063
▁lecture	-10.6063
▁valuable	-10.6064
▁combination	-10.6065
▁hang	-10.6065
▁winter	-10.6066
▁management	-10.6066
▁tip	-10.6068
▁label	-10.6069
cor	-10.6069
▁sphere	-10.6071
▁tear	-10.6073
▁cup	-10.6074
▁quant	-10.6078
▁sheet	-10.6103
▁provid	-10.6128
▁details	-10.613
omas	-10.6133
▁wine	-10.6136
▁pan	-10.6138
▁cure	-10.6147
▁categor	-10.6155
▁definite	-10.6155
▁club	-10.6155
▁queen	-10.6155
▁reef	-10.6156
burg	-10.6167
rew	-10.6171
▁marine	-10.6172
▁height	-10.6172
▁gay	-10.6174
▁manag	-10.6177
▁undern	-10.619
dp	-10.6198
gh	-10.6199
bility	-10.6215
▁celebrate	-10.6223
ably	-10.6226
ile	-10.6229
▁credit	-10.623
ub	-10.6238
▁cartoon	-10.6245
▁transport	-10.6245
▁gravity	-10.6247
▁lake	-10.6248
▁evolutionary	-10.625
▁bias	-10.6251
▁invit	-10.6255
▁quarter	-10.6266
▁root	-10.627
gg	-10.6271
▁feels	-10.6271
▁iron	-10.6272
▁folks	-10.6277
power	-10.6293
▁origin	-10.6293
foot	-10.6294
tech	-10.6301
▁sir	-10.6318
▁chemicals	-10.6322
▁bell	-10.633
▁oceans	-10.633
ug	-10.6331
ki	-10.6336
▁judge	-10.6341
▁split	-10.6341
▁wake	-10.6342
▁cutting	-10.6343
▁existence	-10.6344
▁historical	-10.6349
ik	-10.6351
▁bike	-10.6365
▁gun	-10.6378
▁icon	-10.6402
▁electronic	-10.6407
▁jan	-10.6409
▁broke	-10.6414
▁aim	-10.642
▁sites	-10.6421
▁steps	-10.6423
▁soul	-10.643
▁charit	-10.6435
▁plus	-10.6435
▁client	-10.6435
▁reference	-10.6435
▁radiation	-10.6437
▁tank	-10.6441
▁customer	-10.6452
za	-10.6458
▁seek	-10.6486
▁mode	-10.6507
▁prototype	-10.6511
▁attach	-10.6528
▁privilege	-10.653
▁vulnerabl	-10.653
▁wikipedia	-10.653
▁illusion	-10.653
▁medium	-10.653
▁primary	-10.6531
rtex	-10.6531
▁nerve	-10.6532
▁shapes	-10.6532
▁tim	-10.6544
▁contract	-10.6546
▁receive	-10.6549
▁toilet	-10.6564
▁march	-10.6565
▁organs	-10.6586
rus	-10.6595
▁tape	-10.6605
▁former	-10.6606
▁assume	-10.6608
▁circumstance	-10.6626
▁ladies	-10.6627
▁je	-10.6634
▁assembl	-10.6644
ou	-10.6646
▁percentage	-10.6656
wi	-10.6656
arch	-10.6657
▁receiv	-10.6666
▁heads	-10.6677
rate	-10.6678
ft	-10.6683
▁soft	-10.6692
▁eastern	-10.6694
▁properti	-10.6712
▁button	-10.6717
▁calculate	-10.6723
▁filter	-10.6723
▁harvard	-10.6723
▁pacific	-10.6723
▁paradigm	-10.6723
▁witness	-10.6724
▁technological	-10.6724
▁biologist	-10.6724
▁internal	-10.6724
▁clever	-10.6727
▁2008	-10.673
▁blog	-10.6736
▁decline	-10.6737
▁shut	-10.6741
▁suck	-10.6751
▁volume	-10.6765
▁organ	-10.6776
▁islam	-10.6781
▁limb	-10.6781
▁relate	-10.6782
ang	-10.6783
▁cave	-10.6784
ground	-10.6792
▁pal	-10.6798
▁explor	-10.6803
▁mountains	-10.6819
▁pill	-10.6821
▁unusual	-10.6822
▁emissions	-10.6822
▁robert	-10.6822
▁collaboration	-10.6822
▁99	-10.6824
▁3,000	-10.6825
▁shoulder	-10.6825
▁figur	-10.6832
▁pure	-10.6838
tz	-10.6867
▁reverse	-10.6869
▁prepared	-10.6883
▁inspiration	-10.6894
▁ya	-10.6911
▁computation	-10.6921
▁regard	-10.6921
▁input	-10.6921
▁shame	-10.6922
▁observation	-10.6922
▁fake	-10.6922
▁exploration	-10.6923
▁infinite	-10.6927
▁comic	-10.6929
▁tower	-10.6929
▁prediction	-10.6933
▁comment	-10.6942
▁manufactur	-10.6944
▁los	-10.6961
lic	-10.6963
▁improv	-10.6972
▁knee	-10.6975
nna	-10.6988
▁players	-10.6992
▁pat	-10.7013
▁depress	-10.7018
▁danger	-10.702
▁chimpanzee	-10.7021
▁psychology	-10.7021
▁symptom	-10.7021
▁visible	-10.7021
▁rational	-10.7021
▁analog	-10.7021
▁forgot	-10.7022
▁pile	-10.7024
▁collection	-10.7032
▁embrace	-10.705
▁2000	-10.705
▁musical	-10.7056
▁bare	-10.706
▁cable	-10.7069
▁challeng	-10.7086
▁loop	-10.7099
▁loud	-10.7102
▁ski	-10.7103
▁cent	-10.7103
▁command	-10.7119
▁oppos	-10.7121
▁piano	-10.7122
▁heaven	-10.7122
▁instant	-10.7122
▁snow	-10.7122
▁implication	-10.7122
▁phase	-10.7122
▁framework	-10.7122
▁panel	-10.7124
▁meaningful	-10.7124
▁apartment	-10.7126
▁bees	-10.713
▁sch	-10.7143
▁reserve	-10.7162
▁swimm	-10.7175
▁poll	-10.7176
▁demo	-10.7182
▁brazil	-10.7222
destruction	-10.7224
▁balloon	-10.7224
▁criminal	-10.7224
▁ingredient	-10.7224
▁mosquito	-10.7224
▁pollution	-10.7224
▁drill	-10.7224
▁southern	-10.7224
▁gulf	-10.7224
▁francisco	-10.7224
▁sensor	-10.7227
▁afterward	-10.7229
▁productive	-10.7231
▁mothers	-10.7235
▁statement	-10.7239
ically	-10.7241
ane	-10.7244
▁academic	-10.7248
▁laboratory	-10.7249
▁penguins	-10.725
▁nest	-10.7253
▁react	-10.7254
▁diagnos	-10.7262
▁mechanical	-10.7267
rising	-10.7267
ai	-10.7278
▁mile	-10.729
▁trend	-10.7295
▁steve	-10.7296
▁chart	-10.7315
▁abstract	-10.7323
▁advertis	-10.7327
▁computing	-10.7327
▁empathy	-10.7327
▁fruit	-10.7327
▁healthcare	-10.7327
▁hydrogen	-10.7327
▁variation	-10.7328
▁emerge	-10.7329
▁melt	-10.7331
▁awareness	-10.7331
▁prefer	-10.7331
▁inform	-10.7341
▁burning	-10.7354
▁wherea	-10.7357
▁confus	-10.7362
▁angle	-10.7375
▁goals	-10.7388
▁sight	-10.7407
▁programm	-10.7408
▁handle	-10.7422
▁marketing	-10.7428
▁admit	-10.743
▁style	-10.743
▁assumption	-10.7431
▁pilot	-10.7431
▁transplant	-10.7431
▁plot	-10.7431
▁youtube	-10.7431
▁christian	-10.7432
▁elder	-10.7433
▁crop	-10.7433
▁acid	-10.7433
▁announc	-10.7434
▁contribute	-10.7434
▁severe	-10.7454
▁tar	-10.7467
▁capabilit	-10.7468
▁ray	-10.7492
▁arrive	-10.7516
ina	-10.7522
▁lies	-10.7534
▁defense	-10.7536
▁sophisticated	-10.7536
▁regret	-10.7536
▁inevitabl	-10.7536
▁instruction	-10.7536
▁microbes	-10.7536
▁attitude	-10.7536
▁frog	-10.7536
▁shall	-10.7537
fish	-10.7537
ake	-10.754
▁birthday	-10.7549
▁dropp	-10.7557
bar	-10.7569
▁poster	-10.7571
▁pin	-10.7573
▁automatic	-10.7593
▁philosoph	-10.7601
▁surgeon	-10.7624
▁theme	-10.7634
▁doubt	-10.7636
▁obsess	-10.7638
▁firm	-10.7642
▁liberal	-10.7642
▁orchestra	-10.7642
▁telephone	-10.7643
▁jack	-10.7643
▁flash	-10.7643
▁rap	-10.7646
▁pour	-10.7646
▁teenager	-10.7646
▁improvement	-10.7647
▁infection	-10.7648
▁threaten	-10.7648
▁zoom	-10.765
ide	-10.7662
ory	-10.7665
ima	-10.7667
ure	-10.7679
half	-10.7681
▁upper	-10.7684
▁section	-10.7685
▁habit	-10.7692
▁tap	-10.7721
▁windows	-10.7732
lip	-10.7732
▁ki	-10.7735
ware	-10.7739
dg	-10.774
rin	-10.774
▁sc	-10.7749
oxide	-10.775
▁innovative	-10.775
▁mushroom	-10.775
▁predator	-10.775
▁rush	-10.775
▁sunlight	-10.7751
▁grab	-10.7752
▁wireless	-10.7753
▁transportation	-10.7753
▁reduc	-10.7753
▁cheat	-10.7755
▁pad	-10.7755
ana	-10.7755
▁cal	-10.7769
itude	-10.7774
▁tall	-10.7787
▁grass	-10.7788
▁habitat	-10.7809
▁frequenc	-10.781
▁bug	-10.7812
▁22	-10.782
▁seal	-10.7838
▁spec	-10.7848
▁host	-10.785
▁afternoon	-10.7859
▁length	-10.7859
▁mathematician	-10.7859
▁stretch	-10.7859
▁coordinat	-10.7859
▁license	-10.7859
▁spiritual	-10.7859
▁commitment	-10.786
▁finance	-10.786
▁motivation	-10.7861
▁1990	-10.7865
ology	-10.7879
▁hide	-10.788
▁iphone	-10.7882
for	-10.7882
▁mistakes	-10.7897
cro	-10.7909
▁coin	-10.7911
what	-10.7911
▁hous	-10.7913
▁5,000	-10.7916
▁participate	-10.7929
ev	-10.7932
▁educational	-10.7933
▁eggs	-10.7937
▁script	-10.7938
▁comfortabl	-10.7943
fin	-10.7945
▁danc	-10.7968
▁genius	-10.7969
▁harvest	-10.7969
▁romantic	-10.7969
▁bla	-10.7971
▁23	-10.7973
▁consume	-10.7973
▁photographer	-10.7981
▁resistan	-10.7984
▁behavioral	-10.7998
▁adam	-10.8005
source	-10.8008
▁lens	-10.8011
being	-10.8022
uff	-10.8024
rice	-10.8042
▁entrepreneurs	-10.8046
ku	-10.8048
▁cam	-10.807
▁divers	-10.807
▁dogs	-10.8074
▁globe	-10.808
▁dedicat	-10.808
▁golden	-10.8086
▁par	-10.8088
ef	-10.8091
▁weak	-10.8097
▁fascinat	-10.8098
▁gut	-10.8098
▁mac	-10.8103
cus	-10.8109
▁deserve	-10.8113
hai	-10.8132
table	-10.8134
ulate	-10.815
back	-10.8158
▁fa	-10.817
▁classic	-10.8174
▁hi	-10.8175
▁arts	-10.819
▁recording	-10.8191
▁polio	-10.8192
▁till	-10.8192
room	-10.8195
og	-10.8218
▁cultures	-10.8218
▁linked	-10.8227
▁dense	-10.8229
▁mall	-10.8244
▁shake	-10.8246
▁conventional	-10.8248
call	-10.8253
ria	-10.8263
▁organize	-10.8266
▁behave	-10.8266
▁meal	-10.8276
▁electron	-10.8276
▁pakistan	-10.8281
▁confidence	-10.8284
bri	-10.8294
state	-10.8296
ica	-10.8303
▁unexpected	-10.8306
▁vegetable	-10.8306
▁asteroid	-10.8306
▁staff	-10.8306
▁regime	-10.831
▁raw	-10.8313
▁agent	-10.8324
vin	-10.8329
▁intens	-10.8332
▁dh	-10.8349
oid	-10.8355
▁ah	-10.8356
▁palm	-10.8367
lee	-10.8391
▁violent	-10.8393
use	-10.8409
iti	-10.8409
▁apparent	-10.8421
▁correspond	-10.8421
▁murder	-10.8421
▁relevant	-10.8421
▁shadow	-10.8421
▁haiti	-10.8421
▁exhibition	-10.8423
▁hook	-10.8429
▁backward	-10.8431
▁magnetic	-10.8449
▁paris	-10.8451
rb	-10.8475
▁clock	-10.851
truck	-10.8512
▁nose	-10.8512
hour	-10.852
▁corn	-10.8523
▁install	-10.8536
▁implant	-10.8537
▁revenue	-10.8537
▁scratch	-10.8537
▁suspect	-10.8537
▁depth	-10.8537
▁conservation	-10.8537
▁spill	-10.8537
▁unknown	-10.8539
▁sustainability	-10.8539
▁knowing	-10.8539
▁salt	-10.8542
▁hy	-10.8547
▁clothes	-10.8547
▁por	-10.8548
▁bost	-10.8554
▁storm	-10.8556
▁participat	-10.8558
▁peter	-10.8571
▁favor	-10.8571
▁tri	-10.8572
▁stock	-10.8577
uck	-10.8577
▁sil	-10.8585
▁gray	-10.8592
▁discipline	-10.8594
▁polic	-10.8598
▁presence	-10.8602
▁phrase	-10.8609
▁owner	-10.8632
▁younger	-10.8642
▁perceive	-10.8652
▁centuries	-10.8655
▁repair	-10.8655
▁ritual	-10.8655
▁bicycle	-10.8655
▁chica	-10.8655
▁psychological	-10.8655
▁footprint	-10.8655
▁bond	-10.8656
▁greenhouse	-10.8656
▁horrible	-10.8657
▁selection	-10.8659
▁select	-10.8659
▁intense	-10.8676
▁engaged	-10.868
▁busy	-10.8684
▁disorder	-10.8685
zo	-10.8695
▁philosopher	-10.8695
▁generat	-10.8701
teen	-10.8707
▁tax	-10.8709
rous	-10.871
▁weigh	-10.8714
▁guide	-10.8718
▁confront	-10.8734
ung	-10.874
▁prisoner	-10.8753
▁smoke	-10.8756
▁comp	-10.8761
box	-10.8767
▁chocolate	-10.8774
▁concrete	-10.8774
▁physician	-10.8774
▁psychologist	-10.8774
sahara	-10.8774
▁obama	-10.8774
▁steal	-10.8774
▁plent	-10.8774
▁sept	-10.8774
▁characteristic	-10.8775
win	-10.8776
bot	-10.8782
long	-10.8795
▁argu	-10.8801
oven	-10.8803
▁entrepreneur	-10.8804
▁pitch	-10.8819
kind	-10.8824
▁ears	-10.8844
▁flowers	-10.8861
▁gentlem	-10.8878
▁nano	-10.8888
▁traged	-10.8894
▁simplicity	-10.8894
▁rescue	-10.8895
▁mystery	-10.8895
▁lifestyle	-10.8898
▁congo	-10.8899
▁1980	-10.89
▁france	-10.8903
▁expectation	-10.8907
▁golf	-10.8908
▁thick	-10.8914
▁flip	-10.8919
▁combin	-10.8922
▁appreciate	-10.8932
heroes	-10.8941
ight	-10.896
aving	-10.8962
▁partners	-10.8962
▁printing	-10.8969
▁myth	-10.897
▁flower	-10.8973
cent	-10.8985
form	-10.8991
▁cloth	-10.9006
▁shell	-10.9013
▁egypt	-10.9015
▁concert	-10.9016
▁excuse	-10.9016
▁identical	-10.9016
▁judgment	-10.9016
▁permanent	-10.9016
▁welcome	-10.9016
▁intervention	-10.9016
▁diagram	-10.9016
▁airport	-10.9017
▁nu	-10.9018
▁escape	-10.9018
▁bend	-10.9029
▁describ	-10.903
▁microscope	-10.9035
▁alter	-10.9043
▁magn	-10.9044
ov	-10.9048
ji	-10.9051
lf	-10.9053
▁liver	-10.9064
▁whale	-10.9065
▁neuro	-10.9065
▁parallel	-10.9068
▁wal	-10.9072
▁pink	-10.9075
▁breathe	-10.9084
▁processe	-10.9092
▁ignore	-10.9096
▁inspire	-10.9101
ual	-10.9121
▁bow	-10.9129
▁implement	-10.914
▁rwanda	-10.914
▁kingdom	-10.914
▁session	-10.914
▁earthquake	-10.914
cher	-10.914
▁orange	-10.914
▁silence	-10.914
▁renewable	-10.9141
▁interactive	-10.9144
▁breed	-10.9146
▁reduction	-10.915
▁sensitive	-10.9157
▁route	-10.9162
▁hire	-10.9163
▁bay	-10.9171
ction	-10.9183
▁pool	-10.9187
▁prince	-10.9217
▁tur	-10.9221
▁portrait	-10.9225
▁axis	-10.9226
▁clouds	-10.9252
▁award	-10.9253
▁victims	-10.9262
▁absorb	-10.9265
▁frighten	-10.9265
▁uganda	-10.9265
▁exponential	-10.9265
▁plug	-10.9265
▁barrier	-10.9265
▁tedtalk	-10.9265
▁dust	-10.9269
▁journal	-10.9269
▁optimistic	-10.9271
▁hunger	-10.9272
graph	-10.9277
▁fortune	-10.9279
▁strip	-10.9286
house	-10.929
▁densit	-10.9291
▁boxes	-10.9304
▁rip	-10.9304
▁polle	-10.9307
▁ignor	-10.9309
stage	-10.9327
ility	-10.9338
▁compet	-10.9348
▁roots	-10.9361
▁complain	-10.9391
▁conclude	-10.9391
▁defend	-10.9391
▁false	-10.9391
▁vagina	-10.9391
▁knock	-10.9391
▁strike	-10.9391
▁vertical	-10.9391
▁gps	-10.9392
ologist	-10.9392
▁painful	-10.9394
▁flag	-10.9394
▁clay	-10.9395
▁bible	-10.94
▁import	-10.9409
▁swede	-10.9415
▁gar	-10.9419
▁repeat	-10.9423
▁functional	-10.9423
▁lion	-10.9426
▁feeding	-10.9434
▁terrorist	-10.9439
▁exception	-10.9439
▁refer	-10.945
▁introduc	-10.9462
▁logic	-10.9468
▁cast	-10.9479
▁russia	-10.9488
▁furniture	-10.9519
▁rhythm	-10.9519
▁awesome	-10.9519
▁bulb	-10.9519
▁clue	-10.9519
▁toxic	-10.952
▁stack	-10.9521
▁vital	-10.9522
▁strand	-10.9525
▁joe	-10.9532
▁inventor	-10.9548
dollar	-10.9558
▁names	-10.9564
hu	-10.9571
▁hum	-10.9574
uch	-10.9576
mat	-10.9582
ale	-10.9584
cap	-10.9594
▁whi	-10.9615
▁advanc	-10.9621
▁fo	-10.9623
wired	-10.9625
▁roads	-10.9644
▁extinct	-10.9645
▁tricks	-10.9645
▁authentic	-10.9649
▁council	-10.9649
▁embedded	-10.9649
▁froze	-10.9649
▁procedure	-10.9649
▁probabilit	-10.9649
▁latin	-10.9649
christmas	-10.965
▁194	-10.9656
ani	-10.9659
▁activist	-10.9661
▁abuse	-10.9672
▁trace	-10.9674
▁inspiring	-10.9675
▁pregnan	-10.9686
ular	-10.9687
all	-10.9689
town	-10.9692
▁bin	-10.9693
tries	-10.9706
▁secure	-10.971
▁dish	-10.9735
gli	-10.9741
▁wash	-10.9744
▁exten	-10.9745
▁islands	-10.9762
mine	-10.9772
some	-10.978
▁proportion	-10.9781
▁synthetic	-10.9781
▁conservative	-10.9781
▁protest	-10.9781
▁trigger	-10.9781
▁gender	-10.9781
▁jail	-10.9781
▁ticket	-10.9782
▁contrast	-10.9783
▁humor	-10.9783
▁laser	-10.9785
ridge	-10.9786
▁hip	-10.979
▁beside	-10.9795
▁fed	-10.9798
▁len	-10.98
▁sheep	-10.9802
▁astonishing	-10.9804
▁promote	-10.9823
▁dig	-10.9823
▁stor	-10.9841
▁cord	-10.9843
cut	-10.9847
ax	-10.986
▁hack	-10.9877
▁dere	-10.9881
▁propose	-10.9887
▁tuna	-10.9898
sia	-10.9902
▁frustrat	-10.991
▁exploit	-10.9914
▁fabric	-10.9914
▁illegal	-10.9914
▁pyramid	-10.9914
▁ridiculous	-10.9914
▁yield	-10.9914
▁soviet	-10.9914
▁silicon	-10.9914
▁shelter	-10.9914
▁autism	-10.9914
▁sweat	-10.9914
▁ultra	-10.9914
▁poison	-10.9915
▁partnership	-10.9915
nathan	-10.9915
▁attend	-10.9916
▁sail	-10.9917
▁islamic	-10.9919
▁editor	-10.9919
▁happier	-10.9922
ama	-10.9925
▁defin	-10.9926
▁personalit	-10.9937
▁russian	-10.9947
▁spaces	-10.9949
▁sharp	-10.9949
▁homo	-10.9955
▁jim	-10.9958
▁yo	-10.9959
▁bl	-10.9994
▁slides	-10.9996
▁citizen	-11.0019
▁emergenc	-11.0025
▁chest	-11.0036
▁curiosity	-11.0049
▁economies	-11.0049
▁grandfather	-11.0049
▁immune	-11.0049
▁origami	-11.0049
▁senior	-11.0049
▁texas	-11.0049
▁chief	-11.0049
▁spell	-11.0049
▁copyright	-11.0049
▁flood	-11.005
▁delight	-11.0053
▁headline	-11.0056
▁ngo	-11.006
▁tale	-11.0063
▁hat	-11.0073
▁bless	-11.0083
▁mor	-11.0097
▁importan	-11.0106
gue	-11.0106
▁opera	-11.0127
bridge	-11.0138
class	-11.0141
▁copie	-11.0146
▁disorders	-11.0151
▁pray	-11.0156
▁har	-11.0172
▁worm	-11.0178
▁exam	-11.0183
▁victor	-11.0186
▁candidate	-11.0186
▁demographic	-11.0186
▁description	-11.0186
▁domestic	-11.0186
▁ethiopia	-11.0186
▁narrow	-11.0186
▁reputation	-11.0186
▁stroke	-11.0186
▁agenda	-11.0186
▁trait	-11.0186
▁ghana	-11.0186
▁adventure	-11.0186
pox	-11.0187
▁fluid	-11.0187
▁greek	-11.0187
▁tight	-11.019
▁rebuild	-11.0199
bal	-11.0202
uk	-11.0208
▁fin	-11.0216
▁glad	-11.0217
▁lit	-11.0221
hr	-11.0252
▁32	-11.0257
bru	-11.0258
▁tech	-11.0259
organiz	-11.0273
zero	-11.0274
aba	-11.0282
▁lega	-11.0287
▁jet	-11.0289
fall	-11.0293
hen	-11.0298
▁fifth	-11.0317
▁cluster	-11.0325
▁column	-11.0325
▁corporation	-11.0325
▁explosion	-11.0325
▁illustrate	-11.0325
▁distant	-11.0325
▁miracle	-11.0325
▁pretend	-11.0325
▁gates	-11.0326
▁smooth	-11.0326
▁digni	-11.0326
▁silent	-11.0326
▁continuous	-11.0328
gun	-11.0331
level	-11.0331
▁highway	-11.034
▁shooting	-11.0355
▁committ	-11.0363
▁bold	-11.0372
▁spoken	-11.0377
▁floating	-11.0387
▁paintings	-11.0391
▁industri	-11.0392
▁craft	-11.0408
▁korea	-11.0435
▁item	-11.0438
▁consequence	-11.0447
▁integrat	-11.0459
▁interpret	-11.0463
▁disgust	-11.0466
▁recommend	-11.0466
▁corporate	-11.0466
▁intuition	-11.0466
▁wheelchair	-11.0466
▁initiative	-11.0467
▁cash	-11.0467
▁skeleton	-11.0468
▁vulnerability	-11.0471
stair	-11.0472
▁rod	-11.048
▁neuron	-11.0484
▁div	-11.0489
▁dear	-11.0496
▁classe	-11.0497
▁rose	-11.0515
▁granted	-11.053
▁expos	-11.0535
▁stepp	-11.0566
bert	-11.0572
third	-11.0575
▁distribut	-11.0577
▁gr	-11.0594
digit	-11.0596
▁aside	-11.0597
▁vent	-11.0608
▁chromosome	-11.0609
▁dictionar	-11.0609
▁obstacle	-11.0609
▁sketch	-11.0609
▁supplie	-11.0609
▁terrifi	-11.0609
▁household	-11.0609
▁reject	-11.0609
▁gesture	-11.0609
▁chaos	-11.0609
▁freak	-11.0609
▁output	-11.0609
▁torture	-11.0609
▁olympic	-11.0609
▁systematic	-11.061
▁federal	-11.061
▁amazon	-11.0612
▁suicide	-11.0613
▁download	-11.0614
▁overall	-11.0619
▁sam	-11.0623
ngry	-11.0624
cit	-11.0625
▁observ	-11.0626
rank	-11.0632
nel	-11.065
▁killer	-11.065
ook	-11.0653
▁rely	-11.0654
ories	-11.0671
▁donor	-11.0681
▁whales	-11.0696
▁va	-11.0706
▁dominat	-11.0712
▁slum	-11.0712
assembl	-11.0727
▁stands	-11.0731
▁edit	-11.0736
gar	-11.0747
▁weapon	-11.0748
▁strategi	-11.0749
▁calculation	-11.0754
▁diabetes	-11.0754
▁request	-11.0754
▁stanford	-11.0754
▁empire	-11.0754
▁fiction	-11.0754
▁drove	-11.0754
▁nobel	-11.0754
chan	-11.0758
▁1950	-11.0759
phy	-11.0759
▁wise	-11.0759
▁intend	-11.0761
▁analyze	-11.0772
▁farmer	-11.0781
▁bob	-11.0789
fo	-11.0792
▁geo	-11.0796
hood	-11.0807
▁agency	-11.0834
ean	-11.0836
▁mon	-11.0837
▁intuitive	-11.085
lie	-11.0858
down	-11.0869
port	-11.0876
▁transfer	-11.0883
forward	-11.0886
born	-11.0887
▁fixed	-11.0897
rang	-11.0897
surance	-11.0898
▁manhattan	-11.0901
▁oxford	-11.0901
▁passenger	-11.0901
▁rainforest	-11.0901
▁transparency	-11.0901
▁arrest	-11.0901
▁higgs	-11.0901
▁overcome	-11.0901
▁database	-11.0901
▁martin	-11.0901
▁dump	-11.0903
▁globalization	-11.0906
▁loan	-11.0908
▁mate	-11.0908
iness	-11.0918
▁ugl	-11.0924
▁isolat	-11.0925
▁lying	-11.0929
▁falls	-11.0931
▁teams	-11.0964
berg	-11.098
▁dive	-11.0985
▁urge	-11.1004
▁ham	-11.101
lam	-11.1011
▁priorit	-11.1012
▁crow	-11.1013
▁radi	-11.1021
iz	-11.1021
▁breaking	-11.1024
▁250	-11.1025
▁sales	-11.1041
grow	-11.1045
▁resist	-11.1049
▁decrease	-11.105
▁guard	-11.105
▁microsoft	-11.105
▁spectacular	-11.105
▁fulfill	-11.105
▁subtle	-11.1051
dirty	-11.1053
▁capitalism	-11.1054
▁native	-11.1055
▁portion	-11.1058
▁ceo	-11.1059
▁rent	-11.1059
▁file	-11.1059
▁20,000	-11.1067
▁occasional	-11.1075
▁ethical	-11.1078
ney	-11.1085
▁mill	-11.1085
▁95	-11.1087
▁scann	-11.1089
jo	-11.1093
▁manager	-11.111
▁holly	-11.111
▁ethic	-11.1125
mart	-11.1134
▁jun	-11.1141
▁wars	-11.1141
▁imagin	-11.1149
net	-11.1153
sea	-11.1154
▁struggl	-11.1173
▁utter	-11.1176
▁hal	-11.1183
lb	-11.1185
▁deploy	-11.1199
▁courage	-11.12
▁camel	-11.1201
▁automobile	-11.1202
▁external	-11.1202
▁hormone	-11.1202
▁profile	-11.1202
▁substance	-11.1202
▁unbelievabl	-11.1202
▁district	-11.1202
▁leather	-11.1202
▁guilt	-11.1202
▁paralyz	-11.1202
▁skull	-11.1202
▁condom	-11.1202
▁saturn	-11.1202
▁domain	-11.1202
▁william	-11.1202
▁elite	-11.1203
▁simulation	-11.1203
▁desperate	-11.1206
▁limitation	-11.1207
hoo	-11.1209
▁restore	-11.1211
▁darkness	-11.1214
▁dial	-11.122
▁surrounding	-11.1223
▁photography	-11.1229
▁grave	-11.1237
▁mail	-11.1237
▁indicate	-11.1239
▁slip	-11.124
▁boundar	-11.1255
▁rag	-11.1259
gel	-11.127
▁leak	-11.1271
▁hans	-11.1289
▁formula	-11.1289
ura	-11.1293
▁cop	-11.1294
▁195	-11.1295
▁nov	-11.1296
▁cute	-11.1306
▁cru	-11.1321
▁wip	-11.1324
▁spreading	-11.1339
▁titan	-11.1352
▁mimic	-11.1352
▁fabulous	-11.1355
▁plain	-11.1355
▁resident	-11.1355
▁devil	-11.1355
▁sandwich	-11.1355
▁appeal	-11.1355
▁abandon	-11.1355
▁smith	-11.1355
▁leap	-11.1357
▁football	-11.1357
▁iranian	-11.1358
▁asset	-11.1364
▁dinosaur	-11.1378
20	-11.1382
▁rope	-11.1396
▁slice	-11.1397
▁achiev	-11.1398
▁officer	-11.1401
▁moo	-11.1405
▁sport	-11.1405
ez	-11.1408
▁wing	-11.1411
matic	-11.1412
equi	-11.1424
▁harr	-11.1427
▁accelerat	-11.1438
▁bath	-11.1446
▁consistent	-11.1452
▁elect	-11.1481
▁sports	-11.149
can	-11.1497
fold	-11.15
▁auto	-11.1507
▁recogni	-11.151
▁borrow	-11.1512
▁currenc	-11.1512
▁fragment	-11.1512
▁architectural	-11.1512
▁neural	-11.1512
▁pioneer	-11.1512
▁replicate	-11.1512
▁trash	-11.1512
▁mutation	-11.1512
▁cheese	-11.1512
▁naked	-11.1512
▁spark	-11.1512
▁textbook	-11.1512
▁honey	-11.1512
▁fool	-11.1513
▁sauce	-11.1513
▁assignment	-11.1513
▁translation	-11.1515
▁extinction	-11.1517
▁impression	-11.1517
view	-11.1519
▁reactor	-11.1521
▁gear	-11.1521
look	-11.1534
children	-11.1536
▁engag	-11.1544
▁swa	-11.1547
▁pot	-11.1555
▁steven	-11.1559
▁qualit	-11.1569
▁graphic	-11.1569
ville	-11.1576
war	-11.1589
▁cur	-11.1589
▁evening	-11.1591
▁pit	-11.1596
▁pie	-11.1599
▁amp	-11.162
▁atlantic	-11.162
met	-11.1628
▁academ	-11.1632
▁recogniz	-11.1636
▁adjust	-11.1641
▁homes	-11.1653
cal	-11.1657
▁animation	-11.167
▁guarantee	-11.167
▁intrigu	-11.167
▁pandemic	-11.167
▁relax	-11.167
▁tragic	-11.167
▁legislat	-11.167
▁sacred	-11.167
▁colony	-11.167
▁ooh	-11.167
▁beetle	-11.167
▁alarm	-11.1671
▁compound	-11.1671
▁antarctic	-11.1671
orient	-11.1671
▁debt	-11.1671
▁aircraft	-11.1671
▁resolve	-11.1671
▁watt	-11.1673
▁boil	-11.1674
▁28	-11.1675
▁ecological	-11.1676
▁pace	-11.1677
▁50,000	-11.1681
dependent	-11.1681
▁blame	-11.1685
▁tick	-11.1691
▁tent	-11.1692
gging	-11.1694
▁wings	-11.1701
friend	-11.1704
century	-11.1706
tail	-11.1716
▁meme	-11.1716
▁ag	-11.1727
nutrition	-11.1728
▁creator	-11.1729
▁approv	-11.173
hop	-11.1734
▁mayor	-11.1742
▁tune	-11.1751
pound	-11.1754
▁educat	-11.176
▁dancer	-11.1766
ult	-11.1766
stone	-11.1769
esis	-11.1769
▁rocks	-11.1771
▁leverage	-11.1776
▁tribes	-11.178
▁hub	-11.1782
▁activate	-11.1798
▁mammals	-11.1813
▁realm	-11.1824
zheimer	-11.1832
▁expedition	-11.1832
▁fraction	-11.1832
▁reinvent	-11.1832
▁trajector	-11.1832
▁vacuum	-11.1832
▁vietnam	-11.1832
▁commission	-11.1832
▁primate	-11.1833
▁cooperation	-11.1833
▁barrel	-11.1833
▁bump	-11.1834
▁pathway	-11.1835
▁twin	-11.1837
▁achievement	-11.1839
▁mentor	-11.1841
▁drum	-11.1842
arctic	-11.1845
▁2001	-11.1845
ison	-11.1854
cuba	-11.1855
▁releas	-11.1865
▁hunt	-11.187
▁agricultural	-11.1873
▁consum	-11.188
▁barr	-11.1883
word	-11.1884
imi	-11.1886
▁classical	-11.1886
▁pursue	-11.1888
▁remov	-11.1888
▁ratio	-11.1889
▁nutrient	-11.189
▁amaz	-11.1898
▁egg	-11.19
▁pose	-11.1904
▁geographic	-11.1926
▁relations	-11.1927
▁ze	-11.1931
ark	-11.1957
▁capita	-11.1989
▁excellen	-11.1993
▁accomplish	-11.1993
▁quest	-11.1994
▁psycho	-11.1995
▁enhance	-11.1996
▁ethnic	-11.1996
▁identifie	-11.1996
▁medication	-11.1996
▁neuroscience	-11.1996
▁participant	-11.1996
▁recipe	-11.1996
▁refugee	-11.1996
▁gradual	-11.1996
▁twist	-11.1996
▁stunt	-11.1996
▁florid	-11.1996
▁jewish	-11.1996
▁bribe	-11.1996
▁wound	-11.1997
▁sensation	-11.1997
▁chop	-11.1999
▁pause	-11.1999
▁engagement	-11.2001
▁hanging	-11.2001
▁representation	-11.2009
▁rob	-11.2016
▁suggestion	-11.2018
▁damn	-11.2019
▁hunter	-11.2027
▁norm	-11.2041
▁sixth	-11.2042
▁trends	-11.2047
creat	-11.2048
▁tribe	-11.205
▁divid	-11.205
stream	-11.2051
onic	-11.2058
▁determined	-11.2079
▁educate	-11.2088
▁coat	-11.209
▁anger	-11.2092
▁believ	-11.2099
▁whistle	-11.21
▁wo	-11.2114
▁preserve	-11.2114
bc	-11.2115
▁vot	-11.2125
▁jar	-11.2138
fusion	-11.2145
▁drag	-11.216
▁aesthetic	-11.2162
▁mount	-11.2162
▁breakthrough	-11.2162
▁export	-11.2163
▁winner	-11.2164
▁resolution	-11.2164
▁demonstration	-11.2164
▁association	-11.2173
▁tired	-11.2182
▁gathering	-11.2187
▁punch	-11.2187
▁nets	-11.2205
▁polar	-11.2206
▁mri	-11.2208
▁mere	-11.2216
▁pun	-11.2217
load	-11.2222
▁burst	-11.2239
▁chat	-11.2254
ode	-11.2259
▁intention	-11.2273
▁terror	-11.2273
press	-11.2282
▁repeated	-11.229
▁spa	-11.2324
▁sar	-11.2324
▁resilienc	-11.2327
▁sensory	-11.2331
▁proof	-11.2331
▁contemporar	-11.2332
▁disappoint	-11.2332
▁scream	-11.2332
▁crucial	-11.2332
▁transparent	-11.2332
▁compell	-11.2332
▁thrill	-11.2332
▁nurtur	-11.2332
▁gorge	-11.2332
▁comparison	-11.2332
▁twenty	-11.2333
▁kidney	-11.2333
▁ruin	-11.2333
▁republican	-11.2333
▁audio	-11.2333
▁virgin	-11.2333
▁admir	-11.2333
▁garage	-11.2334
▁interpretation	-11.2335
▁subway	-11.2336
▁burie	-11.2339
▁ensure	-11.234
▁upset	-11.2346
▁objective	-11.2347
▁neck	-11.2351
▁lane	-11.2367
frontal	-11.2368
▁interior	-11.2375
hal	-11.2376
play	-11.2377
▁fur	-11.2378
olds	-11.2378
▁rever	-11.2383
▁strangers	-11.2388
▁faci	-11.2391
▁experienc	-11.2401
▁relation	-11.2402
free	-11.2425
mega	-11.2436
wan	-11.2445
▁electronics	-11.2455
▁excite	-11.2455
▁magnet	-11.2463
▁kb	-11.2464
glasses	-11.2467
▁prepare	-11.2479
▁cod	-11.2481
▁package	-11.2485
▁dar	-11.2486
▁appreciat	-11.2501
made	-11.2504
angiogen	-11.2504
▁administration	-11.2504
▁arrow	-11.2504
▁bronx	-11.2504
▁optimism	-11.2504
▁parliament	-11.2504
▁theoretical	-11.2504
▁turkey	-11.2504
▁dawn	-11.2504
▁cousin	-11.2504
▁essence	-11.2504
▁expectanc	-11.2504
▁tendenc	-11.2504
▁locate	-11.2505
▁drift	-11.2505
▁hungry	-11.2506
▁keyboard	-11.2506
▁phant	-11.2507
▁variable	-11.2508
▁israeli	-11.2508
▁neat	-11.2508
▁laid	-11.2509
▁highlight	-11.2509
▁hol	-11.251
▁appearance	-11.251
▁tile	-11.2512
▁henr	-11.2513
▁passive	-11.2514
▁mice	-11.2516
▁rem	-11.2518
▁cosm	-11.2531
▁kiss	-11.2539
▁2.	-11.2555
lethal	-11.2558
▁stra	-11.2578
▁worker	-11.2578
▁eric	-11.2585
▁mil	-11.2586
▁projection	-11.2591
▁terroris	-11.2596
ttle	-11.2598
▁shopp	-11.2609
book	-11.2613
▁linear	-11.262
▁imag	-11.2645
urg	-11.2659
▁magical	-11.2661
▁happi	-11.2667
▁oxy	-11.2679
▁diamond	-11.268
▁disturb	-11.268
▁garbage	-11.268
▁pharmaceutical	-11.268
▁schizophreni	-11.268
▁syndrome	-11.268
▁reconstruct	-11.268
▁glamor	-11.268
pleasant	-11.268
▁collaborative	-11.268
▁array	-11.268
▁autonomous	-11.268
▁grasp	-11.2681
lihood	-11.2681
▁compromise	-11.2681
▁4,000	-11.2682
▁nin	-11.2683
▁motivate	-11.2686
ami	-11.2689
▁centi	-11.2691
▁bother	-11.2696
▁uncertaint	-11.2697
wright	-11.2699
▁climbing	-11.2714
▁bowl	-11.2724
ota	-11.2725
▁conflicts	-11.2725
▁moralit	-11.2726
▁10-	-11.2731
▁christ	-11.2766
▁shine	-11.2782
▁shin	-11.2784
▁diplomat	-11.2789
▁chas	-11.2802
print	-11.281
▁bucks	-11.2836
lit	-11.284
▁compos	-11.2845
▁branch	-11.2846
▁horizon	-11.2847
▁inject	-11.2855
convenient	-11.2858
▁antibiotic	-11.2858
▁bizarre	-11.2858
▁chamber	-11.2858
▁jellyfish	-11.2858
▁shrimp	-11.2858
▁dominant	-11.2858
▁tunnel	-11.2858
▁retina	-11.2858
▁triangle	-11.2858
▁supermarket	-11.2859
▁leaf	-11.2859
▁winning	-11.2859
▁convey	-11.286
▁permission	-11.286
▁cake	-11.2862
▁installation	-11.2862
▁jesu	-11.2863
▁experimental	-11.2863
▁compassionate	-11.2866
▁ink	-11.2867
▁eu	-11.2869
▁inequalit	-11.2871
▁lamp	-11.2872
▁octo	-11.289
▁fisher	-11.289
▁kit	-11.2904
ocin	-11.2908
▁communicat	-11.2908
▁crossing	-11.2922
▁printer	-11.2933
▁pipe	-11.2935
▁singer	-11.2935
rail	-11.2938
▁newton	-11.2939
▁flexibl	-11.294
▁underly	-11.294
entered	-11.2961
gie	-11.2962
▁penn	-11.2968
bean	-11.2974
▁globally	-11.2978
space	-11.2981
stock	-11.2982
ola	-11.2989
fire	-11.299
▁contra	-11.2999
▁hawk	-11.3002
▁dose	-11.3002
path	-11.3022
eaten	-11.3025
▁integrate	-11.3026
▁transcend	-11.3033
ase	-11.3036
ania	-11.3037
▁dialogue	-11.304
▁dilemma	-11.304
▁glamour	-11.304
▁prosthetic	-11.304
▁scenario	-11.304
▁taliban	-11.304
▁tsunami	-11.304
tangible	-11.304
▁tackle	-11.304
▁robust	-11.304
▁tropic	-11.304
▁steam	-11.304
▁cotton	-11.304
▁troop	-11.304
▁primari	-11.304
▁cube	-11.304
▁signature	-11.3041
▁synthesiz	-11.3041
▁coach	-11.3041
▁nonprofit	-11.3041
▁slavery	-11.3042
▁jaw	-11.3049
▁kev	-11.3049
▁detection	-11.3051
▁detector	-11.3056
▁shit	-11.3059
▁wider	-11.3074
▁shirt	-11.3077
▁reli	-11.3077
drew	-11.3097
eb	-11.3116
▁agenc	-11.3124
▁embarrass	-11.313
▁fate	-11.3133
sky	-11.3139
▁0.	-11.3142
▁rio	-11.317
related	-11.3174
minute	-11.3175
direct	-11.3177
▁employ	-11.3179
▁marker	-11.3181
new	-11.3184
▁poly	-11.3186
▁bound	-11.3197
▁prop	-11.3199
▁contribut	-11.3206
▁prior	-11.3219
▁investigat	-11.3219
▁assist	-11.3225
millimeter	-11.3225
▁dopamine	-11.3225
▁expansion	-11.3225
▁primitive	-11.3225
▁simultaneous	-11.3225
▁tattoo	-11.3225
▁territor	-11.3225
▁threshold	-11.3225
▁potato	-11.3225
▁submit	-11.3225
▁carpet	-11.3225
▁annual	-11.3225
▁snake	-11.3225
▁infant	-11.3226
▁wolf	-11.3226
▁spray	-11.3226
▁hypothesis	-11.3226
▁tele	-11.3227
▁josh	-11.3227
jazz	-11.3227
▁filmmaker	-11.3228
▁manual	-11.323
▁crew	-11.323
▁soup	-11.3232
▁methan	-11.3234
▁personaliz	-11.3234
served	-11.3237
▁measurement	-11.324
▁dung	-11.3246
take	-11.3248
▁smok	-11.3254
▁85	-11.3255
▁homeless	-11.3264
▁hir	-11.3276
uke	-11.3277
▁reported	-11.3283
▁pur	-11.3285
grade	-11.3312
▁programmer	-11.332
cost	-11.3338
▁institutional	-11.3343
▁exp	-11.3344
▁wrap	-11.3345
engineer	-11.3375
sense	-11.3378
▁memes	-11.3378
rid	-11.3379
▁electro	-11.3383
▁profession	-11.3384
▁dia	-11.3384
kyo	-11.3392
▁preserv	-11.3399
▁ban	-11.3406
▁statistical	-11.3409
,500	-11.3413
▁flavor	-11.3414
▁abraham	-11.3414
▁endanger	-11.3414
▁enthusias	-11.3414
▁harbor	-11.3414
▁helicopter	-11.3414
▁neanderthal	-11.3414
competitive	-11.3414
▁ceiling	-11.3414
▁phosphorus	-11.3414
▁burden	-11.3414
▁tiger	-11.3414
▁extension	-11.3414
▁fertil	-11.3414
▁cliff	-11.3414
▁foster	-11.3415
▁mask	-11.3415
▁marketplace	-11.3415
▁egyptian	-11.3416
▁pond	-11.3418
▁elementary	-11.3418
▁refin	-11.3418
▁contribution	-11.3418
▁hitting	-11.3418
▁repli	-11.3418
▁probe	-11.3419
▁weekend	-11.3422
▁monte	-11.3423
▁agreement	-11.3424
▁alex	-11.3428
ini	-11.3446
▁tagg	-11.3447
▁rotate	-11.3448
cellular	-11.3451
van	-11.3464
▁confident	-11.347
▁motivat	-11.3472
▁compete	-11.348
▁bats	-11.3481
▁warning	-11.3486
▁quit	-11.3489
▁fanc	-11.349
▁mari	-11.3502
agen	-11.3504
rial	-11.3509
cla	-11.3511
heart	-11.3528
▁youth	-11.353
▁acquire	-11.3532
▁observe	-11.3543
omb	-11.3551
▁geometr	-11.3566
qa	-11.3572
▁reporter	-11.3576
▁pm	-11.3595
▁guns	-11.3595
▁alcohol	-11.3606
▁breakfast	-11.3606
▁pizza	-11.3606
▁ubiquitous	-11.3606
▁routine	-11.3606
▁temporar	-11.3606
▁defeat	-11.3606
▁render	-11.3606
▁amateur	-11.3606
▁regulation	-11.3606
▁broadcast	-11.3606
▁chemo	-11.3607
▁cyber	-11.3607
▁sink	-11.3607
▁basket	-11.3607
▁mysterious	-11.3607
▁generous	-11.3608
▁biodiversity	-11.3608
▁diver	-11.3608
▁collaborator	-11.3609
▁visualization	-11.3609
▁libert	-11.361
▁fence	-11.3611
▁deaf	-11.3611
▁tension	-11.3616
▁innocent	-11.3616
▁invad	-11.3618
▁wheat	-11.3619
▁fastest	-11.3625
▁genetically	-11.3625
verbal	-11.3632
▁shocking	-11.3636
▁investor	-11.3656
▁outer	-11.3657
▁calm	-11.3658
▁harmon	-11.3668
train	-11.3672
▁jane	-11.3681
horn	-11.3689
▁toleran	-11.3714
cop	-11.3725
▁sacrifice	-11.3729
▁penguin	-11.3752
▁needle	-11.3759
▁mt	-11.3768
▁ob	-11.377
worth	-11.3787
world	-11.3789
▁specializ	-11.3792
▁instinct	-11.3801
▁bangladesh	-11.3802
▁cricket	-11.3802
▁curriculum	-11.3802
▁genocide	-11.3802
▁tanzania	-11.3802
▁uncomfortabl	-11.3802
▁koran	-11.3802
▁marvel	-11.3802
▁coke	-11.3803
▁anonymous	-11.3803
▁proposition	-11.3803
▁jeff	-11.3803
▁stole	-11.3803
▁silver	-11.3804
▁ipod	-11.3805
▁mineral	-11.3805
▁prostate	-11.3805
▁attractive	-11.3805
▁fragile	-11.3806
ncol	-11.3807
pack	-11.3807
▁duck	-11.3808
▁jean	-11.3811
rich	-11.3815
▁elegant	-11.3822
▁ego	-11.3825
▁hid	-11.385
▁mapping	-11.3853
▁mixed	-11.3856
▁goat	-11.3863
▁120	-11.3865
▁beam	-11.3883
▁replac	-11.3887
▁bind	-11.3891
▁manufacturer	-11.3898
yard	-11.3901
▁clon	-11.3913
▁hunting	-11.3918
▁55	-11.3921
▁joint	-11.3923
▁node	-11.3936
aday	-11.3963
▁graphics	-11.3966
▁shipp	-11.3966
par	-11.3969
▁trac	-11.3977
▁blogs	-11.398
lice	-11.3983
▁historic	-11.3986
▁phenomena	-11.3994
mission	-11.3998
interest	-11.4002
▁blank	-11.4002
entropy	-11.4002
▁choir	-11.4002
▁enlighten	-11.4002
▁jihad	-11.4002
▁protocell	-11.4002
▁recruit	-11.4002
▁serving	-11.4002
▁immense	-11.4002
▁altitude	-11.4002
▁augment	-11.4002
▁dumb	-11.4003
▁woke	-11.4003
▁wedding	-11.4004
▁electrode	-11.4004
▁shang	-11.4004
▁redwood	-11.4006
▁concentration	-11.4006
drive	-11.4007
▁brian	-11.4009
manda	-11.4014
lock	-11.4019
▁bored	-11.4023
▁comedy	-11.4025
▁helpful	-11.4031
▁surgeons	-11.4038
▁degrad	-11.4042
oth	-11.4052
▁wage	-11.4054
▁distinguish	-11.4062
gentleman	-11.4065
▁purchase	-11.4067
▁overwhelming	-11.4087
hong	-11.4098
▁incident	-11.4108
▁impress	-11.4111
▁commun	-11.4118
▁minim	-11.4126
▁boot	-11.4165
▁attribute	-11.4177
gri	-11.4185
ounce	-11.4201
▁migrat	-11.4202
▁dirt	-11.4202
▁crystal	-11.4206
▁censor	-11.4206
▁grateful	-11.4206
▁precious	-11.4206
▁temple	-11.4206
▁friday	-11.4206
▁closing	-11.4206
▁insulin	-11.4206
▁dutch	-11.4206
▁luxur	-11.4206
▁biosphere	-11.4207
▁crush	-11.4207
▁swiss	-11.4207
▁stephen	-11.4208
▁pulse	-11.4209
▁cue	-11.4209
▁canopy	-11.421
▁unfold	-11.421
▁nuts	-11.4211
▁proposal	-11.4212
▁calorie	-11.4213
▁junk	-11.4213
▁33	-11.4215
volt	-11.4215
▁lean	-11.4216
▁downtown	-11.4217
▁disconnect	-11.4219
american	-11.4219
▁30,000	-11.4222
force	-11.4223
therap	-11.4223
▁glue	-11.4224
▁stri	-11.4224
▁lego	-11.4239
▁jur	-11.4244
▁ken	-11.4249
rom	-11.4268
run	-11.427
▁sunday	-11.4273
▁marc	-11.4283
▁diploma	-11.4287
part	-11.429
▁boss	-11.4291
org	-11.4292
▁producer	-11.4293
▁eve	-11.43
ju	-11.433
read	-11.4342
▁span	-11.4346
disc	-11.4361
ump	-11.4376
▁occasion	-11.4379
▁entit	-11.4382
▁mud	-11.4392
▁jumped	-11.4392
▁brush	-11.4404
▁hung	-11.4405
▁disagree	-11.4413
▁republic	-11.4413
▁persist	-11.4415
▁acoustic	-11.4415
▁august	-11.4415
▁despair	-11.4415
▁division	-11.4415
▁hierarch	-11.4415
▁intimate	-11.4415
▁pencil	-11.4415
▁sponsor	-11.4415
▁spontaneous	-11.4415
▁flourish	-11.4415
▁screw	-11.4415
▁spanish	-11.4415
▁monster	-11.4416
▁alexand	-11.4416
▁fox	-11.4416
▁uniform	-11.4416
12	-11.4416
▁verb	-11.4417
▁atheist	-11.4418
▁peaceful	-11.442
lash	-11.442
▁albert	-11.4421
▁lg	-11.4422
▁nerd	-11.4422
▁tedx	-11.4426
▁arise	-11.4429
▁carolin	-11.4431
▁prevention	-11.4434
▁qua	-11.4434
▁juggl	-11.4435
efficient	-11.444
while	-11.444
▁vari	-11.4443
▁specialist	-11.4444
selves	-11.4445
▁scanner	-11.4446
▁korean	-11.4461
▁jer	-11.447
ifying	-11.4475
▁hacker	-11.4479
▁starv	-11.4487
▁concentrat	-11.4493
ix	-11.4497
right	-11.4506
▁apri	-11.4507
ado	-11.4512
erial	-11.4515
▁robb	-11.4527
▁float	-11.4533
▁grant	-11.4535
▁delivery	-11.4536
▁mechanic	-11.4538
▁batter	-11.4542
illa	-11.4565
▁sew	-11.4569
▁pant	-11.4582
▁farming	-11.4588
nia	-11.4595
▁unhapp	-11.4605
version	-11.4608
▁addict	-11.4625
▁feynman	-11.4627
▁glacier	-11.4627
▁hawaii	-11.4627
▁inherent	-11.4627
▁privacy	-11.4627
▁puppet	-11.4627
▁shrink	-11.4627
▁neutral	-11.4627
▁multiply	-11.4628
ike	-11.4628
▁chef	-11.4628
▁venture	-11.4628
▁italian	-11.4628
▁blend	-11.4628
▁bullet	-11.4628
▁geek	-11.4628
▁tongue	-11.4628
▁crab	-11.4629
▁representative	-11.4629
thermal	-11.463
▁harness	-11.4631
▁ecolog	-11.4634
▁sync	-11.4637
▁selfish	-11.4637
▁descend	-11.4638
▁insane	-11.4639
▁clar	-11.4644
▁translat	-11.4651
▁lucki	-11.4652
▁rotat	-11.4654
▁nar	-11.467
chu	-11.467
▁interconnected	-11.4671
▁prayer	-11.4678
wear	-11.4686
ux	-11.4686
▁merc	-11.4703
▁bull	-11.4704
▁guid	-11.4729
roa	-11.4735
▁luc	-11.4739
cker	-11.4757
▁explorer	-11.4757
200	-11.4773
▁offering	-11.4776
▁independen	-11.4785
▁flowing	-11.4791
▁tan	-11.4802
▁disabl	-11.4806
▁convention	-11.4814
▁critic	-11.4824
vian	-11.4829
determin	-11.4834
▁teenage	-11.4837
▁distinct	-11.4839
▁exhibit	-11.4841
▁scott	-11.4844
▁galler	-11.4844
▁intrinsic	-11.4845
▁anxiet	-11.4845
▁cylinder	-11.4845
▁evaluat	-11.4845
▁gandhi	-11.4845
▁magnificent	-11.4845
▁chronic	-11.4845
▁surgical	-11.4845
▁devote	-11.4845
▁thumb	-11.4845
▁yemen	-11.4845
▁compress	-11.4845
▁royal	-11.4845
▁violat	-11.4846
▁viral	-11.4846
▁jones	-11.4847
▁pride	-11.4847
▁800	-11.4849
▁frontier	-11.4851
▁erect	-11.4853
▁backyard	-11.4854
▁reflection	-11.486
law	-11.4861
▁nata	-11.4865
▁insist	-11.487
▁lowest	-11.487
▁qu	-11.4878
▁update	-11.4881
▁distribute	-11.4887
▁loose	-11.4892
▁propos	-11.4895
profit	-11.4898
iff	-11.4903
clock	-11.4906
▁assum	-11.4911
▁eliminate	-11.4914
▁nigerian	-11.4924
▁dune	-11.4925
▁wrapp	-11.4925
▁cri	-11.4931
▁uh	-11.4945
ership	-11.495
▁interrupt	-11.4953
ira	-11.4955
▁additional	-11.4966
▁formal	-11.4971
xi	-11.4975
▁atomic	-11.4976
▁concentrate	-11.498
▁andrew	-11.4996
▁kh	-11.4997
▁pursui	-11.5
▁commit	-11.5005
▁cli	-11.503
▁coloni	-11.5033
▁analyz	-11.5038
▁lim	-11.5044
rah	-11.5057
▁sequenc	-11.5057
▁stabilit	-11.5058
▁aggressive	-11.5067
▁ceremon	-11.5067
▁cigarette	-11.5067
▁confirm	-11.5067
▁daniel	-11.5067
▁delicious	-11.5067
▁enterprise	-11.5067
▁festival	-11.5067
▁mandela	-11.5067
▁matrix	-11.5067
▁palestinian	-11.5067
▁terrain	-11.5067
▁terrifying	-11.5067
▁tweet	-11.5067
▁clinton	-11.5067
▁valid	-11.5067
▁benjam	-11.5067
▁lord	-11.5067
▁archive	-11.5067
▁glow	-11.5067
▁relief	-11.5067
▁gallon	-11.5069
▁brick	-11.507
▁diagnostic	-11.507
▁ongoing	-11.5071
▁miserable	-11.5071
▁stir	-11.5072
▁victim	-11.5072
▁hydro	-11.5073
▁shoe	-11.5074
▁examine	-11.5077
▁passage	-11.508
cola	-11.5083
▁brave	-11.5087
▁astronomer	-11.5107
▁dependenc	-11.5108
▁celebrat	-11.5121
place	-11.5121
▁mul	-11.5127
known	-11.5135
▁spinn	-11.5138
▁manipulate	-11.5147
face	-11.5149
step	-11.515
▁carl	-11.5165
▁via	-11.5185
▁proven	-11.5186
bm	-11.5192
▁overwhelm	-11.5199
▁founder	-11.5202
▁strongly	-11.5207
▁dam	-11.5214
▁lotter	-11.5219
▁democrat	-11.5227
▁col	-11.5229
▁pier	-11.5232
▁thus	-11.5292
▁choosing	-11.5294
▁encouraging	-11.5294
▁glimpse	-11.5294
▁hybrid	-11.5294
▁receptor	-11.5294
▁structural	-11.5294
▁symphon	-11.5294
▁unprecedented	-11.5294
▁alpha	-11.5294
▁civic	-11.5294
▁suppress	-11.5294
▁tutor	-11.5294
▁beij	-11.5294
▁transmission	-11.5295
▁consist	-11.5295
▁delay	-11.5295
▁steer	-11.5295
▁indoor	-11.5295
▁unconscious	-11.5295
▁juice	-11.5296
▁deception	-11.5296
▁jewel	-11.5296
ntact	-11.5296
▁mindset	-11.5299
controversial	-11.5303
▁tedster	-11.5303
▁phenomenal	-11.5304
▁santa	-11.5304
▁iceland	-11.5304
▁40,000	-11.5305
▁mola	-11.5307
▁192	-11.5308
aph	-11.531
▁stamp	-11.5311
▁logo	-11.5312
▁integr	-11.5314
▁zeal	-11.5317
▁virtue	-11.5321
▁olive	-11.5323
▁germ	-11.5325
▁playful	-11.5327
▁refuse	-11.5329
▁stake	-11.5329
▁acknowledge	-11.5331
▁destiny	-11.5332
tub	-11.5345
▁cape	-11.5349
glo	-11.5361
▁microbi	-11.5365
▁sale	-11.5373
▁donation	-11.5374
▁eco	-11.5388
▁tooth	-11.5391
oline	-11.5399
blo	-11.5421
▁mary	-11.5434
▁displac	-11.5443
▁worrying	-11.5461
▁navigate	-11.5472
▁dub	-11.5513
bye	-11.5514
osphere	-11.5527
▁afghan	-11.5527
▁columb	-11.5527
▁aristot	-11.5527
▁bioluminescen	-11.5527
▁crawl	-11.5527
▁grandparents	-11.5527
▁indonesia	-11.5527
▁persuade	-11.5527
▁shepherd	-11.5527
▁squid	-11.5527
▁welfare	-11.5527
▁lifespan	-11.5527
▁smiling	-11.5527
▁voyage	-11.5527
▁bosnia	-11.5527
▁collision	-11.5527
▁remix	-11.5527
▁proceed	-11.5527
arthur	-11.5527
▁bathroom	-11.5527
▁exposure	-11.5527
▁reproduce	-11.5528
▁pipeline	-11.5528
▁redesign	-11.5528
▁flick	-11.5528
▁mike	-11.5528
▁spacecraft	-11.5529
▁dough	-11.5529
▁cruel	-11.553
▁negotiation	-11.553
▁correlation	-11.553
▁shout	-11.5534
▁nick	-11.5537
▁manner	-11.5537
▁marry	-11.5538
▁branche	-11.5543
▁assure	-11.5544
▁included	-11.5544
▁belt	-11.5548
▁rape	-11.5549
▁mammal	-11.5554
▁200,000	-11.5555
▁popp	-11.5567
inch	-11.5567
▁mesh	-11.5568
▁factories	-11.5568
▁upward	-11.557
▁emergence	-11.5573
bran	-11.5581
▁bioma	-11.5586
▁approximate	-11.5589
▁optical	-11.559
▁hardest	-11.5592
▁disability	-11.5596
▁formation	-11.5599
▁30-	-11.56
▁cookie	-11.5609
▁transmitt	-11.563
second	-11.5633
found	-11.5633
gill	-11.5637
▁sq	-11.5652
human	-11.5654
ime	-11.5658
▁aspiration	-11.5659
▁transmit	-11.5661
pain	-11.5665
▁beating	-11.5692
▁embrac	-11.5696
blown	-11.5699
estate	-11.5704
▁chase	-11.5708
▁flipp	-11.5718
▁needles	-11.5727
▁mist	-11.574
▁paradox	-11.5742
▁corrupt	-11.5761
▁bite	-11.5762
▁scholar	-11.5765
surveillance	-11.5765
▁calculus	-11.5765
▁divorce	-11.5765
▁encyclopedia	-11.5765
▁prescription	-11.5765
▁rethink	-11.5765
▁storytelling	-11.5765
▁unemploy	-11.5765
▁veteran	-11.5765
▁illuminat	-11.5765
▁chunk	-11.5765
▁pigeon	-11.5765
▁storyteller	-11.5765
▁helium	-11.5765
▁absence	-11.5765
▁distort	-11.5765
▁contest	-11.5765
▁diameter	-11.5765
▁spike	-11.5766
▁hallucination	-11.5766
▁mainstream	-11.5766
▁recession	-11.5766
▁brutal	-11.5767
▁retirement	-11.5767
▁strict	-11.5769
▁distinction	-11.577
▁investigation	-11.577
▁magician	-11.5771
▁canvas	-11.5771
▁jew	-11.5772
▁strategic	-11.5773
▁tide	-11.5773
▁philosophical	-11.5775
▁thread	-11.5776
▁minus	-11.578
▁intent	-11.5782
symmetrical	-11.5785
▁lap	-11.5787
▁masse	-11.5788
▁eradicat	-11.5789
▁stunning	-11.5794
pit	-11.5797
5,000	-11.5801
▁banker	-11.5806
een	-11.5807
▁mold	-11.5809
▁spare	-11.582
▁sake	-11.5827
▁overhead	-11.5829
▁shak	-11.5833
▁mood	-11.5834
▁burned	-11.5837
▁maxim	-11.5838
▁sue	-11.5841
▁upside	-11.585
▁trad	-11.5851
▁philip	-11.5856
▁format	-11.5871
▁rub	-11.5873
▁bust	-11.5888
▁prepar	-11.5891
▁dropping	-11.5892
▁referr	-11.5904
▁surger	-11.5915
▁sometime	-11.5924
rdon	-11.595
▁texting	-11.5951
erson	-11.5955
page	-11.5957
ette	-11.5964
▁compute	-11.6001
▁psychiatr	-11.6005
▁chemist	-11.6007
▁enzyme	-11.6009
▁impulse	-11.6009
▁joseph	-11.6009
▁leonardo	-11.6009
▁leopard	-11.6009
▁occupy	-11.6009
▁philanthropy	-11.6009
▁register	-11.6009
▁swallow	-11.6009
▁ultrasound	-11.6009
▁leban	-11.6009
▁scrap	-11.6009
▁casual	-11.6009
▁mutual	-11.6009
▁awake	-11.6009
▁encode	-11.6009
▁emphasize	-11.6009
▁dispos	-11.601
▁texture	-11.601
▁hint	-11.601
▁valve	-11.6013
▁digest	-11.6015
▁grabb	-11.6015
▁hyp	-11.6016
▁sanit	-11.6018
▁vice	-11.6022
▁1900	-11.6023
▁campus	-11.6024
▁horizontal	-11.6024
▁pric	-11.6024
▁upload	-11.6034
▁practic	-11.6037
▁unsee	-11.6054
▁pc	-11.6056
▁hug	-11.6058
▁summarize	-11.6062
▁viewer	-11.607
hil	-11.6104
▁pitt	-11.6106
▁bern	-11.6111
angle	-11.6118
▁rome	-11.6133
coli	-11.6135
▁embarrassing	-11.6136
▁panic	-11.6137
enabl	-11.6144
▁triple	-11.6148
weight	-11.6152
school	-11.6153
▁digg	-11.6159
▁negotiate	-11.6159
▁bacteri	-11.6159
▁climber	-11.6172
▁accumulat	-11.6172
mile	-11.6172
uel	-11.6179
lace	-11.618
▁logical	-11.6193
vity	-11.6195
▁bro	-11.6207
osity	-11.6211
▁liberat	-11.6214
ith	-11.6219
grove	-11.6255
▁slave	-11.6258
▁aqua	-11.6259
vascular	-11.6259
▁awkward	-11.6259
▁electromagnet	-11.6259
▁genomic	-11.6259
▁horror	-11.6259
▁membrane	-11.6259
▁neuroscientist	-11.6259
▁parachute	-11.6259
▁shakespeare	-11.6259
▁stomach	-11.6259
▁contemplat	-11.6259
▁genuine	-11.6259
▁guitar	-11.6259
▁irrational	-11.6259
▁retreat	-11.6259
▁substantial	-11.6259
▁warrior	-11.6259
▁alphabet	-11.6259
▁satisfy	-11.6259
▁schedule	-11.6259
▁firing	-11.6259
▁align	-11.6259
▁gross	-11.6259
▁microphone	-11.6259
▁psychopath	-11.6259
▁banana	-11.6259
▁fault	-11.6259
▁historian	-11.6259
▁buddha	-11.626
▁doodl	-11.626
▁bedroom	-11.626
▁girlfriend	-11.6261
▁priest	-11.6261
▁chole	-11.6261
▁hemisphere	-11.6263
▁friendship	-11.6263
▁candle	-11.6263
▁lobe	-11.6264
▁recall	-11.6264
▁mexican	-11.6264
▁pigment	-11.6266
▁frustration	-11.6267
▁rover	-11.6267
▁grace	-11.6268
▁rubber	-11.6269
▁workplace	-11.6269
▁bud	-11.627
▁healing	-11.6274
▁thai	-11.6291
▁hopeless	-11.6292
▁reliabl	-11.6292
▁constraint	-11.6295
▁rating	-11.6295
▁deposit	-11.6299
▁foi	-11.63
▁arc	-11.6302
▁strain	-11.6303
type	-11.6304
▁captur	-11.6305
beat	-11.6321
▁rea	-11.6329
▁statistic	-11.6332
uter	-11.6337
▁devastating	-11.6343
brew	-11.6348
uction	-11.6352
▁simulate	-11.6354
▁impressi	-11.6369
▁accelerate	-11.6369
▁shy	-11.6387
xon	-11.639
cock	-11.6394
▁taxe	-11.6426
master	-11.6429
▁patch	-11.6433
▁conceptual	-11.6441
▁eliminat	-11.6441
bacterial	-11.6449
▁criticiz	-11.6458
▁hut	-11.6463
air	-11.6493
aust	-11.6496
▁vibrat	-11.6511
▁skelet	-11.6512
▁assign	-11.6513
▁accompani	-11.6515
▁artifact	-11.6515
▁calculator	-11.6515
▁contaminat	-11.6515
▁explicit	-11.6515
▁humanitarian	-11.6515
▁nitrogen	-11.6515
▁obtain	-11.6515
▁optimiz	-11.6515
▁outbreak	-11.6515
▁pathogen	-11.6515
▁segment	-11.6515
▁spiral	-11.6515
▁scaffold	-11.6515
▁volcano	-11.6515
▁composition	-11.6515
▁drown	-11.6515
▁inhibit	-11.6515
▁statue	-11.6515
▁parasite	-11.6515
▁striking	-11.6515
▁vivid	-11.6515
▁connectome	-11.6515
▁loving	-11.6515
▁dvd	-11.6515
▁antenna	-11.6515
▁odor	-11.6515
▁fried	-11.6516
▁ethan	-11.6516
▁hostile	-11.6516
▁flock	-11.6516
▁annoy	-11.6517
uous	-11.6517
▁kong	-11.6517
▁towel	-11.6517
▁grip	-11.6517
▁index	-11.6518
▁grape	-11.6518
▁laden	-11.6518
▁unlock	-11.6519
▁nail	-11.6522
▁obsession	-11.6525
▁coverage	-11.653
▁saudi	-11.653
▁secretar	-11.6532
▁stimul	-11.6533
▁lonel	-11.6533
wandering	-11.6533
▁grim	-11.6533
▁350	-11.6537
▁fatal	-11.6537
mbi	-11.6543
▁asthma	-11.6543
▁deck	-11.6549
▁dick	-11.6553
▁gyr	-11.6553
stick	-11.6554
▁digitiz	-11.6555
▁whip	-11.6556
▁realization	-11.6572
▁rena	-11.6593
▁ironic	-11.6596
▁customiz	-11.6603
list	-11.6616
▁switched	-11.6617
▁axe	-11.6621
▁trap	-11.6638
▁huh	-11.664
▁separat	-11.6652
wat	-11.6655
▁nucle	-11.666
▁expose	-11.666
▁stimulate	-11.6667
juan	-11.6668
person	-11.6672
▁binar	-11.6684
▁boundary	-11.6691
produc	-11.6699
code	-11.6705
▁prim	-11.6706
aware	-11.6718
▁kindness	-11.672
▁quantit	-11.6731
rlin	-11.6736
spring	-11.6738
▁typ	-11.6743
▁mai	-11.6749
▁laur	-11.6758
▁milo	-11.677
▁consult	-11.6773
▁manifest	-11.6776
▁autonom	-11.6777
▁athlete	-11.6778
▁catholic	-11.6778
▁chimp	-11.6778
▁elevator	-11.6778
▁fertilizer	-11.6778
▁marrow	-11.6778
▁mcdonald	-11.6778
▁mumbai	-11.6778
▁transistor	-11.6778
▁underestimat	-11.6778
▁premise	-11.6778
▁expense	-11.6778
▁inherit	-11.6778
▁heritage	-11.6778
▁librari	-11.6779
▁outdoor	-11.6779
▁charli	-11.6779
jec	-11.6779
▁glorious	-11.6779
▁famine	-11.6779
▁tomato	-11.6779
▁destination	-11.678
▁champion	-11.678
▁minority	-11.6781
▁berk	-11.6782
▁thermo	-11.6783
▁barbar	-11.6784
▁replacement	-11.6786
▁adaptation	-11.6788
▁equit	-11.6788
▁dating	-11.6793
▁initiat	-11.6805
tenth	-11.6808
▁frequently	-11.6813
▁louis	-11.6815
▁warn	-11.6817
▁composer	-11.6822
▁baker	-11.6825
▁seventh	-11.6828
penh	-11.6845
oli	-11.6854
▁promis	-11.6863
▁everest	-11.6864
▁riot	-11.6865
▁graduat	-11.6873
▁scaling	-11.6873
▁crap	-11.688
▁din	-11.6904
▁custom	-11.6908
evo	-11.691
▁scal	-11.6931
▁trappe	-11.6933
▁lou	-11.6935
▁visualize	-11.6944
maha	-11.6946
controlle	-11.6946
style	-11.6947
▁disrupt	-11.6951
▁container	-11.6967
plan	-11.6968
▁phil	-11.6971
eller	-11.6973
▁sang	-11.6981
▁microscop	-11.7008
▁stewar	-11.7008
▁42	-11.7011
▁performer	-11.7013
berry	-11.7029
nett	-11.7029
▁levi	-11.7034
▁distract	-11.7045
▁correlat	-11.7046
▁heavi	-11.7047
▁abundance	-11.7049
▁calendar	-11.7049
▁endeavor	-11.7049
▁league	-11.7049
▁parkinson	-11.7049
▁captain	-11.7049
▁smash	-11.7049
▁declare	-11.7049
▁combat	-11.7049
▁turtle	-11.7049
conceive	-11.7049
▁myceli	-11.7049
▁cooperative	-11.7049
▁fetus	-11.7049
▁explode	-11.7049
▁ministr	-11.705
▁forbid	-11.705
▁introduction	-11.705
▁divergen	-11.705
▁blink	-11.7051
▁2020	-11.7053
▁translator	-11.7054
▁denial	-11.7056
▁artwork	-11.7059
▁airline	-11.7059
▁behold	-11.7069
▁solo	-11.7076
▁server	-11.7079
▁charter	-11.708
▁impose	-11.7082
▁deepest	-11.7085
▁budd	-11.7091
▁tun	-11.7092
quo	-11.7094
▁strap	-11.7094
▁190	-11.7095
▁sylvi	-11.7104
scape	-11.7129
▁exhaust	-11.7133
▁rott	-11.7138
▁fee	-11.7146
▁processor	-11.7182
▁spine	-11.719
cum	-11.7199
▁dai	-11.7214
uri	-11.7221
plat	-11.7226
▁nonviolen	-11.7238
rselves	-11.7239
ulation	-11.7256
▁treasure	-11.7259
ough	-11.7262
global	-11.728
perform	-11.7281
four	-11.7283
▁blogg	-11.7295
▁asian	-11.7301
▁developer	-11.7302
speed	-11.7314
▁trauma	-11.7314
▁convict	-11.7322
▁anesthesi	-11.7323
▁virgini	-11.7324
var	-11.7325
▁melod	-11.7326
▁adolescent	-11.7326
▁cambodia	-11.7326
▁census	-11.7326
▁commodity	-11.7326
▁craig	-11.7326
▁diarrhea	-11.7326
▁juvenile	-11.7326
▁kosov	-11.7326
▁purple	-11.7326
▁violin	-11.7326
▁vitamin	-11.7326
▁grocer	-11.7327
▁slope	-11.7327
▁algae	-11.7327
▁indigen	-11.7327
▁multinational	-11.7327
▁committee	-11.7327
▁impair	-11.7327
▁brad	-11.7327
▁cattle	-11.7327
▁wilson	-11.7327
▁cocaine	-11.7327
▁pearl	-11.7327
▁babb	-11.7327
▁echo	-11.7328
▁norden	-11.7328
▁cellphone	-11.7328
▁congesti	-11.7328
▁chew	-11.7328
▁prosperity	-11.7328
▁simon	-11.7329
▁1930	-11.7329
▁potter	-11.7329
▁blur	-11.7329
▁separation	-11.7331
▁confine	-11.7331
▁mini	-11.7332
▁evan	-11.7332
scope	-11.7332
▁progressive	-11.7337
▁greet	-11.7337
▁integration	-11.7338
▁sens	-11.7339
▁advocate	-11.7339
▁vary	-11.7341
▁conductor	-11.7342
▁modest	-11.7345
▁couch	-11.7345
illion	-11.7346
▁operator	-11.7352
▁lewi	-11.7353
▁peel	-11.7362
▁ferr	-11.7362
▁broader	-11.7364
iful	-11.7371
▁jay	-11.7374
▁rabbit	-11.7375
star	-11.7392
▁navigat	-11.7393
▁documentar	-11.7399
▁cab	-11.7404
▁millenni	-11.7423
bati	-11.7441
▁indus	-11.7471
▁31	-11.7472
▁gentle	-11.7514
▁devastat	-11.7517
▁cope	-11.7536
ong	-11.7537
▁approache	-11.7541
▁miser	-11.7547
generat	-11.7552
▁significan	-11.7553
kans	-11.756
▁octop	-11.7562
▁soap	-11.7562
▁symbolic	-11.7563
▁retire	-11.7565
income	-11.7582
▁kilo	-11.76
▁cooper	-11.7601
▁stereo	-11.7605
▁punish	-11.7611
▁brooklyn	-11.7612
▁canadian	-11.7612
▁cathedral	-11.7612
▁comprehensi	-11.7612
▁deforest	-11.7612
▁elizabeth	-11.7612
▁imperative	-11.7612
▁intimacy	-11.7612
▁innovate	-11.7612
▁cream	-11.7612
▁stumbl	-11.7612
▁bonus	-11.7612
▁pirate	-11.7612
▁blob	-11.7612
▁1.2	-11.7612
▁enforce	-11.7613
▁multipli	-11.7613
▁pancrea	-11.7613
▁sufficient	-11.7614
▁entry	-11.7614
▁dictator	-11.7615
▁bloom	-11.7615
▁1,500	-11.7615
▁blade	-11.7615
▁meditation	-11.7616
▁vibration	-11.7617
▁48	-11.7617
▁celebration	-11.7618
▁commandment	-11.7618
▁resilien	-11.762
▁cartoonist	-11.762
lapse	-11.7621
▁naive	-11.7621
ological	-11.7621
lanta	-11.7623
▁susan	-11.7623
▁blindness	-11.7626
▁salar	-11.7626
corn	-11.7627
sourc	-11.7628
▁canyon	-11.7628
▁dare	-11.7628
▁sweep	-11.7633
▁ambition	-11.7641
▁compil	-11.7642
▁fever	-11.7643
▁disk	-11.7645
▁squeeze	-11.765
▁yeast	-11.7661
▁jh	-11.7663
▁broc	-11.7675
▁mild	-11.7679
eur	-11.7691
▁snap	-11.7696
hole	-11.77
▁endless	-11.7701
▁cyr	-11.7707
▁transformati	-11.7712
▁accumulate	-11.7713
▁logg	-11.7718
▁negotiat	-11.7724
▁skip	-11.7726
▁settle	-11.7742
▁anticipate	-11.7743
mala	-11.7744
stein	-11.778
▁scare	-11.7809
▁mono	-11.7829
bone	-11.7852
▁cleaner	-11.7882
elli	-11.7884
gger	-11.789
shirt	-11.789
▁pursu	-11.7893
▁controvers	-11.7895
▁restrict	-11.7902
▁ideolog	-11.7905
▁rebel	-11.7905
ella	-11.7906
▁dragonfl	-11.7906
adequate	-11.7906
▁anniversar	-11.7906
▁buddhist	-11.7906
▁buzz	-11.7906
▁catastrophe	-11.7906
▁contagio	-11.7906
▁deficit	-11.7906
▁fractal	-11.7906
▁friction	-11.7906
▁innovator	-11.7906
▁monument	-11.7906
▁supreme	-11.7906
invasive	-11.7906
▁boost	-11.7906
▁wrist	-11.7906
▁nightmare	-11.7906
▁funeral	-11.7906
▁saint	-11.7907
▁constitution	-11.7907
▁cereb	-11.7907
▁criteri	-11.7907
▁ventilat	-11.7907
ectar	-11.7907
▁flesh	-11.7907
▁sarah	-11.7907
▁preach	-11.7908
▁yell	-11.7908
▁mixture	-11.7908
▁arrangement	-11.7908
▁contradiction	-11.7908
▁settlement	-11.7908
▁punishment	-11.7909
▁macro	-11.7911
▁98	-11.7912
▁dragg	-11.7914
▁gase	-11.7914
▁25,000	-11.7915
▁tourist	-11.7916
▁keen	-11.7918
▁lever	-11.7923
libr	-11.7927
▁mach	-11.7931
▁celebrity	-11.7939
▁193	-11.7955
urgenc	-11.7958
▁pup	-11.7963
▁ec	-11.7969
▁observer	-11.797
vinci	-11.7987
ature	-11.7988
activat	-11.7995
zu	-11.8003
▁130	-11.8025
▁ross	-11.8029
five	-11.8059
▁deriv	-11.8065
▁anticipat	-11.8073
▁arena	-11.8087
▁heroic	-11.8087
▁diagnosi	-11.8091
▁manipulat	-11.8097
▁aggregate	-11.8103
▁automat	-11.8106
▁collaborate	-11.8114
▁optic	-11.8129
▁teache	-11.8135
▁summar	-11.8144
▁astronom	-11.8152
▁rut	-11.8162
▁dishe	-11.817
▁yards	-11.8178
18	-11.8182
▁skeptic	-11.8184
▁semi	-11.8191
olo	-11.8201
technology	-11.8205
▁imitat	-11.8206
▁accura	-11.8208
▁beneficia	-11.8209
▁commoditi	-11.8209
▁execute	-11.8209
▁fantasy	-11.8209
▁illustration	-11.8209
▁mobiliz	-11.8209
▁neglect	-11.8209
▁peculiar	-11.8209
▁principal	-11.8209
▁protocol	-11.8209
▁synapse	-11.8209
▁technician	-11.8209
▁trivial	-11.8209
▁vacation	-11.8209
▁affair	-11.8209
▁cabinet	-11.8209
▁fundrais	-11.8209
▁alumin	-11.8209
▁whisper	-11.8209
▁spear	-11.8209
▁resonate	-11.8209
▁depriv	-11.8209
▁oppress	-11.8209
▁catalog	-11.8209
▁depict	-11.821
▁album	-11.821
▁carrot	-11.821
▁tibet	-11.821
▁reinforc	-11.821
▁infra	-11.821
▁flame	-11.821
▁articulat	-11.821
▁checklist	-11.821
▁dissolv	-11.821
▁acute	-11.821
▁headquarter	-11.8211
▁chile	-11.8211
▁anthropologist	-11.8211
▁sidewalk	-11.8211
▁preference	-11.8211
▁cafe	-11.8212
▁trunk	-11.8212
▁stimulation	-11.8213
istine	-11.8213
▁retail	-11.8213
proof	-11.8214
▁fda	-11.8215
▁advise	-11.8215
▁mature	-11.8216
band	-11.8217
▁gala	-11.8217
▁freez	-11.8217
▁perceiv	-11.8217
▁invitation	-11.8218
▁cheer	-11.8218
shift	-11.8218
▁flor	-11.8219
social	-11.8219
▁decent	-11.822
▁38	-11.822
▁delete	-11.8221
▁mum	-11.8224
▁coca	-11.8224
▁fus	-11.8225
▁freeze	-11.823
blew	-11.823
coloniz	-11.8238
▁bid	-11.8247
▁bask	-11.825
▁brit	-11.8253
▁crude	-11.8259
mun	-11.8263
▁momentum	-11.8271
neil	-11.8284
▁mash	-11.829
▁eighth	-11.8293
▁helpless	-11.8295
▁warmer	-11.8319
▁bol	-11.8319
▁emitt	-11.8366
▁demonstrat	-11.8388
kee	-11.8388
▁abilit	-11.8392
emia	-11.8406
minded	-11.8411
▁rubb	-11.8413
▁kenn	-11.8414
oma	-11.8437
▁lama	-11.845
▁mytholog	-11.8467
far	-11.8478
ause	-11.8484
▁nav	-11.8488
▁ambitio	-11.8492
▁bounce	-11.8498
▁forgive	-11.8503
▁appl	-11.8507
▁lobby	-11.8516
violet	-11.8522
▁catastrophic	-11.8522
▁default	-11.8522
▁drunk	-11.8522
▁elaborate	-11.8522
▁eternal	-11.8522
▁executive	-11.8522
▁jordan	-11.8522
▁jungle	-11.8522
▁phoenix	-11.8522
▁propagand	-11.8522
▁sebastia	-11.8522
▁secular	-11.8522
▁sputnik	-11.8522
▁synchroniz	-11.8522
▁unfair	-11.8522
▁vocabular	-11.8522
▁2030	-11.8522
▁apollo	-11.8522
▁staircase	-11.8522
▁commut	-11.8522
▁cubic	-11.8522
▁crater	-11.8522
▁carib	-11.8522
▁dentist	-11.8522
▁ancestr	-11.8522
▁headache	-11.8522
▁swarm	-11.8522
▁galva	-11.8522
▁rosling	-11.8522
▁neocort	-11.8522
▁bonobo	-11.8522
▁sneak	-11.8522
▁reclaim	-11.8523
▁scheme	-11.8523
▁portug	-11.8523
▁fuck	-11.8524
▁puff	-11.8525
▁preparation	-11.8525
▁selective	-11.8526
▁lester	-11.8526
▁improvise	-11.8527
▁addiction	-11.8528
▁migration	-11.8528
▁debri	-11.8529
witzer	-11.8531
pago	-11.8533
▁cad	-11.8535
minent	-11.8536
▁exot	-11.8537
▁educator	-11.8539
▁regulate	-11.854
▁mir	-11.8548
effective	-11.8551
track	-11.8556
▁generic	-11.8558
▁accus	-11.8558
mund	-11.8575
▁shap	-11.8582
▁dave	-11.859
▁ador	-11.8597
erusal	-11.8614
▁blast	-11.8621
▁copp	-11.8627
▁linu	-11.8632
▁australian	-11.8634
▁minimal	-11.8651
anjo	-11.8665
ound	-11.8673
scu	-11.8676
▁beef	-11.8677
▁voter	-11.8687
▁stan	-11.8701
▁zoo	-11.8702
eyed	-11.8703
▁rig	-11.8708
tract	-11.872
gras	-11.873
▁antibod	-11.8733
▁promot	-11.8736
▁millennia	-11.8747
▁prostitut	-11.8747
▁pregnanc	-11.8752
▁plea	-11.8753
ulu	-11.8761
hou	-11.8764
▁lar	-11.8776
cca	-11.8784
▁relativ	-11.8794
▁redefine	-11.8798
▁declin	-11.8806
ruce	-11.8811
▁passe	-11.8822
▁geograph	-11.8827
▁remark	-11.8828
spot	-11.8834
▁endur	-11.8834
▁meditat	-11.884
▁explod	-11.8844
voluntary	-11.8844
▁appliance	-11.8844
▁authoritarian	-11.8844
▁consensu	-11.8844
▁convincing	-11.8844
▁counsel	-11.8844
▁cybercriminal	-11.8844
▁evaporat	-11.8844
▁feminist	-11.8844
▁fifty	-11.8844
▁gadget	-11.8844
▁jupiter	-11.8844
▁manuscript	-11.8844
▁metabolism	-11.8844
▁montana	-11.8844
▁occupation	-11.8844
▁peanut	-11.8844
▁pollutant	-11.8844
▁prevalence	-11.8844
▁sensitivit	-11.8844
▁singapore	-11.8844
▁submersible	-11.8844
▁undergraduate	-11.8844
▁unleash	-11.8844
▁cocktail	-11.8844
▁deliberate	-11.8844
▁elevate	-11.8844
▁exclusive	-11.8844
▁exquisite	-11.8844
▁holiday	-11.8844
▁conquer	-11.8844
▁sierra	-11.8844
▁shredd	-11.8844
▁envelope	-11.8844
▁forecast	-11.8845
▁temporal	-11.8845
▁idiot	-11.8845
▁penalt	-11.8845
▁stain	-11.8845
▁tribal	-11.8845
▁regenerate	-11.8845
▁lump	-11.8845
▁syria	-11.8845
▁presum	-11.8846
▁infectious	-11.8846
▁breakdown	-11.8846
▁disney	-11.8846
▁billboard	-11.8847
▁divine	-11.8847
▁refrigerator	-11.8847
▁manifestation	-11.8848
▁civilian	-11.8851
▁seawater	-11.8852
▁fungi	-11.8852
▁minor	-11.8853
zler	-11.8854
diac	-11.8856
▁insert	-11.8859
▁generator	-11.8862
alist	-11.8869
riving	-11.8869
▁governor	-11.887
▁upright	-11.8871
▁swap	-11.8875
▁progression	-11.8878
elect	-11.8881
lisa	-11.8885
acle	-11.8888
▁payment	-11.8889
▁steward	-11.8893
bound	-11.8894
front	-11.8894
▁rear	-11.8924
▁lang	-11.8933
▁rust	-11.8951
▁arabia	-11.8952
▁bann	-11.8967
▁reache	-11.8976
▁kite	-11.8992
bp	-11.9009
▁185	-11.9016
▁humble	-11.9021
add	-11.9029
ggle	-11.9034
saw	-11.9034
utter	-11.9038
▁decid	-11.904
active	-11.9051
▁dip	-11.9052
▁owe	-11.9064
aker	-11.9066
▁intervene	-11.9068
▁folk	-11.9069
blowing	-11.9093
solv	-11.9095
eley	-11.9097
▁stare	-11.9098
shape	-11.9101
▁publisher	-11.9131
▁tire	-11.9139
▁isolation	-11.9142
▁stranger	-11.9143
▁gla	-11.9155
apped	-11.9161
▁infinit	-11.9166
therland	-11.9168
▁euro	-11.9172
▁wir	-11.9176
▁jacque	-11.9178
▁adolescence	-11.9178
▁anatomy	-11.9178
▁calculating	-11.9178
▁configuration	-11.9178
▁crocodile	-11.9178
▁favela	-11.9178
▁hamburger	-11.9178
▁himalaya	-11.9178
▁hurricane	-11.9178
▁introvert	-11.9178
▁namibia	-11.9178
▁pesticide	-11.9178
▁rehears	-11.9178
▁satisfact	-11.9178
▁stadium	-11.9178
▁thylacine	-11.9178
▁alaska	-11.9178
▁episode	-11.9178
▁ghost	-11.9178
▁prospect	-11.9178
▁visceral	-11.9178
▁worship	-11.9178
▁suspend	-11.9178
▁feather	-11.9178
▁helmet	-11.9178
▁mustache	-11.9178
▁creep	-11.9178
▁bombsight	-11.9178
▁oyster	-11.9178
▁qatar	-11.9178
▁jefferson	-11.9178
▁hmm	-11.9178
▁francis	-11.9178
▁alliance	-11.9178
▁kilogram	-11.9178
▁thrive	-11.9178
▁smartphone	-11.9178
centric	-11.9178
▁prescribe	-11.9179
▁cease	-11.9179
▁erupt	-11.9179
▁flaw	-11.9179
▁orphanage	-11.9179
▁shelve	-11.9179
▁reproduction	-11.9179
▁intersection	-11.918
▁toxin	-11.918
▁transit	-11.918
▁superpower	-11.918
▁curator	-11.9181
▁investigate	-11.9181
▁crank	-11.9183
▁memorial	-11.9185
▁utilit	-11.9186
▁embodie	-11.9187
▁lago	-11.9188
▁exit	-11.9188
▁alert	-11.9188
▁massac	-11.9189
▁guest	-11.9189
▁slim	-11.919
▁aunt	-11.9191
▁monday	-11.9194
▁zip	-11.9196
▁eba	-11.9197
▁requirement	-11.9197
▁differentiat	-11.92
▁barb	-11.9201
▁nitr	-11.9202
▁semina	-11.9206
▁overlap	-11.921
mino	-11.9212
▁drought	-11.9215
▁fog	-11.9215
▁blogger	-11.9227
▁julian	-11.9247
flow	-11.9253
generation	-11.9255
sleep	-11.9257
castle	-11.9262
▁apes	-11.9265
▁gener	-11.9274
▁collaps	-11.9275
▁memoriz	-11.9282
▁glove	-11.929
▁mag	-11.929
▁mau	-11.9295
▁unst	-11.9302
▁swo	-11.9304
.8	-11.9319
▁kim	-11.9327
fill	-11.934
adu	-11.9343
▁settl	-11.938
▁flap	-11.9382
▁dun	-11.9385
▁philipp	-11.9391
▁surf	-11.9416
▁wishe	-11.9432
▁buck	-11.9433
▁patholog	-11.9447
pati	-11.945
▁brun	-11.9451
▁accidental	-11.9452
diana	-11.9457
▁rabbi	-11.9462
94	-11.948
loom	-11.9483
▁eradicate	-11.9487
alai	-11.9491
▁precis	-11.9502
▁taxi	-11.9512
▁physiolog	-11.9514
▁numer	-11.9515
conserv	-11.9516
▁gall	-11.9519
▁tempt	-11.952
vu	-11.9521
▁drama	-11.9522
▁synesthe	-11.9523
▁absurd	-11.9523
▁astronaut	-11.9523
▁delusion	-11.9523
▁falcon	-11.9523
▁goliath	-11.9523
▁immigrant	-11.9523
▁irrigat	-11.9523
▁maneuver	-11.9523
▁migraine	-11.9523
▁revelation	-11.9523
▁babylon	-11.9523
▁ladder	-11.9523
qualifie	-11.9523
▁polite	-11.9523
▁sudan	-11.9523
▁watson	-11.9523
▁unveil	-11.9523
▁orgasm	-11.9523
▁equator	-11.9523
▁kelly	-11.9523
▁enrich	-11.9523
▁faint	-11.9523
▁legitimate	-11.9523
▁terminal	-11.9523
▁preced	-11.9523
▁bucket	-11.9524
fred	-11.9524
▁parameter	-11.9524
▁fluctuation	-11.9524
▁textile	-11.9524
▁consol	-11.9524
▁blueprint	-11.9525
▁guardian	-11.9525
▁duty	-11.9525
▁workshop	-11.9526
▁employment	-11.9527
▁assistant	-11.9528
▁wax	-11.9528
▁psychiatrist	-11.9528
▁alright	-11.9528
▁baseline	-11.9529
▁43	-11.9529
▁tasmanian	-11.9534
rcul	-11.9535
▁wil	-11.9536
entrepreneurship	-11.954
▁veil	-11.954
▁nast	-11.9543
▁basement	-11.9546
▁roman	-11.9547
▁tactic	-11.9549
▁upgrade	-11.9554
▁thankful	-11.9573
▁cage	-11.9578
tues	-11.9578
liberation	-11.9585
enberg	-11.959
▁env	-11.9593
▁carne	-11.9605
script	-11.9621
▁manufacture	-11.9623
reach	-11.9627
surfing	-11.9634
child	-11.9637
▁bandw	-11.9639
▁developmental	-11.964
istan	-11.9647
▁mama	-11.9655
ecd	-11.9689
morph	-11.9723
quin	-11.9753
▁poke	-11.9776
▁democrac	-11.9778
ographic	-11.9807
quality	-11.9822
▁hind	-11.9876
▁suburb	-11.9877
▁inflat	-11.9878
▁orphan	-11.9878
▁arrange	-11.9878
▁beekeep	-11.988
▁competitor	-11.988
▁fuzz	-11.988
▁horrifi	-11.988
▁laundr	-11.988
▁monsoon	-11.988
▁peripher	-11.988
▁shatter	-11.988
▁technologist	-11.988
▁velocit	-11.988
▁venezuela	-11.988
evident	-11.988
▁fiddl	-11.988
▁slogan	-11.988
▁dismiss	-11.988
▁chord	-11.988
▁spouse	-11.988
▁tunisia	-11.988
plankton	-11.988
▁intricate	-11.988
▁spatial	-11.988
▁abnormal	-11.988
▁suitcase	-11.988
commerc	-11.988
inister	-11.988
▁1.5	-11.988
▁consent	-11.988
▁revis	-11.9881
▁versa	-11.9882
▁vanish	-11.9883
roll	-11.9883
▁circulation	-11.9883
▁ipad	-11.9884
▁8,000	-11.9886
▁adaptive	-11.9887
▁injection	-11.9888
▁vocal	-11.9889
▁flute	-11.9892
illin	-11.9893
▁monk	-11.9894
nmark	-11.9894
▁strengthen	-11.9895
foam	-11.9896
▁kei	-11.9898
lept	-11.9899
ibera	-11.9901
▁neo	-11.9901
▁trailer	-11.9903
▁moz	-11.9903
▁larva	-11.9903
▁skeptical	-11.9909
▁placebo	-11.9914
▁propell	-11.9928
▁clapp	-11.9934
▁cosmo	-11.995
▁prototyp	-11.9952
▁interviewer	-11.9962
▁bolt	-11.9972
▁moma	-11.9974
▁noble	-11.9974
▁polariz	-11.9979
gur	-11.9979
ception	-11.9982
axis	-11.9999
▁stabilize	-12.0002
intuitive	-12.0004
month	-12.0005
wheel	-12.0007
culture	-12.0008
natural	-12.0009
▁disrupti	-12.0012
mail	-12.002
▁epi	-12.002
▁deni	-12.0024
▁dispers	-12.0034
link	-12.0036
▁plumb	-12.0037
million	-12.0037
▁4.	-12.0063
00,000	-12.0067
▁harsh	-12.0084
▁mysteri	-12.0088
geria	-12.0112
▁dece	-12.0114
▁mic	-12.012
▁glu	-12.013
flu	-12.0132
▁cel	-12.0133
▁125	-12.0141
viv	-12.0143
▁cosmolog	-12.015
pont	-12.0161
▁provider	-12.0167
▁subsid	-12.0175
hili	-12.0176
homa	-12.0179
raft	-12.0212
story	-12.0214
promised	-12.0223
▁menu	-12.0234
▁giga	-12.024
witz	-12.0242
kara	-12.0248
▁differ	-12.0249
▁excess	-12.0249
▁temper	-12.025
▁ambassador	-12.025
▁argentin	-12.025
▁chaotic	-12.025
▁delicate	-12.025
▁disadvantage	-12.025
▁dwarf	-12.025
▁flexibilit	-12.025
▁grassroots	-12.025
▁mammograph	-12.025
▁nichol	-12.025
▁province	-12.025
▁shield	-12.025
▁siberia	-12.025
▁submarine	-12.025
▁transaction	-12.025
▁ushahidi	-12.025
▁entrance	-12.025
▁rachel	-12.025
▁spaghetti	-12.025
▁psyche	-12.025
▁anxious	-12.025
▁modifi	-12.025
▁retain	-12.025
▁radar	-12.025
▁tesla	-12.025
▁stereotype	-12.025
▁extensive	-12.025
▁appoint	-12.025
▁mosque	-12.0251
▁trek	-12.0251
▁coincidence	-12.0251
▁hammer	-12.0251
▁julie	-12.0251
compensat	-12.0252
erran	-12.0252
▁novelty	-12.0253
▁instinctive	-12.0253
▁courageous	-12.0253
▁nike	-12.0254
▁grassland	-12.0254
▁brazilian	-12.0254
▁claw	-12.0254
▁manipulation	-12.0255
▁oak	-12.0256
▁2.0	-12.0256
▁ideological	-12.0257
▁44	-12.0258
▁ballet	-12.0261
▁max	-12.0262
▁sadness	-12.0263
▁lightning	-12.0266
ngalo	-12.0269
agile	-12.027
▁slaughter	-12.0272
▁scarce	-12.0274
▁linguistic	-12.0277
▁bj	-12.0279
▁consideration	-12.0287
▁transferr	-12.0297
▁traffick	-12.0301
almon	-12.0311
▁drone	-12.0312
▁fame	-12.0312
▁publication	-12.0317
▁metaphorical	-12.0322
▁intentional	-12.0333
▁gil	-12.0336
void	-12.0342
aten	-12.0358
▁fade	-12.0361
▁cardio	-12.0365
▁resemble	-12.0385
ronto	-12.039
▁informal	-12.0402
bucks	-12.0404
securit	-12.0408
field	-12.0408
market	-12.0408
fund	-12.0409
energy	-12.0409
together	-12.0409
course	-12.0409
▁continual	-12.0412
▁nuclei	-12.0418
▁capitalist	-12.0428
▁incidental	-12.0433
▁painter	-12.044
craft	-12.0446
▁woode	-12.0459
ltan	-12.0469
▁slu	-12.0474
▁nap	-12.0486
▁dj	-12.0535
▁carv	-12.0577
racing	-12.0603
▁mp	-12.0604
rock	-12.0604
▁advoca	-12.0617
▁fib	-12.0619
▁numb	-12.0622
▁undergo	-12.0625
▁influen	-12.0631
▁embryo	-12.0635
convenience	-12.0635
▁ambiguit	-12.0635
▁avatar	-12.0635
▁biofuel	-12.0635
▁circular	-12.0635
▁deplet	-12.0635
▁exaggerat	-12.0635
▁gravitational	-12.0635
▁improvisation	-12.0635
▁ingenuity	-12.0635
▁injustice	-12.0635
▁mammogram	-12.0635
▁metabolic	-12.0635
▁michigan	-12.0635
▁optimal	-12.0635
▁pedestrian	-12.0635
▁polish	-12.0635
▁specimen	-12.0635
▁surplus	-12.0635
▁symbio	-12.0635
▁wavelength	-12.0635
▁arbitrar	-12.0635
▁capsule	-12.0635
▁existential	-12.0635
▁humiliat	-12.0635
▁meadow	-12.0635
▁saturday	-12.0635
▁1.3	-12.0635
▁pepper	-12.0635
▁rehabilitati	-12.0635
▁essay	-12.0635
▁steep	-12.0635
▁liberia	-12.0635
▁haunt	-12.0635
▁wreck	-12.0635
▁drain	-12.0635
▁eager	-12.0635
▁escalat	-12.0635
bladder	-12.0635
▁obscur	-12.0635
▁problematic	-12.0635
▁bypass	-12.0635
▁serge	-12.0635
▁zipcar	-12.0635
▁gambl	-12.0635
▁bmw	-12.0636
▁polymer	-12.0636
▁immersi	-12.0636
▁margar	-12.0636
▁assessment	-12.0637
▁missile	-12.0637
▁criticism	-12.0637
rift	-12.0637
▁shallow	-12.0637
▁lemon	-12.0638
▁browser	-12.0639
▁quadr	-12.0639
▁180	-12.0639
▁darwinian	-12.064
▁gym	-12.0641
banish	-12.0641
▁52	-12.0643
▁pillar	-12.0643
▁spit	-12.0645
▁cooperate	-12.0646
▁hindu	-12.0651
▁34	-12.0652
▁attraction	-12.0653
▁restorati	-12.0653
▁chap	-12.0653
▁warfar	-12.0654
▁norman	-12.0659
▁edward	-12.066
sylv	-12.0661
▁penis	-12.0669
▁requir	-12.0684
▁packag	-12.0688
▁uninten	-12.0696
wick	-12.0697
▁fuse	-12.0708
▁visitor	-12.0733
▁incremental	-12.0736
uba	-12.0738
▁cycl	-12.0751
▁curl	-12.0764
cast	-12.0764
stimulat	-12.0771
write	-12.0778
▁reliev	-12.0778
▁whistl	-12.0782
tune	-12.0796
rov	-12.0817
polar	-12.0821
grand	-12.0822
broad	-12.0823
positive	-12.0825
develop	-12.0826
percent	-12.0827
boat	-12.0833
food	-12.0838
▁balanc	-12.0844
▁hatch	-12.0846
▁dye	-12.0895
regulat	-12.09
▁incorporate	-12.0934
▁laborator	-12.0935
▁cou	-12.0955
▁mapp	-12.0978
▁crashe	-12.0978
▁journalis	-12.098
tress	-12.0984
▁shir	-12.0986
loa	-12.0986
▁emil	-12.1001
▁extrem	-12.1002
▁wander	-12.1007
scribe	-12.101
▁trail	-12.1018
▁hypothes	-12.1032
▁stigma	-12.1033
▁advent	-12.1034
coherent	-12.1035
delphi	-12.1035
▁cockroach	-12.1035
▁complication	-12.1035
▁conscience	-12.1035
▁elbow	-12.1035
▁envision	-12.1035
▁execution	-12.1035
▁metropolitan	-12.1035
▁obligation	-12.1035
▁palestine	-12.1035
▁prevail	-12.1035
▁rediscover	-12.1035
▁resurrect	-12.1035
▁soccer	-12.1035
▁testimon	-12.1035
galactic	-12.1035
hazard	-12.1035
▁dispute	-12.1035
▁nairobi	-12.1035
▁syringe	-12.1035
▁taboo	-12.1035
▁triumph	-12.1035
▁altruis	-12.1035
▁bulk	-12.1035
▁mutilat	-12.1035
▁repetiti	-12.1035
▁resort	-12.1035
▁butterfl	-12.1035
▁austria	-12.1035
▁freud	-12.1035
▁philanthropi	-12.1035
▁prophet	-12.1035
▁immerse	-12.1035
▁auditorium	-12.1035
▁scholarship	-12.1035
▁rigid	-12.1035
▁thirty	-12.1035
▁reconcil	-12.1036
▁suspicious	-12.1036
▁ideo	-12.1036
▁potent	-12.1037
▁graham	-12.1037
▁suburban	-12.1037
▁iceberg	-12.1037
▁flush	-12.1037
▁brake	-12.1037
▁bono	-12.1038
▁posture	-12.1038
▁jackson	-12.1038
▁astronomical	-12.1039
▁calci	-12.1041
▁reassur	-12.1042
▁attachment	-12.1044
▁gigant	-12.1046
▁communal	-12.1047
▁galleries	-12.1049
▁robin	-12.105
▁proton	-12.105
closure	-12.1052
traumatic	-12.1053
▁spaceship	-12.1053
▁wallet	-12.1057
▁overlook	-12.1057
▁pri	-12.1067
▁knot	-12.1069
▁worldview	-12.107
▁regenerati	-12.1074
▁intel	-12.1081
▁companion	-12.1094
▁democratiz	-12.1106
sperm	-12.1112
▁jess	-12.1125
actor	-12.1129
▁pip	-12.114
breaking	-12.1158
▁phila	-12.116
▁poo	-12.1162
▁acquir	-12.1193
▁receiver	-12.1196
secure	-12.1256
conflict	-12.1259
▁damag	-12.1259
cultural	-12.1259
walk	-12.126
piece	-12.126
▁cole	-12.1263
linear	-12.1279
▁justify	-12.1283
hran	-12.1288
kill	-12.1289
lux	-12.1294
▁superhero	-12.1316
▁characterize	-12.1327
▁marsha	-12.1331
▁disabilit	-12.1349
▁constrain	-12.1391
▁accent	-12.1398
zan	-12.1408
ngest	-12.1446
▁circulat	-12.1447
disciplinar	-12.1451
▁ambulance	-12.1451
▁avenue	-12.1451
▁bamboo	-12.1451
▁cochlea	-12.1451
▁constitute	-12.1451
▁defect	-12.1451
▁fluorescen	-12.1451
▁guinea	-12.1451
▁homosexual	-12.1451
▁railroad	-12.1451
▁reservation	-12.1451
▁savanna	-12.1451
▁subsequent	-12.1451
▁sydney	-12.1451
▁template	-12.1451
▁testosterone	-12.1451
▁vector	-12.1451
▁volcani	-12.1451
▁chalk	-12.1451
▁doubling	-12.1451
▁erotic	-12.1451
▁reciproc	-12.1451
▁superior	-12.1451
▁honeybee	-12.1451
▁exceed	-12.1452
▁glory	-12.1452
▁inspect	-12.1452
▁masterpiece	-12.1452
▁scroll	-12.1452
▁supercomputer	-12.1452
fensive	-12.1452
▁hatred	-12.1452
▁thrust	-12.1452
▁verge	-12.1452
▁450	-12.1453
▁quiz	-12.1453
▁temptation	-12.1455
▁indication	-12.1455
▁straw	-12.1457
▁53	-12.1458
▁slate	-12.1459
▁hence	-12.1459
▁beast	-12.146
▁ease	-12.1461
▁khan	-12.1464
▁rna	-12.1464
▁kiri	-12.1468
▁playground	-12.1468
▁mustard	-12.1468
▁abstraction	-12.1468
▁tinie	-12.147
aki	-12.1471
▁roos	-12.1472
▁detro	-12.1474
▁nanotechnolog	-12.1476
▁daylight	-12.1478
▁inmates	-12.1479
▁erase	-12.1481
▁lamb	-12.1482
▁jami	-12.1487
▁pul	-12.1487
▁fisc	-12.1503
▁plato	-12.1507
▁collector	-12.1524
▁paradi	-12.1527
pend	-12.1551
collider	-12.1554
▁epic	-12.1572
acco	-12.1576
▁periodic	-12.1581
▁warp	-12.1583
▁coma	-12.1586
▁sanitar	-12.1588
dental	-12.1598
▁penetrate	-12.1604
classifie	-12.1615
▁geographical	-12.1656
▁pub	-12.1662
atitude	-12.1671
▁radioactiv	-12.1685
▁plac	-12.1685
▁emit	-12.1697
section	-12.1698
▁northwest	-12.1699
▁causal	-12.1704
huse	-12.1704
garte	-12.1708
atomic	-12.1709
evel	-12.1712
fashion	-12.1713
screen	-12.1714
▁reasonabl	-12.1716
wide	-12.1738
heid	-12.1753
▁sensibl	-12.1753
▁indicat	-12.1766
built	-12.1786
▁julia	-12.1796
▁kep	-12.1797
▁nurs	-12.1799
▁legend	-12.1805
▁induc	-12.181
▁refus	-12.182
apping	-12.1854
grader	-12.186
▁sculpt	-12.1882
▁cultivate	-12.1882
razine	-12.1882
▁decorat	-12.1884
▁auditor	-12.1886
▁acquisition	-12.1886
▁agnostic	-12.1886
▁bhutan	-12.1886
▁copernic	-12.1886
▁curtain	-12.1886
▁diminish	-12.1886
▁doctrine	-12.1886
▁dysfunction	-12.1886
▁epiphan	-12.1886
▁hobby	-12.1886
▁immortal	-12.1886
▁lakota	-12.1886
▁mortgage	-12.1886
▁murray	-12.1886
▁obsolet	-12.1886
▁occupie	-12.1886
▁pavilion	-12.1886
▁pivot	-12.1886
▁respirator	-12.1886
▁sovereign	-12.1886
▁supplement	-12.1886
▁tamiflu	-12.1886
▁decentraliz	-12.1886
▁thunder	-12.1886
▁regain	-12.1886
▁stagger	-12.1886
▁praise	-12.1886
▁propulsi	-12.1886
▁epilep	-12.1886
▁queue	-12.1886
▁sermon	-12.1886
▁sterile	-12.1886
▁mutant	-12.1886
▁orientation	-12.1887
▁rival	-12.1887
▁urgent	-12.1887
▁oops	-12.1887
▁distress	-12.1887
▁singular	-12.1887
▁notebook	-12.1887
▁darpa	-12.1888
skirt	-12.1888
▁devise	-12.1888
▁cruise	-12.1888
▁salv	-12.1888
▁admitted	-12.1889
▁shove	-12.1889
▁timber	-12.1889
▁mutate	-12.1889
▁romance	-12.1889
▁offshor	-12.189
▁simulator	-12.189
crony	-12.189
▁drip	-12.1891
▁distraction	-12.1893
▁reconnect	-12.1893
▁fisherm	-12.1894
▁indicator	-12.1894
▁weakness	-12.1895
▁consultant	-12.1895
▁crust	-12.1895
▁assess	-12.1896
▁guru	-12.1899
▁lyric	-12.1905
▁socio	-12.1919
▁cameron	-12.1919
▁skat	-12.1921
▁neurological	-12.1925
▁revolutionar	-12.1927
▁ramp	-12.1927
lateral	-12.1931
cumen	-12.1932
▁dorm	-12.1944
▁unifie	-12.1945
▁patric	-12.195
▁booth	-12.1981
▁bali	-12.1982
▁pakistani	-12.1982
▁gluc	-12.1993
cover	-12.1994
▁maria	-12.2012
▁collaborat	-12.2013
hitler	-12.2019
▁cia	-12.202
dominate	-12.2037
▁patien	-12.2044
rief	-12.2059
▁autist	-12.2073
europa	-12.2118
position	-12.2163
industrial	-12.2189
massive	-12.219
specific	-12.219
spread	-12.2191
complete	-12.2191
text	-12.2192
virus	-12.2194
▁dug	-12.2202
fg	-12.2204
▁commentar	-12.2242
ilia	-12.2264
witt	-12.2268
▁gha	-12.2312
▁chick	-12.2339
▁balcon	-12.2341
▁sympath	-12.2341
ambiguous	-12.2341
replicating	-12.2341
▁apparatus	-12.2341
▁armstrong	-12.2341
▁caregiver	-12.2341
▁ceramic	-12.2341
▁distill	-12.2341
▁excerpt	-12.2341
▁georgia	-12.2341
▁inexpensive	-12.2341
▁irrelevan	-12.2341
▁laureate	-12.2341
▁lithium	-12.2341
▁locomot	-12.2341
▁pervasive	-12.2341
▁pragmatic	-12.2341
▁recurr	-12.2341
▁reflex	-12.2341
▁resonance	-12.2341
▁responsive	-12.2341
▁rhetoric	-12.2341
▁satisfie	-12.2341
▁sibling	-12.2341
▁sulfur	-12.2341
▁taiwan	-12.2341
▁tectonic	-12.2341
▁tempest	-12.2341
▁zimbabwe	-12.2341
▁dallas	-12.2341
▁darfur	-12.2341
▁energetic	-12.2341
▁fission	-12.2341
▁incubator	-12.2341
▁lawsuit	-12.2341
▁sediment	-12.2341
▁sentiment	-12.2341
▁thorough	-12.2341
▁benign	-12.2341
▁spawn	-12.2341
▁snail	-12.2341
▁michel	-12.2341
esteem	-12.2341
▁ingenious	-12.2341
▁opposition	-12.2341
▁warehouse	-12.2341
▁hydrocarbon	-12.2341
▁nepal	-12.2341
▁venus	-12.2341
▁grind	-12.2341
▁permit	-12.2341
▁modify	-12.2341
rizon	-12.2341
▁matern	-12.2341
▁embass	-12.2341
▁comedian	-12.2341
phin	-12.2342
▁palace	-12.2342
▁facult	-12.2342
▁regulator	-12.2342
racial	-12.2342
▁pinpoint	-12.2342
▁superstar	-12.2342
pathetic	-12.2342
▁champ	-12.2342
▁worthwhile	-12.2342
▁blanket	-12.2343
▁racis	-12.2344
▁nuance	-12.2346
elope	-12.2346
▁walter	-12.2347
▁58	-12.2347
▁excellence	-12.2348
▁auro	-12.2348
▁packet	-12.2348
▁skype	-12.2348
▁monet	-12.2348
▁therapist	-12.2349
▁apologize	-12.2349
▁chok	-12.2349
eanor	-12.235
▁titanic	-12.2352
▁188	-12.2357
▁infus	-12.2357
▁gaze	-12.2369
▁tapestr	-12.2371
▁contractor	-12.2372
▁shave	-12.2372
colonial	-12.2377
▁geneticist	-12.2383
▁legendar	-12.2429
▁geometric	-12.2438
▁esp	-12.2448
▁employer	-12.2451
odd	-12.2466
▁compact	-12.2467
▁prioritize	-12.2477
▁colli	-12.2485
▁entitle	-12.2485
terior	-12.2486
laughter	-12.2496
▁methodolog	-12.2501
case	-12.2506
▁sim	-12.2554
phal	-12.2555
▁cite	-12.2563
media	-12.2574
audi	-12.2581
▁flex	-12.2687
▁exceptional	-12.2689
health	-12.2691
finish	-12.2693
iform	-12.2713
▁interconnect	-12.272
exist	-12.272
▁visualiz	-12.2784
ionist	-12.2793
anthrop	-12.2809
▁biotech	-12.2811
▁possess	-12.2813
▁prosper	-12.2814
▁emphasi	-12.2816
▁nicole	-12.2817
▁administrator	-12.2817
▁anecdote	-12.2817
▁biomaterial	-12.2817
▁bulgaria	-12.2817
▁charcoal	-12.2817
▁corridor	-12.2817
▁embark	-12.2817
▁hominid	-12.2817
▁imbalance	-12.2817
▁odysse	-12.2817
▁phthalate	-12.2817
▁recipient	-12.2817
▁relevanc	-12.2817
▁retrofit	-12.2817
▁scatter	-12.2817
▁servant	-12.2817
▁skyscraper	-12.2817
▁tadpole	-12.2817
▁turbine	-12.2817
▁unimaginabl	-12.2817
▁unpredictabl	-12.2817
▁biblical	-12.2817
▁brainstorm	-12.2817
▁choreograph	-12.2817
▁encrypt	-12.2817
▁fierce	-12.2817
▁hollow	-12.2817
▁lawrence	-12.2817
▁provoke	-12.2817
clamation	-12.2817
▁adjacen	-12.2817
▁steak	-12.2817
▁cereal	-12.2817
▁discard	-12.2817
▁bookstore	-12.2817
▁cinema	-12.2817
▁sponge	-12.2817
▁motorcycle	-12.2817
▁audaci	-12.2817
▁aquariu	-12.2817
frost	-12.2817
▁oscar	-12.2817
▁dictatorship	-12.2818
▁chuck	-12.2818
▁vague	-12.2818
▁splash	-12.2818
▁achill	-12.2818
▁unsustainabl	-12.2818
▁scottish	-12.2818
▁forehead	-12.2818
▁headphone	-12.2818
▁wiki	-12.2819
▁1,1	-12.2819
▁holoc	-12.2819
▁biograph	-12.2819
▁galil	-12.282
▁vaccinate	-12.282
hhh	-12.282
knit	-12.282
▁dude	-12.2821
rosion	-12.2821
▁possession	-12.2821
▁extremist	-12.2821
▁chill	-12.2822
▁roger	-12.2822
▁clash	-12.2822
▁spade	-12.2823
▁accomplishment	-12.2823
▁clark	-12.2826
▁respectful	-12.2826
change	-12.2826
▁1940	-12.2828
▁physiological	-12.2829
▁saul	-12.2829
▁troll	-12.283
▁wetland	-12.2831
▁islamist	-12.2832
sterda	-12.2834
▁jenni	-12.2836
balone	-12.2842
▁juni	-12.2843
▁riches	-12.2852
▁corti	-12.2855
two	-12.2883
barack	-12.2886
▁globaliz	-12.2888
▁visionar	-12.291
chester	-12.2918
▁woo	-12.2919
▁gentl	-12.2935
▁slap	-12.2956
pong	-12.2957
brow	-12.2969
▁rib	-12.297
lix	-12.2971
▁northeast	-12.2996
▁curv	-12.3038
sighted	-12.3048
kate	-12.3084
▁wool	-12.3098
home	-12.3102
▁curat	-12.3115
argon	-12.3156
quarter	-12.3213
author	-12.3215
bao	-12.3215
birth	-12.3216
carbon	-12.3217
brain	-12.3218
pool	-12.3223
▁petri	-12.3242
educat	-12.3249
edited	-12.3254
wash	-12.3257
▁revolutionize	-12.3263
busi	-12.3283
▁atmospher	-12.3286
▁dissect	-12.33
▁biomimic	-12.3317
▁bureaucrac	-12.3317
▁algebra	-12.3317
▁analytical	-12.3317
▁antidepressant	-12.3317
▁arrogan	-12.3317
▁buffet	-12.3317
▁carcinogen	-12.3317
▁certificate	-12.3317
▁christoph	-12.3317
▁compliment	-12.3317
▁congratulat	-12.3317
▁conspirac	-12.3317
▁crochet	-12.3317
▁disseminat	-12.3317
▁estrogen	-12.3317
▁inclusive	-12.3317
▁interference	-12.3317
▁intimidat	-12.3317
▁katrina	-12.3317
▁multiverse	-12.3317
▁opponent	-12.3317
▁oregon	-12.3317
▁pentagon	-12.3317
▁pepsi	-12.3317
▁premature	-12.3317
▁prevalent	-12.3317
▁rainbow	-12.3317
▁recreation	-12.3317
▁repertoire	-12.3317
▁rigorous	-12.3317
▁sapien	-12.3317
▁superconductor	-12.3317
▁suspens	-12.3317
▁treadmill	-12.3317
▁turbulen	-12.3317
▁orleans	-12.3317
▁windmill	-12.3317
▁announcement	-12.3317
▁pneumo	-12.3317
▁wrestl	-12.3317
▁tweak	-12.3317
▁blunt	-12.3317
▁ecsta	-12.3317
▁condens	-12.3317
▁enlist	-12.3317
▁nudge	-12.3317
▁latitude	-12.3317
▁monopol	-12.3317
▁quantitative	-12.3317
▁counterpart	-12.3318
▁imaginative	-12.3318
▁scripture	-12.3318
▁vibran	-12.3318
▁holistic	-12.3318
▁fond	-12.3318
▁beaver	-12.3318
▁renew	-12.3318
▁mantis	-12.3319
▁trustworth	-12.3319
▁stripped	-12.3319
▁rooftop	-12.3319
▁maldiv	-12.3319
▁landfill	-12.3319
▁lesion	-12.3319
▁cynic	-12.332
▁aisle	-12.332
▁draft	-12.332
▁distinctive	-12.332
▁siege	-12.332
▁marble	-12.332
▁uncover	-12.332
junction	-12.3321
▁botan	-12.3321
malia	-12.3321
▁fatty	-12.3321
▁shortcut	-12.3322
▁seque	-12.3323
▁inflation	-12.3323
▁pedal	-12.3323
▁bake	-12.3323
▁tolerate	-12.3323
▁bombard	-12.3323
▁promotion	-12.3324
▁parade	-12.3324
▁deployment	-12.3324
▁geological	-12.3325
▁boson	-12.3326
▁quantify	-12.3327
▁simplistic	-12.3328
▁hover	-12.3328
▁knight	-12.3329
▁nutritional	-12.3329
▁reviv	-12.3331
▁advancement	-12.3332
▁lanka	-12.3333
▁insult	-12.3335
▁tuck	-12.3336
▁1800	-12.3336
▁russe	-12.3337
▁compris	-12.3339
▁minimize	-12.3348
venge	-12.3359
▁poop	-12.3374
utilize	-12.339
▁populat	-12.3393
▁amuse	-12.3411
hog	-12.3423
▁geolog	-12.3431
▁heartbreak	-12.3432
unny	-12.3466
▁estimat	-12.348
▁gaz	-12.3516
▁humbl	-12.3563
hex	-12.3573
skies	-12.3629
▁simulat	-12.3634
▁styl	-12.3725
pollinat	-12.3747
▁astonish	-12.3749
sensitive	-12.3769
appropriate	-12.377
design	-12.3771
organic	-12.3771
government	-12.3773
grain	-12.3774
▁frequent	-12.3774
bank	-12.3775
resistan	-12.3776
talk	-12.378
▁medal	-12.3797
▁southwest	-12.3798
bertie	-12.3838
▁synthesi	-12.3842
▁perpetrat	-12.3843
▁aerodynamic	-12.3843
▁astrolabe	-12.3843
▁bleach	-12.3843
▁coalition	-12.3843
▁dreadful	-12.3843
▁exhilarat	-12.3843
▁extrovert	-12.3843
▁fountain	-12.3843
▁glenn	-12.3843
▁hyperbolic	-12.3843
▁intestine	-12.3843
▁mermaid	-12.3843
▁pianist	-12.3843
▁pixel	-12.3843
▁plague	-12.3843
▁plaque	-12.3843
▁rectangle	-12.3843
▁reluctant	-12.3843
▁replicator	-12.3843
▁seatbelt	-12.3843
▁serotonin	-12.3843
▁shoreline	-12.3843
▁snapshot	-12.3843
▁tribute	-12.3843
▁turkish	-12.3843
▁unacceptabl	-12.3843
▁vapor	-12.3843
▁genital	-12.3843
▁cobra	-12.3843
▁modular	-12.3843
▁dominance	-12.3843
▁cowboy	-12.3843
▁enslav	-12.3843
▁puppy	-12.3843
▁eames	-12.3843
▁shuttle	-12.3843
▁galo	-12.3843
▁libya	-12.3843
▁underpin	-12.3843
▁boreal	-12.3844
▁mainframe	-12.3844
▁tidy	-12.3844
scient	-12.3844
▁capaciti	-12.3844
onze	-12.3844
▁imperial	-12.3844
▁subtract	-12.3844
▁karen	-12.3845
▁senator	-12.3845
▁mound	-12.3846
▁gehr	-12.3846
▁gaga	-12.3846
▁danny	-12.3846
▁stall	-12.3848
▁techno	-12.3848
▁sculptor	-12.3849
▁firefl	-12.3849
rgio	-12.3849
▁skydiv	-12.385
▁degradation	-12.385
▁kamen	-12.3851
▁cement	-12.3851
▁restriction	-12.3851
▁hallway	-12.3851
▁conviction	-12.3851
▁romo	-12.3852
▁lava	-12.3853
▁ninety	-12.3854
▁peek	-12.3854
▁innate	-12.3854
▁84	-12.3855
▁mimick	-12.3855
▁deadline	-12.3855
acci	-12.3856
▁accelerator	-12.3862
transcendence	-12.3865
▁tailor	-12.3866
▁slot	-12.3868
▁originate	-12.3878
rumb	-12.3886
▁luna	-12.3892
▁redefin	-12.3919
▁maximize	-12.3932
▁oceanograph	-12.3933
▁participator	-12.3941
▁prolif	-12.3985
runner	-12.3999
▁leverag	-12.4034
nfl	-12.4044
▁pharmac	-12.4065
▁valu	-12.4075
▁aero	-12.4088
chai	-12.4107
▁swee	-12.4122
hrir	-12.4168
▁purchas	-12.4218
▁mello	-12.4228
spirational	-12.4236
ndon	-12.4312
▁industrialize	-12.432
▁southeast	-12.4345
square	-12.436
condition	-12.4361
economic	-12.4361
women	-12.4361
daughter	-12.4362
week	-12.4364
national	-12.4365
turn	-12.4366
ubun	-12.4385
▁reconcili	-12.4397
▁hiroshi	-12.4399
nugget	-12.4399
▁accommodate	-12.4399
▁antidote	-12.4399
▁apprentice	-12.4399
▁catalyst	-12.4399
▁chariot	-12.4399
▁cumulative	-12.4399
▁diffuse	-12.4399
▁exclude	-12.4399
▁fifteen	-12.4399
▁hijack	-12.4399
▁hummingbird	-12.4399
▁implicit	-12.4399
▁improbabl	-12.4399
▁jealous	-12.4399
▁malignan	-12.4399
▁millisecond	-12.4399
▁miraculous	-12.4399
▁module	-12.4399
▁oblivio	-12.4399
▁orangutan	-12.4399
▁provocati	-12.4399
▁reptile	-12.4399
▁retrospect	-12.4399
▁seizure	-12.4399
▁sprawl	-12.4399
▁squirrel	-12.4399
▁sulfide	-12.4399
▁surrender	-12.4399
▁unequal	-12.4399
▁unnecessar	-12.4399
▁withdraw	-12.4399
▁affirm	-12.4399
▁apocalyp	-12.4399
▁deconstruct	-12.4399
▁fungus	-12.4399
▁gamma	-12.4399
▁hectare	-12.4399
▁jamaica	-12.4399
▁microwave	-12.4399
▁rouge	-12.4399
▁rupee	-12.4399
▁sociologist	-12.4399
▁dilut	-12.4399
▁reckless	-12.4399
▁stefan	-12.4399
▁trawl	-12.4399
▁uplift	-12.4399
▁dazzl	-12.4399
▁delegat	-12.4399
▁hyena	-12.4399
▁audition	-12.4399
▁savage	-12.4399
▁spoil	-12.4399
▁perfume	-12.4399
▁ivory	-12.4399
▁throat	-12.4399
▁mahmo	-12.4399
▁brute	-12.4399
▁quark	-12.4399
▁napkin	-12.4399
▁burial	-12.4399
▁illiterate	-12.4399
▁bleeding	-12.4399
▁obey	-12.44
consistenc	-12.44
▁kidnappe	-12.44
▁bruise	-12.44
▁composite	-12.44
▁monarch	-12.44
▁substitute	-12.44
▁nanoscale	-12.44
▁finite	-12.44
▁aspire	-12.44
▁fingerprint	-12.44
▁spore	-12.4401
▁saddle	-12.4401
▁telecom	-12.4401
▁hunch	-12.4401
▁excessive	-12.4401
▁persistent	-12.4402
▁patron	-12.4402
▁microblog	-12.4402
▁passport	-12.4402
▁ecologist	-12.4403
▁forgiveness	-12.4403
▁decoration	-12.4404
▁kitten	-12.4405
▁disagreement	-12.4405
▁imitation	-12.4407
▁iteration	-12.4407
▁marx	-12.4413
▁seren	-12.4414
▁anomal	-12.4416
▁cair	-12.4417
▁contributor	-12.4427
▁qui	-12.4434
▁claus	-12.4435
ivan	-12.4449
▁paradoxical	-12.4452
bach	-12.4498
awkins	-12.4518
lude	-12.4537
▁fibro	-12.4596
▁behav	-12.4614
▁antiqu	-12.4667
structure	-12.4698
taller	-12.4734
▁nih	-12.474
cycle	-12.4779
▁complet	-12.4816
▁increment	-12.4832
spiring	-12.4867
phone	-12.4868
▁collide	-12.4873
▁dementi	-12.4876
nyu	-12.4906
▁uncertain	-12.4927
▁elegan	-12.4927
connected	-12.4936
▁optimist	-12.4954
aylo	-12.497
▁cogniti	-12.4971
▁surge	-12.4973
proving	-12.4976
huma	-12.4976
▁rug	-12.4978
resolution	-12.4981
belief	-12.4985
species	-12.4986
machine	-12.4986
color	-12.4986
great	-12.4987
green	-12.4987
▁intellect	-12.4987
▁misunderst	-12.4987
▁adversar	-12.4987
orthodox	-12.4987
▁bumblebee	-12.4987
▁concussion	-12.4987
▁daunting	-12.4987
▁diffusion	-12.4987
▁discount	-12.4987
▁dizzy	-12.4987
▁elusive	-12.4987
▁gateway	-12.4987
▁hilarious	-12.4987
▁hypothetical	-12.4987
▁inferior	-12.4987
▁leisure	-12.4987
▁perceptual	-12.4987
▁petition	-12.4987
▁plummet	-12.4987
▁primordial	-12.4987
▁proteomics	-12.4987
▁provision	-12.4987
▁redundan	-12.4987
▁refresh	-12.4987
▁ridicule	-12.4987
▁taxpayer	-12.4987
▁uranium	-12.4987
▁vegetarian	-12.4987
▁venue	-12.4987
▁wizard	-12.4987
▁zambia	-12.4987
▁bonnie	-12.4987
▁maggot	-12.4987
▁mitchell	-12.4987
▁nanotube	-12.4987
▁preoccup	-12.4987
perpetuat	-12.4987
▁embryonic	-12.4987
▁invasion	-12.4987
▁fingertip	-12.4987
▁gorilla	-12.4987
▁captcha	-12.4987
▁dimitr	-12.4987
▁postcard	-12.4987
▁hippie	-12.4987
▁lymph	-12.4987
▁wobbl	-12.4987
▁vegetati	-12.4987
▁stagna	-12.4987
learn	-12.4987
▁scandal	-12.4987
▁railway	-12.4987
▁savor	-12.4987
▁impatient	-12.4987
▁plural	-12.4987
▁subconscious	-12.4987
▁battlefield	-12.4987
▁anchor	-12.4988
patient	-12.4988
archaeolog	-12.4988
▁radiologist	-12.4988
▁pollinator	-12.4988
▁attain	-12.4988
▁championship	-12.4988
▁stockhol	-12.4988
▁eyebrow	-12.4988
▁costume	-12.4988
▁deceptive	-12.4988
▁collage	-12.4988
▁crises	-12.4988
▁bionic	-12.4989
▁sciss	-12.4989
▁pension	-12.4989
▁twentie	-12.4989
▁cern	-12.4989
▁graceful	-12.4989
▁portray	-12.4989
▁stiff	-12.4989
▁humid	-12.4989
▁saturat	-12.499
▁frack	-12.499
▁deceive	-12.499
▁facade	-12.499
▁guideline	-12.499
▁droplet	-12.4991
▁reframe	-12.4991
▁sentien	-12.4992
▁cultivat	-12.4993
▁precipitat	-12.4996
▁exile	-12.4998
defy	-12.4999
▁flare	-12.4999
▁vienn	-12.4999
▁whiske	-12.5002
▁shah	-12.5004
▁novelist	-12.501
▁levitat	-12.5014
▁shiv	-12.5016
▁assert	-12.5017
▁simplify	-12.5026
parate	-12.5027
▁bounc	-12.5042
▁remedi	-12.5055
▁retir	-12.5083
respective	-12.5096
▁puzzl	-12.5196
▁clarif	-12.528
gatherer	-12.5306
▁mott	-12.532
▁pav	-12.5324
▁interdependenc	-12.5329
flection	-12.5369
▁resembl	-12.5386
rude	-12.5465
credible	-12.5493
etti	-12.5502
▁destin	-12.5507
▁acknowledg	-12.5509
▁brillian	-12.5552
▁clap	-12.5573
ennial	-12.5587
purpos	-12.5596
▁fluctu	-12.5609
clusion	-12.5611
▁flour	-12.5611
▁outrage	-12.5612
▁lexico	-12.5612
▁susceptib	-12.5612
conceivabl	-12.5612
jazeera	-12.5612
▁applaud	-12.5612
▁archimedes	-12.5612
▁cheetah	-12.5612
▁cradle	-12.5612
▁discriminati	-12.5612
▁eleven	-12.5612
▁giraffe	-12.5612
▁humpback	-12.5612
▁identification	-12.5612
▁immoral	-12.5612
▁imperfect	-12.5612
▁knob	-12.5612
▁lesbian	-12.5612
▁marshmallow	-12.5612
▁maslow	-12.5612
▁matthew	-12.5612
▁monologue	-12.5612
▁persuasive	-12.5612
▁photosynthesi	-12.5612
▁picasso	-12.5612
▁practitioner	-12.5612
▁prejudice	-12.5612
▁proliferation	-12.5612
▁prosecut	-12.5612
▁ribbon	-12.5612
▁spectroscop	-12.5612
▁troubling	-12.5612
▁twelve	-12.5612
▁astounding	-12.5612
▁biodegrad	-12.5612
▁decisive	-12.5612
▁eagle	-12.5612
▁empirical	-12.5612
▁stockpile	-12.5612
▁amplify	-12.5612
▁merchant	-12.5612
▁multitask	-12.5612
▁retriev	-12.5612
▁shareholder	-12.5612
▁unexplo	-12.5612
▁advertisement	-12.5612
▁charisma	-12.5612
▁modification	-12.5612
▁teapot	-12.5612
▁1.4	-12.5612
▁empti	-12.5612
▁staple	-12.5612
▁prosthes	-12.5612
▁antiretroviral	-12.5612
▁gossip	-12.5612
▁byproduct	-12.5612
▁sleeve	-12.5612
▁sniff	-12.5612
▁stink	-12.5612
▁enroll	-12.5612
▁sensual	-12.5612
▁atheism	-12.5612
▁plow	-12.5613
▁sequester	-12.5613
▁gridlock	-12.5613
▁nominate	-12.5613
▁subscribe	-12.5613
spora	-12.5613
▁outrageous	-12.5613
▁paragraph	-12.5613
▁reply	-12.5614
fetch	-12.5614
▁suburbia	-12.5614
▁ahmed	-12.5614
withstand	-12.5614
▁feasib	-12.5614
▁outfit	-12.5614
▁rebellio	-12.5615
▁persian	-12.5615
▁dividend	-12.5615
▁automo	-12.5615
▁nash	-12.5615
litary	-12.5615
borough	-12.5616
▁bride	-12.5617
▁forager	-12.5617
▁hanna	-12.5617
ahedron	-12.5618
▁tumbl	-12.5619
▁purse	-12.5619
guay	-12.5624
trand	-12.5625
scow	-12.5625
large	-12.5626
▁variant	-12.5629
▁pisa	-12.563
▁barbie	-12.5633
addam	-12.5645
brush	-12.5647
fifth	-12.5649
worm	-12.5649
doubt	-12.565
limited	-12.5651
conduct	-12.5651
correct	-12.5651
▁ellen	-12.5651
protect	-12.5652
white	-12.5652
▁accr	-12.5668
▁considerabl	-12.5677
▁accentu	-12.5694
▁attribut	-12.5704
▁inhale	-12.5721
▁interpla	-12.5752
▁conserve	-12.5852
peck	-12.5875
▁curse	-12.5904
bureaucratic	-12.5928
ollock	-12.5936
▁insula	-12.5943
rugg	-12.5971
▁erod	-12.6004
▁calv	-12.61
▁secondar	-12.6103
heim	-12.6108
▁utiliz	-12.6182
▁accord	-12.6184
▁decompos	-12.6218
▁activis	-12.6219
lumber	-12.6224
mort	-12.6233
▁franc	-12.6243
▁desperat	-12.6258
▁dictat	-12.6272
▁refrigerat	-12.6273
▁contradict	-12.6275
▁reproducti	-12.6275
▁apolog	-12.6278
▁miniaturiz	-12.6279
▁vertebra	-12.6279
fahren	-12.6279
▁appetite	-12.6279
▁athletic	-12.6279
▁buffalo	-12.6279
▁carpenter	-12.6279
▁chernobyl	-12.6279
▁cucumber	-12.6279
▁cyborg	-12.6279
▁elevation	-12.6279
▁embodiment	-12.6279
▁excavat	-12.6279
▁excruciating	-12.6279
▁expenditure	-12.6279
▁fracture	-12.6279
▁fragrance	-12.6279
▁ghetto	-12.6279
▁imprison	-12.6279
▁incarcerat	-12.6279
▁inhabitant	-12.6279
▁megawatt	-12.6279
▁mockingbird	-12.6279
▁moisture	-12.6279
▁necessit	-12.6279
▁negro	-12.6279
▁nevada	-12.6279
▁nikola	-12.6279
▁precaution	-12.6279
▁prestig	-12.6279
▁prohibit	-12.6279
▁rhode	-12.6279
▁rudder	-12.6279
▁schwarz	-12.6279
▁smuggl	-12.6279
▁squatter	-12.6279
▁stakeholder	-12.6279
▁tornado	-12.6279
▁umbrella	-12.6279
▁unravel	-12.6279
▁vicious	-12.6279
▁yogurt	-12.6279
▁colombia	-12.6279
▁empathize	-12.6279
▁nickname	-12.6279
▁prehistor	-12.6279
▁sargass	-12.6279
elecommunication	-12.6279
▁affluen	-12.6279
▁churn	-12.6279
▁detach	-12.6279
▁handbag	-12.6279
▁niece	-12.6279
▁resign	-12.6279
tyrann	-12.6279
▁spoof	-12.6279
▁swirl	-12.6279
▁crease	-12.6279
▁parrot	-12.6279
▁pluto	-12.6279
▁whack	-12.6279
▁effic	-12.6279
▁framing	-12.6279
▁grappl	-12.6279
▁seamless	-12.6279
▁pornograph	-12.6279
▁instructor	-12.6279
▁propagat	-12.6279
▁sushi	-12.6279
▁eeg	-12.6279
▁paintbrush	-12.6279
▁slamm	-12.6279
▁autops	-12.6279
▁pediatrician	-12.6279
▁sutherland	-12.6279
▁derivative	-12.6279
▁dumm	-12.6279
▁paleontologist	-12.6279
▁anthon	-12.628
▁sudh	-12.628
▁revolv	-12.628
▁crumbl	-12.628
▁pacemaker	-12.628
▁android	-12.628
wield	-12.628
▁sunset	-12.628
▁gait	-12.6281
▁dragline	-12.6281
▁admission	-12.6281
▁shaw	-12.6281
▁boeing	-12.6281
▁irish	-12.6282
▁verify	-12.6282
www	-12.6283
▁expir	-12.6286
▁geologist	-12.629
▁numerical	-12.6297
▁shim	-12.6302
▁cellulos	-12.6303
setting	-12.633
▁molt	-12.6348
lasting	-12.635
bilitat	-12.6357
husse	-12.6361
function	-12.6366
group	-12.6367
people	-12.6367
evolv	-12.6368
literate	-12.637
clean	-12.6379
▁hostilit	-12.638
▁handwrit	-12.6395
▁marina	-12.6429
▁subsidize	-12.6432
▁aggregat	-12.6522
▁deflect	-12.6543
sippi	-12.6552
▁pollinate	-12.6631
▁liabilit	-12.6695
communica	-12.6698
▁energ	-12.6808
western	-12.6834
▁squeez	-12.6897
▁mathematica	-12.6985
elimina	-12.6986
▁compass	-12.6989
quire	-12.6991
incidence	-12.6991
▁anonym	-12.6992
mmunity	-12.6992
instruct	-12.6992
▁contempt	-12.6993
▁neutrino	-12.6993
▁repositor	-12.6993
▁administrative	-12.6993
▁amputation	-12.6993
▁arthriti	-12.6993
▁assault	-12.6993
▁bureau	-12.6993
▁cafeteria	-12.6993
▁condemn	-12.6993
▁declaration	-12.6993
▁denominator	-12.6993
▁detergent	-12.6993
▁ecuador	-12.6993
▁elastic	-12.6993
▁gabriel	-12.6993
▁gradient	-12.6993
▁grammar	-12.6993
▁kurzweil	-12.6993
▁logarithm	-12.6993
▁lucifer	-12.6993
▁pinnacle	-12.6993
▁relentless	-12.6993
▁sabbatical	-12.6993
▁scribbl	-12.6993
▁sophistication	-12.6993
▁supernova	-12.6993
▁therapeutic	-12.6993
▁typewriter	-12.6993
▁whirlwind	-12.6993
▁asylum	-12.6993
▁autobiograph	-12.6993
▁calibrate	-12.6993
▁disintegrat	-12.6993
▁mismatch	-12.6993
▁qualify	-12.6993
▁redistribut	-12.6993
▁sausage	-12.6993
▁skateboard	-12.6993
▁frown	-12.6993
▁plume	-12.6993
▁modalit	-12.6993
▁evolutionarily	-12.6993
▁cramm	-12.6993
▁glance	-12.6993
▁scoop	-12.6993
▁disparit	-12.6993
▁trance	-12.6993
▁atrocit	-12.6993
▁lexicograph	-12.6993
▁ascend	-12.6993
▁cherish	-12.6993
▁irritat	-12.6993
▁debut	-12.6993
▁evoke	-12.6993
▁await	-12.6993
▁influenza	-12.6993
▁multimedia	-12.6993
▁absent	-12.6994
▁cursor	-12.6994
▁relay	-12.6994
▁balkan	-12.6994
▁maze	-12.6994
▁telegraph	-12.6994
▁subset	-12.6994
solicit	-12.6994
▁ruling	-12.6994
▁igbo	-12.6994
▁inertia	-12.6995
▁griev	-12.6995
▁theorist	-12.6996
trenche	-12.6996
kahn	-12.6998
▁asphalt	-12.6998
▁anthropolog	-12.7001
▁hike	-12.7004
umann	-12.7014
▁patrol	-12.703
▁mortal	-12.7047
credit	-12.7077
mbra	-12.7078
building	-12.7084
▁hyperactiv	-12.7095
inuit	-12.71
▁reshap	-12.7107
▁glori	-12.7109
▁inclin	-12.7132
claim	-12.7132
confidence	-12.7133
programm	-12.7134
infect	-12.7134
expression	-12.7135
spoke	-12.7135
distance	-12.7135
typical	-12.7135
familiar	-12.7135
famous	-12.7136
thousand	-12.7136
woman	-12.7137
different	-12.7137
living	-12.7149
▁ensu	-12.7159
guate	-12.7165
▁husk	-12.7174
▁senat	-12.7199
boggl	-12.7202
robic	-12.7219
▁interven	-12.7237
confrontation	-12.7243
▁histori	-12.7322
muniz	-12.7333
▁penetrat	-12.7482
stabiliz	-12.75
▁hocke	-12.75
environmentalist	-12.7542
▁standardize	-12.7627
▁hardwir	-12.7636
▁stunn	-12.7667
exercis	-12.7694
▁spher	-12.7695
▁unchang	-12.771
induce	-12.7727
▁disast	-12.7739
▁precipi	-12.775
tanbu	-12.7754
▁browse	-12.7754
▁recess	-12.7758
sufficien	-12.7759
▁invisib	-12.776
▁combusti	-12.7762
▁municipal	-12.7762
cursion	-12.7762
extraterrestrial	-12.7762
neurotransmitter	-12.7762
percussion	-12.7762
▁burrow	-12.7762
▁caution	-12.7762
▁charlotte	-12.7762
▁chimney	-12.7762
▁confession	-12.7762
▁dashboard	-12.7762
▁diabetic	-12.7762
▁discriminate	-12.7762
▁duplicate	-12.7762
▁encompass	-12.7762
▁enrique	-12.7762
▁gapminder	-12.7762
▁immigrat	-12.7762
▁irregular	-12.7762
▁litigation	-12.7762
▁messenger	-12.7762
▁microorganism	-12.7762
▁microprocessor	-12.7762
▁migrant	-12.7762
▁neurologist	-12.7762
▁ottoman	-12.7762
▁outweigh	-12.7762
▁paycheck	-12.7762
▁peacekeep	-12.7762
▁pluripoten	-12.7762
▁privatiz	-12.7762
▁quadruple	-12.7762
▁recharge	-12.7762
▁reconfigur	-12.7762
▁sanctuar	-12.7762
▁soprano	-12.7762
▁sorrow	-12.7762
▁spreadsheet	-12.7762
▁squash	-12.7762
▁squirt	-12.7762
▁surpass	-12.7762
▁unicorn	-12.7762
▁valentine	-12.7762
▁volvo	-12.7762
▁airbag	-12.7762
▁burglar	-12.7762
▁discourag	-12.7762
▁janitor	-12.7762
▁remorse	-12.7762
▁spectator	-12.7762
▁ukrain	-12.7762
▁alligator	-12.7762
▁bargain	-12.7762
▁carriage	-12.7762
▁filth	-12.7762
▁renovat	-12.7762
▁retaliat	-12.7762
▁scrambl	-12.7762
▁lettuce	-12.7762
▁prophec	-12.7762
▁recline	-12.7762
▁repulsi	-12.7762
▁desalinati	-12.7762
utopian	-12.7762
▁critter	-12.7762
▁proxim	-12.7762
▁corps	-12.7762
mpulsive	-12.7762
▁forensic	-12.7762
▁webcam	-12.7762
▁vaccination	-12.7762
▁rearrange	-12.7762
▁goddess	-12.7762
▁contingen	-12.7762
▁reign	-12.7762
▁alleviat	-12.7762
▁miniature	-12.7762
▁salut	-12.7763
▁biomedic	-12.7763
▁martian	-12.7763
▁harass	-12.7763
▁ignit	-12.7763
▁worn	-12.7763
▁speculation	-12.7763
▁smack	-12.7763
▁deteriorat	-12.7763
▁snack	-12.7763
▁orchid	-12.7763
▁jabb	-12.7763
grazing	-12.7764
▁ovari	-12.7765
millionaire	-12.7765
▁teme	-12.7765
▁repel	-12.7769
▁refra	-12.7769
▁ezra	-12.7773
egian	-12.7774
▁graze	-12.7777
▁archeolog	-12.7792
▁classify	-12.7829
violent	-12.7837
▁energiz	-12.7854
loop	-12.7908
&	-14.8178
?	-14.8178
