@@UNKNOWN@@
@start@
@end@
[pseudo1]
[pseudo2]
[pseudo3]
[pseudo4]
[pseudo5]
[pseudo6]
[pseudo7]
[pseudo8]
[pseudo9]
▁
s
,
▁.
▁the
;
▁&
▁and
▁to
apos
▁a
▁of
▁that
▁i
▁in
▁it
▁you
y
▁we
ed
ing
▁is
▁thi
ly
t
▁so
▁be
quot
▁on
▁was
▁for
▁--
▁what
▁have
▁are
d
▁but
▁with
▁can
re
-
▁?
n
▁about
▁there
▁at
▁all
▁do
▁one
▁not
▁an
▁my
▁people
▁like
▁he
▁if
▁from
m
▁now
▁as
▁these
▁just
e
cause
▁or
▁our
:
▁when
▁out
very
▁how
▁think
▁us
▁me
▁know
▁by
▁up
▁some
▁going
ve
▁them
▁which
▁see
▁get
▁had
▁who
▁more
▁here
▁look
▁would
▁your
▁their
▁want
▁were
▁world
▁time
▁then
▁actual
▁has
▁no
▁other
▁don
▁into
▁go
▁way
▁could
▁where
▁will
▁did
▁things
▁years
▁well
▁make
▁every
er
▁say
▁right
▁she
▁said
▁real
es
▁th
been
▁start
▁something
▁two
▁work
ose
▁need
▁first
▁new
ll
▁kind
▁got
▁his
▁over
▁than
▁talk
▁call
▁thing
▁little
lso
▁back
▁most
▁much
r
▁take
▁life
▁reall
.
▁lot
▁any
▁even
▁good
ies
a
▁many
▁does
around
▁through
▁down
▁different
▁why
▁use
▁her
l
in
day
▁come
▁let
▁change
▁show
▁mean
al
▁great
▁put
▁three
▁try
▁same
o
▁being
▁tell
▁give
▁part
▁doing
▁human
▁day
one
h
▁percent
▁made
able
▁after
other
▁year
▁fact
▁big
▁find
▁own
▁happen
body
▁question
▁idea
▁last
▁should
▁thought
c
▁ask
▁him
▁before
▁end
▁important
ion
went
▁off
▁system
▁never
▁long
▁point
▁problem
▁course
▁design
▁live
▁story
▁again
▁brain
▁better
▁help
ally
▁play
▁sort
▁thank
▁bit
▁million
▁place
▁might
ic
▁next
▁example
▁each
▁ago
▁love
▁still
▁few
▁create
w
▁technology
▁together
▁water
▁came
i
▁learn
▁between
k
▁found
en
on
▁school
▁able
▁second
▁too
▁become
▁maybe
▁four
▁light
▁understand
▁believe
▁whole
th
▁done
▁children
ok
▁data
▁may
▁guy
▁un
▁power
▁car
▁al
▁building
▁cell
▁feel
▁10
▁person
▁five
▁b
▁project
0
ity
▁money
▁women
▁home
▁man
▁always
▁everything
▁space
▁working
le
▁number
▁basic
▁reason
▁picture
p
▁kids
▁country
▁small
ers
b
▁food
is
away
▁health
▁ever
▁high
▁old
▁sense
▁information
est
▁20
▁open
ation
▁bring
▁future
▁energy
▁form
▁under
▁experience
ever
▁move
▁left
▁best
▁case
▁interesting
quite
▁enough
▁probabl
▁turn
▁develop
▁social
▁hard
▁mak
▁moment
ld
▁group
ce
▁gett
▁without
▁stuff
▁science
▁earth
▁large
▁hand
us
▁side
▁build
▁africa
▁less
▁grow
▁simple
▁half
or
where
▁game
▁room
▁keep
▁dollars
▁de
▁business
▁name
ar
▁coming
▁image
▁answer
▁else
ther
▁anything
▁imagine
▁bad
▁am
▁face
▁process
▁billion
▁piece
ment
▁comes
▁pretty
▁area
▁seem
g
▁across
ness
▁far
▁unit
▁once
▁line
▁student
▁set
▁such
▁allow
ch
▁mind
▁model
▁planet
▁city
▁living
▁six
▁close
▁yet
▁care
▁walk
▁week
▁saw
▁u
▁particular
amp
▁countries
▁young
▁oka
▁war
▁times
▁computer
▁book
▁government
▁while
▁seen
▁family
▁hav
▁complete
▁body
▁read
▁remember
▁e
▁lives
▁later
▁c
um
▁video
▁inside
▁art
ready
▁global
▁interest
▁watch
▁single
▁per
▁head
▁certain
▁cancer
▁goe
▁sure
▁child
▁machine
▁whe
▁nothing
▁both
▁history
▁level
▁hope
▁language
▁wrong
▁happens
▁almost
▁thousand
▁nature
▁age
▁matter
ten
▁patient
▁beautiful
▁music
▁disease
▁oh
▁problems
▁states
▁god
▁figure
▁share
▁study
▁mov
ry
▁saying
▁american
▁200
▁top
▁cost
▁run
▁ideas
▁self
▁heart
▁possible
▁amazing
▁true
▁market
▁days
▁pe
an
▁exact
▁final
▁control
▁test
stead
▁universe
▁1
▁often
less
▁order
▁co
▁ted
▁research
▁heard
▁makes
▁community
▁house
ta
▁india
▁since
▁force
taking
▁environment
to
▁w
5
▁unti
ra
▁men
▁months
▁state
▁spend
▁myself
▁public
▁yes
▁hundred
▁difference
▁middle
▁follow
▁education
▁built
el
▁stop
▁discover
▁couple
▁50
▁30
▁stories
▁mother
▁natural
▁sometimes
▁ok
▁...
▁past
▁species
▁sound
▁entire
▁issue
▁decided
came
▁term
▁internet
▁individual
man
91
▁creat
▁rather
▁job
▁words
▁pay
▁quick
▁land
▁oil
▁societ
▁tool
z
▁must
▁ways
▁air
▁yea
2
ability
▁ourselves
▁hear
ive
93
▁free
▁g
▁19
▁third
▁leave
▁night
▁buy
▁itself
it
▁themselves
▁though
▁huge
age
▁clear
▁focus
▁word
▁woman
company
ter
gan
▁minutes
▁america
▁won
▁experiment
u
▁dur
▁animals
▁15
▁object
▁along
▁happy
▁center
not
▁100
▁challenge
▁places
▁green
▁listen
▁happening
▁realize
▁structure
▁view
▁ocean
▁explain
▁front
▁act
▁teacher
▁seven
▁rule
▁lead
▁turns
▁hours
▁china
▁color
▁sea
▁friends
rhaps
▁death
▁amount
▁early
▁opportunit
▁population
▁full
▁program
▁short
▁plant
▁wonderful
ne
against
▁paper
▁gave
ance
ur
up
▁outside
▁kne
▁kill
▁bigge
▁culture
9
▁eight
▁black
▁common
▁least
tic
▁local
▁learning
ous
ither
▁audience
▁york
▁wait
▁pick
▁poor
▁deal
▁obvious
ate
▁team
ism
▁economic
▁fish
▁difficult
▁century
old
▁pattern
▁film
f
▁beginning
▁tree
▁drive
▁personal
▁behavior
▁k
▁powerful
▁sun
▁media
co
land
▁em
▁father
▁deep
▁present
▁relationship
▁works
▁support
▁feeling
▁size
▁blue
▁device
▁behind
▁wall
▁die
▁exist
ton
1
▁begin
out
▁scale
▁produce
▁surface
year
il
▁yourself
▁normal
ian
▁rest
▁eyes
cy
▁red
▁phone
▁add
▁absolute
▁perfect
as
▁value
▁easy
▁arm
▁simpl
▁slow
▁friend
4
▁fall
▁save
▁stage
▁risk
▁near
▁doctor
▁shows
▁stand
▁treat
te
▁40
▁con
▁non
▁map
▁longer
▁stay
▁national
▁access
▁eat
▁ground
▁notice
▁spen
▁choice
▁movement
▁resource
▁girl
ma
▁reach
gone
▁systems
▁physical
▁shape
▁complex
▁news
▁fun
▁general
▁dream
▁incredible
▁step
▁safe
▁sudden
▁tried
▁toward
▁political
▁wonder
▁field
ought
▁condition
▁nice
▁white
▁low
▁parents
ri
▁street
▁extreme
3
▁animal
▁cities
▁product
▁generation
▁cut
▁hold
ac
▁rate
▁organization
▁service
▁seeing
▁cool
▁hands
▁compani
▁south
▁feet
▁fight
▁sitt
▁fear
▁dna
ent
▁speak
▁growth
▁send
rote
▁record
▁situation
ized
▁pull
▁12
▁fly
lost
▁travel
▁blood
op
▁connect
aught
▁material
▁expect
▁photograph
▁economy
▁innovation
▁pass
ie
▁result
▁morning
giving
ia
▁technologies
▁write
way
ling
▁fire
▁18
▁mo
ni
▁reality
tention
▁pre
▁born
▁kid
▁key
▁protect
▁literal
▁felt
▁known
▁modern
▁lab
▁knowledge
li
▁village
▁miles
▁hit
et
▁climate
▁forward
▁bottom
▁universit
▁studie
▁theory
▁train
la
▁hospital
▁dark
▁law
▁web
▁impact
▁takes
▁page
▁essential
▁plan
▁similar
▁solve
▁touch
▁cover
▁action
▁network
▁strong
▁books
▁consider
▁3
▁average
▁message
▁measure
ha
▁scientists
given
▁revolution
▁bas
▁fast
ful
▁continue
un
▁movie
▁development
ant
▁sell
▁dead
ro
▁major
8
self
▁runn
▁eye
▁increase
▁guess
▁understanding
▁activit
▁english
▁potential
ine
v
▁smart
▁camera
ary
▁office
▁solution
▁approach
▁table
changing
▁affect
at
▁late
▁p
▁source
▁current
▁chance
▁please
▁nation
▁north
go
,000
ver
▁met
▁avail
ck
▁sign
▁star
▁ice
▁break
▁compassion
▁track
▁recently
▁sit
▁gre
▁type
▁wind
▁effect
▁meet
ul
▁medical
▁main
taken
▁region
▁gas
▁industry
▁humans
do
▁chinese
specially
▁boy
▁scientific
▁fair
▁park
▁truth
▁african
▁soon
turned
▁evolution
incredibly
▁among
▁special
▁somebod
ge
▁voice
▁fundamental
▁easi
alone
▁direct
▁girls
tiny
▁usual
▁wish
▁invent
▁telling
▁2
▁solar
▁digital
▁subject
▁east
ial
▁suggest
▁push
▁online
▁la
▁vision
▁beyond
▁fail
▁baby
▁pro
be
▁concept
▁11
▁rich
▁worth
▁nine
ga
▁25
▁writing
▁provide
▁teach
▁moral
▁carbon
▁happiness
x
how
▁extraordinar
▁month
▁price
▁skin
▁europe
▁numbers
▁cars
▁dis
▁visual
▁count
▁securit
▁mass
▁represent
▁dr
▁putting
▁draw
00
▁hiv
▁benefit
▁period
▁hole
▁success
rought
▁led
mo
▁west
▁lt
▁evidence
▁door
▁mine
▁molecule
▁medicine
▁several
▁speed
vi
deed
▁80
▁gt
▁effective
▁connection
▁f
▁specific
ize
head
▁post
▁further
▁base
▁robot
▁fund
ated
▁trust
ig
son
▁stick
▁college
▁predict
▁john
▁class
ol
▁religion
▁function
▁spread
▁lose
eries
▁journey
and
▁super
bu
▁necessar
▁cap
▁anyway
▁screen
▁google
▁hot
▁list
om
▁code
▁tru
▁conversation
▁j
▁road
▁square
▁treatment
▁event
der
▁store
▁song
▁search
▁recognize
▁materials
▁positive
▁mom
▁box
▁st
▁bank
▁trial
▁throw
▁br
rry
fi
▁transform
▁fuel
▁character
▁excit
more
▁sex
▁tend
▁attack
▁block
▁flow
time
▁international
▁practice
▁bar
na
▁position
ow
▁plastic
▁software
▁successful
▁quality
▁raise
hi
▁mental
ho
▁direction
▁fill
ence
▁institution
▁foot
pe
▁asking
▁clean
▁computers
▁nuclear
ca
▁version
▁onto
▁finish
▁collect
the
▁democracy
▁eventual
▁role
▁di
▁carry
▁favorite
▁offer
▁strange
▁principle
▁creative
▁90
▁adult
▁appear
▁response
ily
▁ka
▁hour
▁describe
▁connected
di
com
▁depend
▁fit
▁zero
▁involv
▁emotion
▁poverty
▁realiz
▁sounds
▁artist
▁aren
▁content
▁except
▁earlie
he
oc
▁require
▁traditional
▁peace
▁japan
▁perspective
▁possibilit
▁shot
▁ma
▁grand
▁join
▁warm
▁memor
▁expert
▁rise
▁serious
by
▁drug
▁return
▁sleep
ja
▁president
▁remain
▁surprise
▁fine
▁meeting
▁shift
▁david
▁galax
▁waste
▁lesson
▁finding
▁equal
▁wear
▁card
older
▁supposed
▁total
▁bill
▁electricity
▁agree
▁account
▁signal
▁pain
ard
▁sub
▁trade
died
▁immediate
▁above
▁higher
▁wild
ish
▁sand
▁genetic
▁task
▁site
▁heat
▁publish
▁goal
▁enjoy
▁impossibl
am
▁minute
▁larger
▁famous
refore
▁secret
▁context
▁central
▁brother
▁includ
▁check
▁writ
▁crazy
like
▁dad
▁meaning
▁li
though
ese
▁deliver
▁schools
▁math
line
▁policy
▁progress
▁remarkabl
che
que
▁interact
▁typical
▁element
▁freedom
▁architecture
▁wife
▁cross
mi
▁accept
▁beauty
▁fantastic
bo
▁bacteria
▁complicate
▁ultimate
▁results
▁14
▁po
▁standard
▁leaders
▁letter
▁visit
me
▁forest
▁original
▁feed
▁none
▁inter
▁famili
▁excited
ir
▁reading
▁museum
▁critical
aid
▁training
▁concern
▁crisis
▁address
▁win
▁sh
ood
os
▁rock
▁board
▁website
▁products
▁o
▁jobs
po
▁town
▁charge
▁worse
▁son
▁report
▁enormous
▁communication
▁mention
▁sent
ber
▁link
▁faster
▁x
▁bunch
de
▁communit
▁launch
▁protein
▁cheap
▁biology
▁purpose
▁alive
▁invest
▁afford
▁choose
▁surprising
▁increasing
▁straight
tro
ci
▁western
▁expensive
▁floor
▁press
▁lo
▁lower
ical
▁range
▁creature
▁argument
▁ran
▁decision
▁conference
▁unique
▁temperature
▁terribl
tion
▁particle
▁unfortunate
▁neurons
▁genes
▁path
▁drugs
▁remind
▁humanity
▁dance
▁environmental
▁daughter
▁income
▁indian
▁genome
▁military
▁sky
▁skills
▁ne
▁roll
▁wave
▁relative
▁cultural
per
▁colleague
▁smaller
kept
▁ha
▁ready
▁familiar
▁cook
pi
▁physics
▁r
▁jo
▁stars
▁surviv
▁explore
▁dangerous
▁passion
em
▁production
▁massive
▁cold
▁police
▁ball
▁effort
▁virtual
▁perform
bi
▁extra
▁survive
▁enter
bodie
▁drop
▁dog
▁blind
pa
wa
▁tv
▁san
▁mars
▁bio
▁river
pl
▁moon
▁wide
▁violence
ot
▁tissue
▁spot
▁prevent
ger
▁forget
▁organism
▁produc
▁meant
▁magic
▁bone
▁slide
▁decade
▁politic
▁drink
▁intelligence
▁private
▁influence
▁paint
bas
▁urban
▁rain
▁emotional
▁slight
ag
▁gene
▁significant
▁scar
▁driving
▁hair
▁teaching
▁respect
▁active
▁reduce
▁finger
▁foundation
▁weight
id
upon
▁trouble
▁constant
▁performance
▁surgery
j
▁ba
▁becom
▁convince
▁photo
ex
▁luck
▁double
▁summer
▁shark
▁aid
▁fe
▁breath
▁television
▁glass
▁camp
▁vi
▁financial
▁instance
▁biological
▁poet
0,000
▁mid
▁decide
▁improve
end
▁solutions
▁virus
▁conflict
▁edge
▁instrument
▁chair
▁fix
▁21
▁legs
▁useful
▁decisions
da
▁walked
lin
▁sat
▁landscape
side
men
▁match
ember
▁vehicle
▁civilization
▁factor
▁shar
▁career
fe
▁disappear
▁respond
▁pressure
▁creativity
▁hell
▁professional
▁corner
ble
▁underst
▁expand
▁race
▁saving
▁values
ron
▁achieve
▁engine
▁flying
▁dynamic
▁various
▁gain
ler
standing
▁german
▁ho
▁circle
▁male
▁robots
▁meter
▁insect
▁chemical
hand
▁layer
▁recent
▁engineering
▁express
ped
▁architect
▁random
▁funny
ut
▁capital
▁mu
▁evolv
▁technique
▁bomb
▁bear
▁jump
▁seat
▁fold
q
▁mark
▁pr
ster
off
▁199
ier
ors
ible
▁tremendous
▁sister
▁profound
▁island
▁brand
▁station
▁forth
▁compar
▁bridge
▁na
ivity
▁shared
▁201
▁babies
▁muscle
work
▁societies
▁possibl
▁king
▁rid
▁desert
▁london
▁coast
▁popular
istic
wise
▁scientist
▁article
▁female
▁consciousness
▁24
▁bo
▁consumer
gi
▁separate
▁ex
▁speaking
▁below
▁infrastructure
▁se
▁inspired
▁farm
▁professor
▁responsibilit
▁flight
▁mountain
▁sequence
▁radio
▁mr
▁destroy
▁target
▁airplane
▁wealth
▁notion
▁birth
▁brains
ating
▁dimension
▁apply
▁boat
▁user
▁emerg
▁demand
fer
▁cat
▁balance
▁basi
▁aware
▁ancient
▁campaign
tally
ious
▁stopp
▁birds
▁chris
▁catch
▁text
▁le
▁argue
▁apart
▁supply
▁afghanistan
▁belief
▁coffee
▁component
ru
spite
▁ro
▁prison
▁accident
▁engineer
▁industrial
▁communicate
▁twice
▁tumor
▁micro
▁ta
▁mit
▁miss
▁involve
▁flu
▁sw
▁13
▁interview
▁washing
▁networks
▁mobile
▁honest
▁frank
▁hopeful
▁prize
▁mission
▁worry
▁etc
ab
▁sector
▁atmosphere
▁contain
ifi
▁types
▁capacity
▁rough
▁hu
ud
ko
▁crowd
ium
▁giant
▁interaction
▁complexit
▁manage
▁anti
▁plane
▁smell
▁option
▁oxygen
▁careful
▁boys
ities
▁500
▁controll
▁continent
▁commercial
▁richard
▁investment
▁window
water
▁cycle
ick
ada
eath
▁breast
▁california
▁iraq
▁plann
tra
gen
▁beat
▁imagination
▁noise
▁detail
▁effects
▁lu
har
ba
▁neighbor
▁horse
▁email
▁damage
▁distance
▁worst
▁failure
▁motor
▁broken
▁9
▁feature
▁yellow
▁crime
▁bread
▁reward
▁wood
▁artists
▁10,000
▁ten
▁mad
▁sustainabl
▁method
▁8
▁document
▁workers
▁sample
▁classroom
▁paid
▁lack
▁aids
▁gold
▁researcher
▁rare
▁ju
▁foreign
▁garden
▁patent
▁vast
▁pa
▁decades
no
▁ship
▁magazine
▁ca
▁operation
▁brilliant
▁citizens
▁eating
▁print
ak
▁compare
▁correct
▁civil
term
▁desire
▁dramatic
▁dying
we
▁apple
▁loss
▁threat
▁hearing
▁ecosystem
▁phenomeno
ley
▁degrees
▁sad
▁painting
▁graph
▁trip
▁thanks
▁define
▁economist
▁neighborhood
▁jam
▁tough
▁prove
dimensional
▁fashion
▁designers
▁laws
au
▁reflect
▁stone
▁negative
▁speech
▁fellow
▁300
▁trick
▁lay
▁sick
▁row
ture
▁identit
▁drawing
uc
▁electric
▁sum
▁minds
▁legal
▁technical
▁radical
▁recover
▁paul
ep
▁tradition
▁unlike
▁definition
cha
▁pop
▁algorithm
▁encourage
▁religious
▁honor
▁monkey
▁outcome
▁198
▁farmers
va
▁joy
▁ph
night
▁enable
izing
▁laugh
▁mouth
▁sentence
▁labor
▁generate
lan
diversity
▁introduce
val
▁hate
ship
▁profit
▁mis
▁afr
of
▁4
ping
▁ge
▁spirit
▁restaurant
▁collective
aking
▁bed
min
car
▁designer
▁copy
▁associat
▁aspect
▁attempt
▁bottle
▁net
▁spin
▁grade
▁arab
▁universal
▁stem
▁include
▁cloud
▁willing
▁engage
▁efficient
▁application
▁competition
▁soldier
▁1,000
▁sa
ah
▁extend
▁app
tor
▁ben
▁rais
▁release
▁operat
▁highly
▁cr
▁sexual
▁coral
▁missing
ization
▁dan
▁expression
▁tie
▁mathematics
▁worri
▁quote
▁el
▁avoid
▁muslim
ip
▁hop
▁husband
▁independent
▁tube
▁gap
▁suffering
▁agricultur
wood
▁metaphor
▁newspaper
▁uncle
▁remote
▁gift
▁scene
▁reveal
▁contact
▁insight
▁band
if
▁dec
▁vote
▁dollar
▁mess
▁fossil
▁french
▁flat
▁reaction
▁bag
▁fully
▁members
▁wisdom
▁church
▁interface
▁chain
▁facebook
▁asia
▁background
▁meat
▁note
▁driver
▁iran
▁hall
▁stream
▁core
▁v
chi
▁previous
▁fresh
▁mouse
▁disaster
▁fr
▁ab
▁metal
▁limit
▁date
▁forever
tu
ches
▁adopt
▁laptop
▁justice
▁fac
▁bubble
ari
▁capture
▁fascinating
▁mar
▁rapid
▁chicken
▁election
▁lock
ham
▁photos
ists
▁era
ka
▁bird
▁cry
▁institute
▁responsibl
▁measur
ade
▁master
ap
▁related
ants
▁advantage
▁court
▁british
▁display
▁symbol
ball
▁organic
▁practical
▁den
▁switch
▁litera
▁wire
▁debate
▁leaving
▁weird
▁gra
log
▁curve
sha
▁mal
bur
▁continu
▁traffic
▁cl
han
▁adapt
▁ra
▁budget
▁channel
▁bright
▁cognitive
▁odd
mer
▁degree
▁graduate
▁soil
▁statistics
loved
▁location
▁platform
▁motion
▁rocket
▁smile
▁facilit
tric
▁occurr
▁detect
ise
▁fle
▁circuit
▁z
▁pocket
▁regular
▁evil
▁border
▁brown
▁transformation
▁leg
▁creation
▁shop
▁collapse
▁diet
▁400
▁promise
▁author
▁pack
▁stress
fa
▁advance
▁caus
▁suit
▁party
▁engineers
led
▁solv
▁intelligent
▁mc
▁discovery
▁lunch
▁opposite
▁depression
▁theater
▁chose
ator
▁invention
▁according
▁streets
▁multi
▁intellectual
▁invisible
▁minister
▁childhood
▁wow
▁writer
▁fat
pr
▁alternative
▁artificial
▁dolphin
▁error
▁roof
versus
▁brief
▁vo
▁yester
▁serve
▁electrical
▁conscious
▁click
▁seriously
▁grandmother
▁ordinar
▁quiet
▁equip
▁string
▁holding
▁pen
▁carrie
▁kilometer
▁ideal
▁puzzle
top
▁cow
▁burn
▁mirror
▁george
▁dinner
▁stuck
▁empower
▁proud
▁politician
▁hill
▁crash
▁european
▁govern
▁israel
▁opinion
▁valley
▁kenya
▁variet
▁taste
▁truck
▁spring
▁fourth
nk
▁combine
▁sugar
▁score
▁beach
▁nor
▁proper
▁topic
▁prime
▁sold
▁mix
▁bang
▁charles
▁equivalent
▁tomorrow
▁round
▁sp
▁zone
ng
▁deeply
▁organiz
ack
▁consumption
▁bi
▁claim
▁pleasure
▁satellite
▁talent
▁perception
▁weather
▁lift
▁analys
board
▁ring
▁brita
▁dry
▁replace
▁estimate
▁suffer
ite
▁clinic
▁survey
▁mathematical
den
▁van
▁lie
▁pounds
▁director
▁150
▁atom
▁shoot
uar
▁scan
▁mexic
▁mechanism
▁battle
▁transition
▁peak
▁grown
▁harder
▁bush
▁authorit
ner
▁highest
ker
▁department
▁studio
▁volunteer
▁illness
▁clip
▁factory
art
▁broad
▁blow
bit
▁occur
▁ancestor
▁rural
▁malaria
▁employee
▁dress
▁injur
ative
▁climb
well
▁applie
▁conduct
▁nurse
▁grain
ris
rg
▁parent
▁35
ray
meter
▁hero
▁speaker
▁robotic
▁wheel
▁due
▁mat
▁einstein
▁monitor
▁succeed
▁multiple
▁dozen
▁hidden
▁vaccine
▁leadership
▁distribution
▁silk
▁ear
pu
▁suppose
▁partner
▁wi
▁tail
ua
▁spider
▁telescope
▁hurt
▁lung
▁corruption
▁reform
▁weapons
▁pig
ram
▁exchange
▁su
▁clinical
▁entertain
▁faith
▁heavy
▁crack
▁chip
▁narrative
▁pair
▁milk
▁2,000
kin
fu
▁harm
▁du
▁planets
▁sweet
▁min
ification
▁fl
▁actor
▁strength
▁shoes
▁awful
▁advi
▁lady
▁discussion
▁precise
▁100,000
held
▁comfort
▁extract
▁whom
▁gu
▁determine
▁fields
▁load
▁bus
▁trans
▁shock
▁strategy
▁counter
▁para
▁viruses
▁gather
▁closed
io
▁imp
▁surround
▁fortunate
▁marriage
▁explanation
▁desk
▁worldwide
▁pole
▁fiber
▁mistake
▁democratic
▁angel
life
▁limited
▁earn
iv
▁da
▁infect
gram
▁setting
▁therap
▁discuss
▁epidemic
▁michael
▁physicist
▁curious
▁construction
▁peer
▁operate
▁coal
▁del
▁ride
▁frame
▁fan
▁bat
▁england
▁equation
▁feedback
▁hotel
▁evolve
▁struggle
▁fell
av
▁spoke
▁dinosaurs
▁translate
▁protection
▁liquid
▁stupid
▁steel
▁northern
▁review
▁rat
tive
▁lifetime
▁joke
mate
▁leader
▁player
ala
▁pet
ff
▁inner
▁45
ran
▁skill
rse
▁novel
▁identify
▁nervous
▁official
▁teeth
▁incentive
▁library
▁lawyer
▁losing
▁tea
▁killing
▁belong
▁swim
▁opening
▁stoo
▁divide
over
▁symmetr
▁majorit
▁darwin
▁elephant
▁vessel
▁pump
▁poem
▁initial
▁plate
▁demonstrate
light
▁enem
mon
▁sustain
▁journalist
scale
▁economics
let
ui
▁nigeria
▁remove
pp
▁bor
▁aging
ek
▁construct
▁spectrum
▁trillion
▁twitter
▁accurate
▁chemistry
▁matters
▁consequences
▁recycl
▁tour
▁obes
▁molecul
▁tens
▁empty
▁title
▁dealing
▁mortality
▁property
▁solid
▁season
▁exercise
▁presentation
▁arriv
▁port
rit
▁union
▁australia
ward
ral
▁invite
▁maintain
▁status
▁convert
▁conclusion
▁chapter
▁alien
▁voices
▁grid
▁passionate
▁marrie
▁hyper
▁kick
▁gang
▁musician
▁tag
▁member
▁appropriate
point
▁addition
af
maker
▁congress
▁encounter
▁establish
▁kitchen
▁sculpture
▁boom
▁attract
▁flies
▁daily
▁orbit
▁arms
zi
▁nasa
▁5
▁battery
50
▁seed
▁efficienc
▁lecture
▁valuable
▁combination
▁hang
▁winter
▁management
▁tip
▁label
cor
▁sphere
▁tear
▁cup
▁quant
▁sheet
▁provid
▁details
omas
▁wine
▁pan
▁cure
▁categor
▁definite
▁club
▁queen
▁reef
burg
rew
▁marine
▁height
▁gay
▁manag
▁undern
dp
gh
bility
▁celebrate
ably
ile
▁credit
ub
▁cartoon
▁transport
▁gravity
▁lake
▁evolutionary
▁bias
▁invit
▁quarter
▁root
gg
▁feels
▁iron
▁folks
power
▁origin
foot
tech
▁sir
▁chemicals
▁bell
▁oceans
ug
ki
▁judge
▁split
▁wake
▁cutting
▁existence
▁historical
ik
▁bike
▁gun
▁icon
▁electronic
▁jan
▁broke
▁aim
▁sites
▁steps
▁soul
▁charit
▁plus
▁client
▁reference
▁radiation
▁tank
▁customer
za
▁seek
▁mode
▁prototype
▁attach
▁privilege
▁vulnerabl
▁wikipedia
▁illusion
▁medium
▁primary
rtex
▁nerve
▁shapes
▁tim
▁contract
▁receive
▁toilet
▁march
▁organs
rus
▁tape
▁former
▁assume
▁circumstance
▁ladies
▁je
▁assembl
ou
▁percentage
wi
arch
▁receiv
▁heads
rate
ft
▁soft
▁eastern
▁properti
▁button
▁calculate
▁filter
▁harvard
▁pacific
▁paradigm
▁witness
▁technological
▁biologist
▁internal
▁clever
▁2008
▁blog
▁decline
▁shut
▁suck
▁volume
▁organ
▁islam
▁limb
▁relate
ang
▁cave
ground
▁pal
▁explor
▁mountains
▁pill
▁unusual
▁emissions
▁robert
▁collaboration
▁99
▁3,000
▁shoulder
▁figur
▁pure
tz
▁reverse
▁prepared
▁inspiration
▁ya
▁computation
▁regard
▁input
▁shame
▁observation
▁fake
▁exploration
▁infinite
▁comic
▁tower
▁prediction
▁comment
▁manufactur
▁los
lic
▁improv
▁knee
nna
▁players
▁pat
▁depress
▁danger
▁chimpanzee
▁psychology
▁symptom
▁visible
▁rational
▁analog
▁forgot
▁pile
▁collection
▁embrace
▁2000
▁musical
▁bare
▁cable
▁challeng
▁loop
▁loud
▁ski
▁cent
▁command
▁oppos
▁piano
▁heaven
▁instant
▁snow
▁implication
▁phase
▁framework
▁panel
▁meaningful
▁apartment
▁bees
▁sch
▁reserve
▁swimm
▁poll
▁demo
▁brazil
destruction
▁balloon
▁criminal
▁ingredient
▁mosquito
▁pollution
▁drill
▁southern
▁gulf
▁francisco
▁sensor
▁afterward
▁productive
▁mothers
▁statement
ically
ane
▁academic
▁laboratory
▁penguins
▁nest
▁react
▁diagnos
▁mechanical
rising
ai
▁mile
▁trend
▁steve
▁chart
▁abstract
▁advertis
▁computing
▁empathy
▁fruit
▁healthcare
▁hydrogen
▁variation
▁emerge
▁melt
▁awareness
▁prefer
▁inform
▁burning
▁wherea
▁confus
▁angle
▁goals
▁sight
▁programm
▁handle
▁marketing
▁admit
▁style
▁assumption
▁pilot
▁transplant
▁plot
▁youtube
▁christian
▁elder
▁crop
▁acid
▁announc
▁contribute
▁severe
▁tar
▁capabilit
▁ray
▁arrive
ina
▁lies
▁defense
▁sophisticated
▁regret
▁inevitabl
▁instruction
▁microbes
▁attitude
▁frog
▁shall
fish
ake
▁birthday
▁dropp
bar
▁poster
▁pin
▁automatic
▁philosoph
▁surgeon
▁theme
▁doubt
▁obsess
▁firm
▁liberal
▁orchestra
▁telephone
▁jack
▁flash
▁rap
▁pour
▁teenager
▁improvement
▁infection
▁threaten
▁zoom
ide
ory
ima
ure
half
▁upper
▁section
▁habit
▁tap
▁windows
lip
▁ki
ware
dg
rin
▁sc
oxide
▁innovative
▁mushroom
▁predator
▁rush
▁sunlight
▁grab
▁wireless
▁transportation
▁reduc
▁cheat
▁pad
ana
▁cal
itude
▁tall
▁grass
▁habitat
▁frequenc
▁bug
▁22
▁seal
▁spec
▁host
▁afternoon
▁length
▁mathematician
▁stretch
▁coordinat
▁license
▁spiritual
▁commitment
▁finance
▁motivation
▁1990
ology
▁hide
▁iphone
for
▁mistakes
cro
▁coin
what
▁hous
▁5,000
▁participate
ev
▁educational
▁eggs
▁script
▁comfortabl
fin
▁danc
▁genius
▁harvest
▁romantic
▁bla
▁23
▁consume
▁photographer
▁resistan
▁behavioral
▁adam
source
▁lens
being
uff
rice
▁entrepreneurs
ku
▁cam
▁divers
▁dogs
▁globe
▁dedicat
▁golden
▁par
ef
▁weak
▁fascinat
▁gut
▁mac
cus
▁deserve
hai
table
ulate
back
▁fa
▁classic
▁hi
▁arts
▁recording
▁polio
▁till
room
og
▁cultures
▁linked
▁dense
▁mall
▁shake
▁conventional
call
ria
▁organize
▁behave
▁meal
▁electron
▁pakistan
▁confidence
bri
state
ica
▁unexpected
▁vegetable
▁asteroid
▁staff
▁regime
▁raw
▁agent
vin
▁intens
▁dh
oid
▁ah
▁palm
lee
▁violent
use
iti
▁apparent
▁correspond
▁murder
▁relevant
▁shadow
▁haiti
▁exhibition
▁hook
▁backward
▁magnetic
▁paris
rb
▁clock
truck
▁nose
hour
▁corn
▁install
▁implant
▁revenue
▁scratch
▁suspect
▁depth
▁conservation
▁spill
▁unknown
▁sustainability
▁knowing
▁salt
▁hy
▁clothes
▁por
▁bost
▁storm
▁participat
▁peter
▁favor
▁tri
▁stock
uck
▁sil
▁gray
▁discipline
▁polic
▁presence
▁phrase
▁owner
▁younger
▁perceive
▁centuries
▁repair
▁ritual
▁bicycle
▁chica
▁psychological
▁footprint
▁bond
▁greenhouse
▁horrible
▁selection
▁select
▁intense
▁engaged
▁busy
▁disorder
zo
▁philosopher
▁generat
teen
▁tax
rous
▁weigh
▁guide
▁confront
ung
▁prisoner
▁smoke
▁comp
box
▁chocolate
▁concrete
▁physician
▁psychologist
sahara
▁obama
▁steal
▁plent
▁sept
▁characteristic
win
bot
long
▁argu
oven
▁entrepreneur
▁pitch
kind
▁ears
▁flowers
▁gentlem
▁nano
▁traged
▁simplicity
▁rescue
▁mystery
▁lifestyle
▁congo
▁1980
▁france
▁expectation
▁golf
▁thick
▁flip
▁combin
▁appreciate
heroes
ight
aving
▁partners
▁printing
▁myth
▁flower
cent
form
▁cloth
▁shell
▁egypt
▁concert
▁excuse
▁identical
▁judgment
▁permanent
▁welcome
▁intervention
▁diagram
▁airport
▁nu
▁escape
▁bend
▁describ
▁microscope
▁alter
▁magn
ov
ji
lf
▁liver
▁whale
▁neuro
▁parallel
▁wal
▁pink
▁breathe
▁processe
▁ignore
▁inspire
ual
▁bow
▁implement
▁rwanda
▁kingdom
▁session
▁earthquake
cher
▁orange
▁silence
▁renewable
▁interactive
▁breed
▁reduction
▁sensitive
▁route
▁hire
▁bay
ction
▁pool
▁prince
▁tur
▁portrait
▁axis
▁clouds
▁award
▁victims
▁absorb
▁frighten
▁uganda
▁exponential
▁plug
▁barrier
▁tedtalk
▁dust
▁journal
▁optimistic
▁hunger
graph
▁fortune
▁strip
house
▁densit
▁boxes
▁rip
▁polle
▁ignor
stage
ility
▁compet
▁roots
▁complain
▁conclude
▁defend
▁false
▁vagina
▁knock
▁strike
▁vertical
▁gps
ologist
▁painful
▁flag
▁clay
▁bible
▁import
▁swede
▁gar
▁repeat
▁functional
▁lion
▁feeding
▁terrorist
▁exception
▁refer
▁introduc
▁logic
▁cast
▁russia
▁furniture
▁rhythm
▁awesome
▁bulb
▁clue
▁toxic
▁stack
▁vital
▁strand
▁joe
▁inventor
dollar
▁names
hu
▁hum
uch
mat
ale
cap
▁whi
▁advanc
▁fo
wired
▁roads
▁extinct
▁tricks
▁authentic
▁council
▁embedded
▁froze
▁procedure
▁probabilit
▁latin
christmas
▁194
ani
▁activist
▁abuse
▁trace
▁inspiring
▁pregnan
ular
all
town
▁bin
tries
▁secure
▁dish
gli
▁wash
▁exten
▁islands
mine
some
▁proportion
▁synthetic
▁conservative
▁protest
▁trigger
▁gender
▁jail
▁ticket
▁contrast
▁humor
▁laser
ridge
▁hip
▁beside
▁fed
▁len
▁sheep
▁astonishing
▁promote
▁dig
▁stor
▁cord
cut
ax
▁hack
▁dere
▁propose
▁tuna
sia
▁frustrat
▁exploit
▁fabric
▁illegal
▁pyramid
▁ridiculous
▁yield
▁soviet
▁silicon
▁shelter
▁autism
▁sweat
▁ultra
▁poison
▁partnership
nathan
▁attend
▁sail
▁islamic
▁editor
▁happier
ama
▁defin
▁personalit
▁russian
▁spaces
▁sharp
▁homo
▁jim
▁yo
▁bl
▁slides
▁citizen
▁emergenc
▁chest
▁curiosity
▁economies
▁grandfather
▁immune
▁origami
▁senior
▁texas
▁chief
▁spell
▁copyright
▁flood
▁delight
▁headline
▁ngo
▁tale
▁hat
▁bless
▁mor
▁importan
gue
▁opera
bridge
class
▁copie
▁disorders
▁pray
▁har
▁worm
▁exam
▁victor
▁candidate
▁demographic
▁description
▁domestic
▁ethiopia
▁narrow
▁reputation
▁stroke
▁agenda
▁trait
▁ghana
▁adventure
pox
▁fluid
▁greek
▁tight
▁rebuild
bal
uk
▁fin
▁glad
▁lit
hr
▁32
bru
▁tech
organiz
zero
aba
▁lega
▁jet
fall
hen
▁fifth
▁cluster
▁column
▁corporation
▁explosion
▁illustrate
▁distant
▁miracle
▁pretend
▁gates
▁smooth
▁digni
▁silent
▁continuous
gun
level
▁highway
▁shooting
▁committ
▁bold
▁spoken
▁floating
▁paintings
▁industri
▁craft
▁korea
▁item
▁consequence
▁integrat
▁interpret
▁disgust
▁recommend
▁corporate
▁intuition
▁wheelchair
▁initiative
▁cash
▁skeleton
▁vulnerability
stair
▁rod
▁neuron
▁div
▁dear
▁classe
▁rose
▁granted
▁expos
▁stepp
bert
third
▁distribut
▁gr
digit
▁aside
▁vent
▁chromosome
▁dictionar
▁obstacle
▁sketch
▁supplie
▁terrifi
▁household
▁reject
▁gesture
▁chaos
▁freak
▁output
▁torture
▁olympic
▁systematic
▁federal
▁amazon
▁suicide
▁download
▁overall
▁sam
ngry
cit
▁observ
rank
nel
▁killer
ook
▁rely
ories
▁donor
▁whales
▁va
▁dominat
▁slum
assembl
▁stands
▁edit
gar
▁weapon
▁strategi
▁calculation
▁diabetes
▁request
▁stanford
▁empire
▁fiction
▁drove
▁nobel
chan
▁1950
phy
▁wise
▁intend
▁analyze
▁farmer
▁bob
fo
▁geo
hood
▁agency
ean
▁mon
▁intuitive
lie
down
port
▁transfer
forward
born
▁fixed
rang
surance
▁manhattan
▁oxford
▁passenger
▁rainforest
▁transparency
▁arrest
▁higgs
▁overcome
▁database
▁martin
▁dump
▁globalization
▁loan
▁mate
iness
▁ugl
▁isolat
▁lying
▁falls
▁teams
berg
▁dive
▁urge
▁ham
lam
▁priorit
▁crow
▁radi
iz
▁breaking
▁250
▁sales
grow
▁resist
▁decrease
▁guard
▁microsoft
▁spectacular
▁fulfill
▁subtle
dirty
▁capitalism
▁native
▁portion
▁ceo
▁rent
▁file
▁20,000
▁occasional
▁ethical
ney
▁mill
▁95
▁scann
jo
▁manager
▁holly
▁ethic
mart
▁jun
▁wars
▁imagin
net
sea
▁struggl
▁utter
▁hal
lb
▁deploy
▁courage
▁camel
▁automobile
▁external
▁hormone
▁profile
▁substance
▁unbelievabl
▁district
▁leather
▁guilt
▁paralyz
▁skull
▁condom
▁saturn
▁domain
▁william
▁elite
▁simulation
▁desperate
▁limitation
hoo
▁restore
▁darkness
▁dial
▁surrounding
▁photography
▁grave
▁mail
▁indicate
▁slip
▁boundar
▁rag
gel
▁leak
▁hans
▁formula
ura
▁cop
▁195
▁nov
▁cute
▁cru
▁wip
▁spreading
▁titan
▁mimic
▁fabulous
▁plain
▁resident
▁devil
▁sandwich
▁appeal
▁abandon
▁smith
▁leap
▁football
▁iranian
▁asset
▁dinosaur
20
▁rope
▁slice
▁achiev
▁officer
▁moo
▁sport
ez
▁wing
matic
equi
▁harr
▁accelerat
▁bath
▁consistent
▁elect
▁sports
can
fold
▁auto
▁recogni
▁borrow
▁currenc
▁fragment
▁architectural
▁neural
▁pioneer
▁replicate
▁trash
▁mutation
▁cheese
▁naked
▁spark
▁textbook
▁honey
▁fool
▁sauce
▁assignment
▁translation
▁extinction
▁impression
view
▁reactor
▁gear
look
children
▁engag
▁swa
▁pot
▁steven
▁qualit
▁graphic
ville
war
▁cur
▁evening
▁pit
▁pie
▁amp
▁atlantic
met
▁academ
▁recogniz
▁adjust
▁homes
cal
▁animation
▁guarantee
▁intrigu
▁pandemic
▁relax
▁tragic
▁legislat
▁sacred
▁colony
▁ooh
▁beetle
▁alarm
▁compound
▁antarctic
orient
▁debt
▁aircraft
▁resolve
▁watt
▁boil
▁28
▁ecological
▁pace
▁50,000
dependent
▁blame
▁tick
▁tent
gging
▁wings
friend
century
tail
▁meme
▁ag
nutrition
▁creator
▁approv
hop
▁mayor
▁tune
pound
▁educat
▁dancer
ult
stone
esis
▁rocks
▁leverage
▁tribes
▁hub
▁activate
▁mammals
▁realm
zheimer
▁expedition
▁fraction
▁reinvent
▁trajector
▁vacuum
▁vietnam
▁commission
▁primate
▁cooperation
▁barrel
▁bump
▁pathway
▁twin
▁achievement
▁mentor
▁drum
arctic
▁2001
ison
cuba
▁releas
▁hunt
▁agricultural
▁consum
▁barr
word
imi
▁classical
▁pursue
▁remov
▁ratio
▁nutrient
▁amaz
▁egg
▁pose
▁geographic
▁relations
▁ze
ark
▁capita
▁excellen
▁accomplish
▁quest
▁psycho
▁enhance
▁ethnic
▁identifie
▁medication
▁neuroscience
▁participant
▁recipe
▁refugee
▁gradual
▁twist
▁stunt
▁florid
▁jewish
▁bribe
▁wound
▁sensation
▁chop
▁pause
▁engagement
▁hanging
▁representation
▁rob
▁suggestion
▁damn
▁hunter
▁norm
▁sixth
▁trends
creat
▁tribe
▁divid
stream
onic
▁determined
▁educate
▁coat
▁anger
▁believ
▁whistle
▁wo
▁preserve
bc
▁vot
▁jar
fusion
▁drag
▁aesthetic
▁mount
▁breakthrough
▁export
▁winner
▁resolution
▁demonstration
▁association
▁tired
▁gathering
▁punch
▁nets
▁polar
▁mri
▁mere
▁pun
load
▁burst
▁chat
ode
▁intention
▁terror
press
▁repeated
▁spa
▁sar
▁resilienc
▁sensory
▁proof
▁contemporar
▁disappoint
▁scream
▁crucial
▁transparent
▁compell
▁thrill
▁nurtur
▁gorge
▁comparison
▁twenty
▁kidney
▁ruin
▁republican
▁audio
▁virgin
▁admir
▁garage
▁interpretation
▁subway
▁burie
▁ensure
▁upset
▁objective
▁neck
▁lane
frontal
▁interior
hal
play
▁fur
olds
▁rever
▁strangers
▁faci
▁experienc
▁relation
free
mega
wan
▁electronics
▁excite
▁magnet
▁kb
glasses
▁prepare
▁cod
▁package
▁dar
▁appreciat
made
angiogen
▁administration
▁arrow
▁bronx
▁optimism
▁parliament
▁theoretical
▁turkey
▁dawn
▁cousin
▁essence
▁expectanc
▁tendenc
▁locate
▁drift
▁hungry
▁keyboard
▁phant
▁variable
▁israeli
▁neat
▁laid
▁highlight
▁hol
▁appearance
▁tile
▁henr
▁passive
▁mice
▁rem
▁cosm
▁kiss
▁2.
lethal
▁stra
▁worker
▁eric
▁mil
▁projection
▁terroris
ttle
▁shopp
book
▁linear
▁imag
urg
▁magical
▁happi
▁oxy
▁diamond
▁disturb
▁garbage
▁pharmaceutical
▁schizophreni
▁syndrome
▁reconstruct
▁glamor
pleasant
▁collaborative
▁array
▁autonomous
▁grasp
lihood
▁compromise
▁4,000
▁nin
▁motivate
ami
▁centi
▁bother
▁uncertaint
wright
▁climbing
▁bowl
ota
▁conflicts
▁moralit
▁10-
▁christ
▁shine
▁shin
▁diplomat
▁chas
print
▁bucks
lit
▁compos
▁branch
▁horizon
▁inject
convenient
▁antibiotic
▁bizarre
▁chamber
▁jellyfish
▁shrimp
▁dominant
▁tunnel
▁retina
▁triangle
▁supermarket
▁leaf
▁winning
▁convey
▁permission
▁cake
▁installation
▁jesu
▁experimental
▁compassionate
▁ink
▁eu
▁inequalit
▁lamp
▁octo
▁fisher
▁kit
ocin
▁communicat
▁crossing
▁printer
▁pipe
▁singer
rail
▁newton
▁flexibl
▁underly
entered
gie
▁penn
bean
▁globally
space
stock
ola
fire
▁contra
▁hawk
▁dose
path
eaten
▁integrate
▁transcend
ase
ania
▁dialogue
▁dilemma
▁glamour
▁prosthetic
▁scenario
▁taliban
▁tsunami
tangible
▁tackle
▁robust
▁tropic
▁steam
▁cotton
▁troop
▁primari
▁cube
▁signature
▁synthesiz
▁coach
▁nonprofit
▁slavery
▁jaw
▁kev
▁detection
▁detector
▁shit
▁wider
▁shirt
▁reli
drew
eb
▁agenc
▁embarrass
▁fate
sky
▁0.
▁rio
related
minute
direct
▁employ
▁marker
new
▁poly
▁bound
▁prop
▁contribut
▁prior
▁investigat
▁assist
millimeter
▁dopamine
▁expansion
▁primitive
▁simultaneous
▁tattoo
▁territor
▁threshold
▁potato
▁submit
▁carpet
▁annual
▁snake
▁infant
▁wolf
▁spray
▁hypothesis
▁tele
▁josh
jazz
▁filmmaker
▁manual
▁crew
▁soup
▁methan
▁personaliz
served
▁measurement
▁dung
take
▁smok
▁85
▁homeless
▁hir
uke
▁reported
▁pur
grade
▁programmer
cost
▁institutional
▁exp
▁wrap
engineer
sense
▁memes
rid
▁electro
▁profession
▁dia
kyo
▁preserv
▁ban
▁statistical
,500
▁flavor
▁abraham
▁endanger
▁enthusias
▁harbor
▁helicopter
▁neanderthal
competitive
▁ceiling
▁phosphorus
▁burden
▁tiger
▁extension
▁fertil
▁cliff
▁foster
▁mask
▁marketplace
▁egyptian
▁pond
▁elementary
▁refin
▁contribution
▁hitting
▁repli
▁probe
▁weekend
▁monte
▁agreement
▁alex
ini
▁tagg
▁rotate
cellular
van
▁confident
▁motivat
▁compete
▁bats
▁warning
▁quit
▁fanc
▁mari
agen
rial
cla
heart
▁youth
▁acquire
▁observe
omb
▁geometr
qa
▁reporter
▁pm
▁guns
▁alcohol
▁breakfast
▁pizza
▁ubiquitous
▁routine
▁temporar
▁defeat
▁render
▁amateur
▁regulation
▁broadcast
▁chemo
▁cyber
▁sink
▁basket
▁mysterious
▁generous
▁biodiversity
▁diver
▁collaborator
▁visualization
▁libert
▁fence
▁deaf
▁tension
▁innocent
▁invad
▁wheat
▁fastest
▁genetically
verbal
▁shocking
▁investor
▁outer
▁calm
▁harmon
train
▁jane
horn
▁toleran
cop
▁sacrifice
▁penguin
▁needle
▁mt
▁ob
worth
world
▁specializ
▁instinct
▁bangladesh
▁cricket
▁curriculum
▁genocide
▁tanzania
▁uncomfortabl
▁koran
▁marvel
▁coke
▁anonymous
▁proposition
▁jeff
▁stole
▁silver
▁ipod
▁mineral
▁prostate
▁attractive
▁fragile
ncol
pack
▁duck
▁jean
rich
▁elegant
▁ego
▁hid
▁mapping
▁mixed
▁goat
▁120
▁beam
▁replac
▁bind
▁manufacturer
yard
▁clon
▁hunting
▁55
▁joint
▁node
aday
▁graphics
▁shipp
par
▁trac
▁blogs
lice
▁historic
▁phenomena
mission
interest
▁blank
entropy
▁choir
▁enlighten
▁jihad
▁protocell
▁recruit
▁serving
▁immense
▁altitude
▁augment
▁dumb
▁woke
▁wedding
▁electrode
▁shang
▁redwood
▁concentration
drive
▁brian
manda
lock
▁bored
▁comedy
▁helpful
▁surgeons
▁degrad
oth
▁wage
▁distinguish
gentleman
▁purchase
▁overwhelming
hong
▁incident
▁impress
▁commun
▁minim
▁boot
▁attribute
gri
ounce
▁migrat
▁dirt
▁crystal
▁censor
▁grateful
▁precious
▁temple
▁friday
▁closing
▁insulin
▁dutch
▁luxur
▁biosphere
▁crush
▁swiss
▁stephen
▁pulse
▁cue
▁canopy
▁unfold
▁nuts
▁proposal
▁calorie
▁junk
▁33
volt
▁lean
▁downtown
▁disconnect
american
▁30,000
force
therap
▁glue
▁stri
▁lego
▁jur
▁ken
rom
run
▁sunday
▁marc
▁diploma
part
▁boss
org
▁producer
▁eve
ju
read
▁span
disc
ump
▁occasion
▁entit
▁mud
▁jumped
▁brush
▁hung
▁disagree
▁republic
▁persist
▁acoustic
▁august
▁despair
▁division
▁hierarch
▁intimate
▁pencil
▁sponsor
▁spontaneous
▁flourish
▁screw
▁spanish
▁monster
▁alexand
▁fox
▁uniform
12
▁verb
▁atheist
▁peaceful
lash
▁albert
▁lg
▁nerd
▁tedx
▁arise
▁carolin
▁prevention
▁qua
▁juggl
efficient
while
▁vari
▁specialist
selves
▁scanner
▁korean
▁jer
ifying
▁hacker
▁starv
▁concentrat
ix
right
▁apri
ado
erial
▁robb
▁float
▁grant
▁delivery
▁mechanic
▁batter
illa
▁sew
▁pant
▁farming
nia
▁unhapp
version
▁addict
▁feynman
▁glacier
▁hawaii
▁inherent
▁privacy
▁puppet
▁shrink
▁neutral
▁multiply
ike
▁chef
▁venture
▁italian
▁blend
▁bullet
▁geek
▁tongue
▁crab
▁representative
thermal
▁harness
▁ecolog
▁sync
▁selfish
▁descend
▁insane
▁clar
▁translat
▁lucki
▁rotat
▁nar
chu
▁interconnected
▁prayer
wear
ux
▁merc
▁bull
▁guid
roa
▁luc
cker
▁explorer
200
▁offering
▁independen
▁flowing
▁tan
▁disabl
▁convention
▁critic
vian
determin
▁teenage
▁distinct
▁exhibit
▁scott
▁galler
▁intrinsic
▁anxiet
▁cylinder
▁evaluat
▁gandhi
▁magnificent
▁chronic
▁surgical
▁devote
▁thumb
▁yemen
▁compress
▁royal
▁violat
▁viral
▁jones
▁pride
▁800
▁frontier
▁erect
▁backyard
▁reflection
law
▁nata
▁insist
▁lowest
▁qu
▁update
▁distribute
▁loose
▁propos
profit
iff
clock
▁assum
▁eliminate
▁nigerian
▁dune
▁wrapp
▁cri
▁uh
ership
▁interrupt
ira
▁additional
▁formal
xi
▁atomic
▁concentrate
▁andrew
▁kh
▁pursui
▁commit
▁cli
▁coloni
▁analyz
▁lim
rah
▁sequenc
▁stabilit
▁aggressive
▁ceremon
▁cigarette
▁confirm
▁daniel
▁delicious
▁enterprise
▁festival
▁mandela
▁matrix
▁palestinian
▁terrain
▁terrifying
▁tweet
▁clinton
▁valid
▁benjam
▁lord
▁archive
▁glow
▁relief
▁gallon
▁brick
▁diagnostic
▁ongoing
▁miserable
▁stir
▁victim
▁hydro
▁shoe
▁examine
▁passage
cola
▁brave
▁astronomer
▁dependenc
▁celebrat
place
▁mul
known
▁spinn
▁manipulate
face
step
▁carl
▁via
▁proven
bm
▁overwhelm
▁founder
▁strongly
▁dam
▁lotter
▁democrat
▁col
▁pier
▁thus
▁choosing
▁encouraging
▁glimpse
▁hybrid
▁receptor
▁structural
▁symphon
▁unprecedented
▁alpha
▁civic
▁suppress
▁tutor
▁beij
▁transmission
▁consist
▁delay
▁steer
▁indoor
▁unconscious
▁juice
▁deception
▁jewel
ntact
▁mindset
controversial
▁tedster
▁phenomenal
▁santa
▁iceland
▁40,000
▁mola
▁192
aph
▁stamp
▁logo
▁integr
▁zeal
▁virtue
▁olive
▁germ
▁playful
▁refuse
▁stake
▁acknowledge
▁destiny
tub
▁cape
glo
▁microbi
▁sale
▁donation
▁eco
▁tooth
oline
blo
▁mary
▁displac
▁worrying
▁navigate
▁dub
bye
osphere
▁afghan
▁columb
▁aristot
▁bioluminescen
▁crawl
▁grandparents
▁indonesia
▁persuade
▁shepherd
▁squid
▁welfare
▁lifespan
▁smiling
▁voyage
▁bosnia
▁collision
▁remix
▁proceed
arthur
▁bathroom
▁exposure
▁reproduce
▁pipeline
▁redesign
▁flick
▁mike
▁spacecraft
▁dough
▁cruel
▁negotiation
▁correlation
▁shout
▁nick
▁manner
▁marry
▁branche
▁assure
▁included
▁belt
▁rape
▁mammal
▁200,000
▁popp
inch
▁mesh
▁factories
▁upward
▁emergence
bran
▁bioma
▁approximate
▁optical
▁hardest
▁disability
▁formation
▁30-
▁cookie
▁transmitt
second
found
gill
▁sq
human
ime
▁aspiration
▁transmit
pain
▁beating
▁embrac
blown
estate
▁chase
▁flipp
▁needles
▁mist
▁paradox
▁corrupt
▁bite
▁scholar
surveillance
▁calculus
▁divorce
▁encyclopedia
▁prescription
▁rethink
▁storytelling
▁unemploy
▁veteran
▁illuminat
▁chunk
▁pigeon
▁storyteller
▁helium
▁absence
▁distort
▁contest
▁diameter
▁spike
▁hallucination
▁mainstream
▁recession
▁brutal
▁retirement
▁strict
▁distinction
▁investigation
▁magician
▁canvas
▁jew
▁strategic
▁tide
▁philosophical
▁thread
▁minus
▁intent
symmetrical
▁lap
▁masse
▁eradicat
▁stunning
pit
5,000
▁banker
een
▁mold
▁spare
▁sake
▁overhead
▁shak
▁mood
▁burned
▁maxim
▁sue
▁upside
▁trad
▁philip
▁format
▁rub
▁bust
▁prepar
▁dropping
▁referr
▁surger
▁sometime
rdon
▁texting
erson
page
ette
▁compute
▁psychiatr
▁chemist
▁enzyme
▁impulse
▁joseph
▁leonardo
▁leopard
▁occupy
▁philanthropy
▁register
▁swallow
▁ultrasound
▁leban
▁scrap
▁casual
▁mutual
▁awake
▁encode
▁emphasize
▁dispos
▁texture
▁hint
▁valve
▁digest
▁grabb
▁hyp
▁sanit
▁vice
▁1900
▁campus
▁horizontal
▁pric
▁upload
▁practic
▁unsee
▁pc
▁hug
▁summarize
▁viewer
hil
▁pitt
▁bern
angle
▁rome
coli
▁embarrassing
▁panic
enabl
▁triple
weight
school
▁digg
▁negotiate
▁bacteri
▁climber
▁accumulat
mile
uel
lace
▁logical
vity
▁bro
osity
▁liberat
ith
grove
▁slave
▁aqua
vascular
▁awkward
▁electromagnet
▁genomic
▁horror
▁membrane
▁neuroscientist
▁parachute
▁shakespeare
▁stomach
▁contemplat
▁genuine
▁guitar
▁irrational
▁retreat
▁substantial
▁warrior
▁alphabet
▁satisfy
▁schedule
▁firing
▁align
▁gross
▁microphone
▁psychopath
▁banana
▁fault
▁historian
▁buddha
▁doodl
▁bedroom
▁girlfriend
▁priest
▁chole
▁hemisphere
▁friendship
▁candle
▁lobe
▁recall
▁mexican
▁pigment
▁frustration
▁rover
▁grace
▁rubber
▁workplace
▁bud
▁healing
▁thai
▁hopeless
▁reliabl
▁constraint
▁rating
▁deposit
▁foi
▁arc
▁strain
type
▁captur
beat
▁rea
▁statistic
uter
▁devastating
brew
uction
▁simulate
▁impressi
▁accelerate
▁shy
xon
cock
▁taxe
master
▁patch
▁conceptual
▁eliminat
bacterial
▁criticiz
▁hut
air
aust
▁vibrat
▁skelet
▁assign
▁accompani
▁artifact
▁calculator
▁contaminat
▁explicit
▁humanitarian
▁nitrogen
▁obtain
▁optimiz
▁outbreak
▁pathogen
▁segment
▁spiral
▁scaffold
▁volcano
▁composition
▁drown
▁inhibit
▁statue
▁parasite
▁striking
▁vivid
▁connectome
▁loving
▁dvd
▁antenna
▁odor
▁fried
▁ethan
▁hostile
▁flock
▁annoy
uous
▁kong
▁towel
▁grip
▁index
▁grape
▁laden
▁unlock
▁nail
▁obsession
▁coverage
▁saudi
▁secretar
▁stimul
▁lonel
wandering
▁grim
▁350
▁fatal
mbi
▁asthma
▁deck
▁dick
▁gyr
stick
▁digitiz
▁whip
▁realization
▁rena
▁ironic
▁customiz
list
▁switched
▁axe
▁trap
▁huh
▁separat
wat
▁nucle
▁expose
▁stimulate
juan
person
▁binar
▁boundary
produc
code
▁prim
aware
▁kindness
▁quantit
rlin
spring
▁typ
▁mai
▁laur
▁milo
▁consult
▁manifest
▁autonom
▁athlete
▁catholic
▁chimp
▁elevator
▁fertilizer
▁marrow
▁mcdonald
▁mumbai
▁transistor
▁underestimat
▁premise
▁expense
▁inherit
▁heritage
▁librari
▁outdoor
▁charli
jec
▁glorious
▁famine
▁tomato
▁destination
▁champion
▁minority
▁berk
▁thermo
▁barbar
▁replacement
▁adaptation
▁equit
▁dating
▁initiat
tenth
▁frequently
▁louis
▁warn
▁composer
▁baker
▁seventh
penh
oli
▁promis
▁everest
▁riot
▁graduat
▁scaling
▁crap
▁din
▁custom
evo
▁scal
▁trappe
▁lou
▁visualize
maha
controlle
style
▁disrupt
▁container
plan
▁phil
eller
▁sang
▁microscop
▁stewar
▁42
▁performer
berry
nett
▁levi
▁distract
▁correlat
▁heavi
▁abundance
▁calendar
▁endeavor
▁league
▁parkinson
▁captain
▁smash
▁declare
▁combat
▁turtle
conceive
▁myceli
▁cooperative
▁fetus
▁explode
▁ministr
▁forbid
▁introduction
▁divergen
▁blink
▁2020
▁translator
▁denial
▁artwork
▁airline
▁behold
▁solo
▁server
▁charter
▁impose
▁deepest
▁budd
▁tun
quo
▁strap
▁190
▁sylvi
scape
▁exhaust
▁rott
▁fee
▁processor
▁spine
cum
▁dai
uri
plat
▁nonviolen
rselves
ulation
▁treasure
ough
global
perform
four
▁blogg
▁asian
▁developer
speed
▁trauma
▁convict
▁anesthesi
▁virgini
var
▁melod
▁adolescent
▁cambodia
▁census
▁commodity
▁craig
▁diarrhea
▁juvenile
▁kosov
▁purple
▁violin
▁vitamin
▁grocer
▁slope
▁algae
▁indigen
▁multinational
▁committee
▁impair
▁brad
▁cattle
▁wilson
▁cocaine
▁pearl
▁babb
▁echo
▁norden
▁cellphone
▁congesti
▁chew
▁prosperity
▁simon
▁1930
▁potter
▁blur
▁separation
▁confine
▁mini
▁evan
scope
▁progressive
▁greet
▁integration
▁sens
▁advocate
▁vary
▁conductor
▁modest
▁couch
illion
▁operator
▁lewi
▁peel
▁ferr
▁broader
iful
▁jay
▁rabbit
star
▁navigat
▁documentar
▁cab
▁millenni
bati
▁indus
▁31
▁gentle
▁devastat
▁cope
ong
▁approache
▁miser
generat
▁significan
kans
▁octop
▁soap
▁symbolic
▁retire
income
▁kilo
▁cooper
▁stereo
▁punish
▁brooklyn
▁canadian
▁cathedral
▁comprehensi
▁deforest
▁elizabeth
▁imperative
▁intimacy
▁innovate
▁cream
▁stumbl
▁bonus
▁pirate
▁blob
▁1.2
▁enforce
▁multipli
▁pancrea
▁sufficient
▁entry
▁dictator
▁bloom
▁1,500
▁blade
▁meditation
▁vibration
▁48
▁celebration
▁commandment
▁resilien
▁cartoonist
lapse
▁naive
ological
lanta
▁susan
▁blindness
▁salar
corn
sourc
▁canyon
▁dare
▁sweep
▁ambition
▁compil
▁fever
▁disk
▁squeeze
▁yeast
▁jh
▁broc
▁mild
eur
▁snap
hole
▁endless
▁cyr
▁transformati
▁accumulate
▁logg
▁negotiat
▁skip
▁settle
▁anticipate
mala
stein
▁scare
▁mono
bone
▁cleaner
elli
gger
shirt
▁pursu
▁controvers
▁restrict
▁ideolog
▁rebel
ella
▁dragonfl
adequate
▁anniversar
▁buddhist
▁buzz
▁catastrophe
▁contagio
▁deficit
▁fractal
▁friction
▁innovator
▁monument
▁supreme
invasive
▁boost
▁wrist
▁nightmare
▁funeral
▁saint
▁constitution
▁cereb
▁criteri
▁ventilat
ectar
▁flesh
▁sarah
▁preach
▁yell
▁mixture
▁arrangement
▁contradiction
▁settlement
▁punishment
▁macro
▁98
▁dragg
▁gase
▁25,000
▁tourist
▁keen
▁lever
libr
▁mach
▁celebrity
▁193
urgenc
▁pup
▁ec
▁observer
vinci
ature
activat
zu
▁130
▁ross
five
▁deriv
▁anticipat
▁arena
▁heroic
▁diagnosi
▁manipulat
▁aggregate
▁automat
▁collaborate
▁optic
▁teache
▁summar
▁astronom
▁rut
▁dishe
▁yards
18
▁skeptic
▁semi
olo
technology
▁imitat
▁accura
▁beneficia
▁commoditi
▁execute
▁fantasy
▁illustration
▁mobiliz
▁neglect
▁peculiar
▁principal
▁protocol
▁synapse
▁technician
▁trivial
▁vacation
▁affair
▁cabinet
▁fundrais
▁alumin
▁whisper
▁spear
▁resonate
▁depriv
▁oppress
▁catalog
▁depict
▁album
▁carrot
▁tibet
▁reinforc
▁infra
▁flame
▁articulat
▁checklist
▁dissolv
▁acute
▁headquarter
▁chile
▁anthropologist
▁sidewalk
▁preference
▁cafe
▁trunk
▁stimulation
istine
▁retail
proof
▁fda
▁advise
▁mature
band
▁gala
▁freez
▁perceiv
▁invitation
▁cheer
shift
▁flor
social
▁decent
▁38
▁delete
▁mum
▁coca
▁fus
▁freeze
blew
coloniz
▁bid
▁bask
▁brit
▁crude
mun
▁momentum
neil
▁mash
▁eighth
▁helpless
▁warmer
▁bol
▁emitt
▁demonstrat
kee
▁abilit
emia
minded
▁rubb
▁kenn
oma
▁lama
▁mytholog
far
ause
▁nav
▁ambitio
▁bounce
▁forgive
▁appl
▁lobby
violet
▁catastrophic
▁default
▁drunk
▁elaborate
▁eternal
▁executive
▁jordan
▁jungle
▁phoenix
▁propagand
▁sebastia
▁secular
▁sputnik
▁synchroniz
▁unfair
▁vocabular
▁2030
▁apollo
▁staircase
▁commut
▁cubic
▁crater
▁carib
▁dentist
▁ancestr
▁headache
▁swarm
▁galva
▁rosling
▁neocort
▁bonobo
▁sneak
▁reclaim
▁scheme
▁portug
▁fuck
▁puff
▁preparation
▁selective
▁lester
▁improvise
▁addiction
▁migration
▁debri
witzer
pago
▁cad
minent
▁exot
▁educator
▁regulate
▁mir
effective
track
▁generic
▁accus
mund
▁shap
▁dave
▁ador
erusal
▁blast
▁copp
▁linu
▁australian
▁minimal
anjo
ound
scu
▁beef
▁voter
▁stan
▁zoo
eyed
▁rig
tract
gras
▁antibod
▁promot
▁millennia
▁prostitut
▁pregnanc
▁plea
ulu
hou
▁lar
cca
▁relativ
▁redefine
▁declin
ruce
▁passe
▁geograph
▁remark
spot
▁endur
▁meditat
▁explod
voluntary
▁appliance
▁authoritarian
▁consensu
▁convincing
▁counsel
▁cybercriminal
▁evaporat
▁feminist
▁fifty
▁gadget
▁jupiter
▁manuscript
▁metabolism
▁montana
▁occupation
▁peanut
▁pollutant
▁prevalence
▁sensitivit
▁singapore
▁submersible
▁undergraduate
▁unleash
▁cocktail
▁deliberate
▁elevate
▁exclusive
▁exquisite
▁holiday
▁conquer
▁sierra
▁shredd
▁envelope
▁forecast
▁temporal
▁idiot
▁penalt
▁stain
▁tribal
▁regenerate
▁lump
▁syria
▁presum
▁infectious
▁breakdown
▁disney
▁billboard
▁divine
▁refrigerator
▁manifestation
▁civilian
▁seawater
▁fungi
▁minor
zler
diac
▁insert
▁generator
alist
riving
▁governor
▁upright
▁swap
▁progression
elect
lisa
acle
▁payment
▁steward
bound
front
▁rear
▁lang
▁rust
▁arabia
▁bann
▁reache
▁kite
bp
▁185
▁humble
add
ggle
saw
utter
▁decid
active
▁dip
▁owe
aker
▁intervene
▁folk
blowing
solv
eley
▁stare
shape
▁publisher
▁tire
▁isolation
▁stranger
▁gla
apped
▁infinit
therland
▁euro
▁wir
▁jacque
▁adolescence
▁anatomy
▁calculating
▁configuration
▁crocodile
▁favela
▁hamburger
▁himalaya
▁hurricane
▁introvert
▁namibia
▁pesticide
▁rehears
▁satisfact
▁stadium
▁thylacine
▁alaska
▁episode
▁ghost
▁prospect
▁visceral
▁worship
▁suspend
▁feather
▁helmet
▁mustache
▁creep
▁bombsight
▁oyster
▁qatar
▁jefferson
▁hmm
▁francis
▁alliance
▁kilogram
▁thrive
▁smartphone
centric
▁prescribe
▁cease
▁erupt
▁flaw
▁orphanage
▁shelve
▁reproduction
▁intersection
▁toxin
▁transit
▁superpower
▁curator
▁investigate
▁crank
▁memorial
▁utilit
▁embodie
▁lago
▁exit
▁alert
▁massac
▁guest
▁slim
▁aunt
▁monday
▁zip
▁eba
▁requirement
▁differentiat
▁barb
▁nitr
▁semina
▁overlap
mino
▁drought
▁fog
▁blogger
▁julian
flow
generation
sleep
castle
▁apes
▁gener
▁collaps
▁memoriz
▁glove
▁mag
▁mau
▁unst
▁swo
.8
▁kim
fill
adu
▁settl
▁flap
▁dun
▁philipp
▁surf
▁wishe
▁buck
▁patholog
pati
▁brun
▁accidental
diana
▁rabbi
94
loom
▁eradicate
alai
▁precis
▁taxi
▁physiolog
▁numer
conserv
▁gall
▁tempt
vu
▁drama
▁synesthe
▁absurd
▁astronaut
▁delusion
▁falcon
▁goliath
▁immigrant
▁irrigat
▁maneuver
▁migraine
▁revelation
▁babylon
▁ladder
qualifie
▁polite
▁sudan
▁watson
▁unveil
▁orgasm
▁equator
▁kelly
▁enrich
▁faint
▁legitimate
▁terminal
▁preced
▁bucket
fred
▁parameter
▁fluctuation
▁textile
▁consol
▁blueprint
▁guardian
▁duty
▁workshop
▁employment
▁assistant
▁wax
▁psychiatrist
▁alright
▁baseline
▁43
▁tasmanian
rcul
▁wil
entrepreneurship
▁veil
▁nast
▁basement
▁roman
▁tactic
▁upgrade
▁thankful
▁cage
tues
liberation
enberg
▁env
▁carne
script
▁manufacture
reach
surfing
child
▁bandw
▁developmental
istan
▁mama
ecd
morph
quin
▁poke
▁democrac
ographic
quality
▁hind
▁suburb
▁inflat
▁orphan
▁arrange
▁beekeep
▁competitor
▁fuzz
▁horrifi
▁laundr
▁monsoon
▁peripher
▁shatter
▁technologist
▁velocit
▁venezuela
evident
▁fiddl
▁slogan
▁dismiss
▁chord
▁spouse
▁tunisia
plankton
▁intricate
▁spatial
▁abnormal
▁suitcase
commerc
inister
▁1.5
▁consent
▁revis
▁versa
▁vanish
roll
▁circulation
▁ipad
▁8,000
▁adaptive
▁injection
▁vocal
▁flute
illin
▁monk
nmark
▁strengthen
foam
▁kei
lept
ibera
▁neo
▁trailer
▁moz
▁larva
▁skeptical
▁placebo
▁propell
▁clapp
▁cosmo
▁prototyp
▁interviewer
▁bolt
▁moma
▁noble
▁polariz
gur
ception
axis
▁stabilize
intuitive
month
wheel
culture
natural
▁disrupti
mail
▁epi
▁deni
▁dispers
link
▁plumb
million
▁4.
00,000
▁harsh
▁mysteri
geria
▁dece
▁mic
▁glu
flu
▁cel
▁125
viv
▁cosmolog
pont
▁provider
▁subsid
hili
homa
raft
story
promised
▁menu
▁giga
witz
kara
▁differ
▁excess
▁temper
▁ambassador
▁argentin
▁chaotic
▁delicate
▁disadvantage
▁dwarf
▁flexibilit
▁grassroots
▁mammograph
▁nichol
▁province
▁shield
▁siberia
▁submarine
▁transaction
▁ushahidi
▁entrance
▁rachel
▁spaghetti
▁psyche
▁anxious
▁modifi
▁retain
▁radar
▁tesla
▁stereotype
▁extensive
▁appoint
▁mosque
▁trek
▁coincidence
▁hammer
▁julie
compensat
erran
▁novelty
▁instinctive
▁courageous
▁nike
▁grassland
▁brazilian
▁claw
▁manipulation
▁oak
▁2.0
▁ideological
▁44
▁ballet
▁max
▁sadness
▁lightning
ngalo
agile
▁slaughter
▁scarce
▁linguistic
▁bj
▁consideration
▁transferr
▁traffick
almon
▁drone
▁fame
▁publication
▁metaphorical
▁intentional
▁gil
void
aten
▁fade
▁cardio
▁resemble
ronto
▁informal
bucks
securit
field
market
fund
energy
together
course
▁continual
▁nuclei
▁capitalist
▁incidental
▁painter
craft
▁woode
ltan
▁slu
▁nap
▁dj
▁carv
racing
▁mp
rock
▁advoca
▁fib
▁numb
▁undergo
▁influen
▁embryo
convenience
▁ambiguit
▁avatar
▁biofuel
▁circular
▁deplet
▁exaggerat
▁gravitational
▁improvisation
▁ingenuity
▁injustice
▁mammogram
▁metabolic
▁michigan
▁optimal
▁pedestrian
▁polish
▁specimen
▁surplus
▁symbio
▁wavelength
▁arbitrar
▁capsule
▁existential
▁humiliat
▁meadow
▁saturday
▁1.3
▁pepper
▁rehabilitati
▁essay
▁steep
▁liberia
▁haunt
▁wreck
▁drain
▁eager
▁escalat
bladder
▁obscur
▁problematic
▁bypass
▁serge
▁zipcar
▁gambl
▁bmw
▁polymer
▁immersi
▁margar
▁assessment
▁missile
▁criticism
rift
▁shallow
▁lemon
▁browser
▁quadr
▁180
▁darwinian
▁gym
banish
▁52
▁pillar
▁spit
▁cooperate
▁hindu
▁34
▁attraction
▁restorati
▁chap
▁warfar
▁norman
▁edward
sylv
▁penis
▁requir
▁packag
▁uninten
wick
▁fuse
▁visitor
▁incremental
uba
▁cycl
▁curl
cast
stimulat
write
▁reliev
▁whistl
tune
rov
polar
grand
broad
positive
develop
percent
boat
food
▁balanc
▁hatch
▁dye
regulat
▁incorporate
▁laborator
▁cou
▁mapp
▁crashe
▁journalis
tress
▁shir
loa
▁emil
▁extrem
▁wander
scribe
▁trail
▁hypothes
▁stigma
▁advent
coherent
delphi
▁cockroach
▁complication
▁conscience
▁elbow
▁envision
▁execution
▁metropolitan
▁obligation
▁palestine
▁prevail
▁rediscover
▁resurrect
▁soccer
▁testimon
galactic
hazard
▁dispute
▁nairobi
▁syringe
▁taboo
▁triumph
▁altruis
▁bulk
▁mutilat
▁repetiti
▁resort
▁butterfl
▁austria
▁freud
▁philanthropi
▁prophet
▁immerse
▁auditorium
▁scholarship
▁rigid
▁thirty
▁reconcil
▁suspicious
▁ideo
▁potent
▁graham
▁suburban
▁iceberg
▁flush
▁brake
▁bono
▁posture
▁jackson
▁astronomical
▁calci
▁reassur
▁attachment
▁gigant
▁communal
▁galleries
▁robin
▁proton
closure
traumatic
▁spaceship
▁wallet
▁overlook
▁pri
▁knot
▁worldview
▁regenerati
▁intel
▁companion
▁democratiz
sperm
▁jess
actor
▁pip
breaking
▁phila
▁poo
▁acquir
▁receiver
secure
conflict
▁damag
cultural
walk
piece
▁cole
linear
▁justify
hran
kill
lux
▁superhero
▁characterize
▁marsha
▁disabilit
▁constrain
▁accent
zan
ngest
▁circulat
disciplinar
▁ambulance
▁avenue
▁bamboo
▁cochlea
▁constitute
▁defect
▁fluorescen
▁guinea
▁homosexual
▁railroad
▁reservation
▁savanna
▁subsequent
▁sydney
▁template
▁testosterone
▁vector
▁volcani
▁chalk
▁doubling
▁erotic
▁reciproc
▁superior
▁honeybee
▁exceed
▁glory
▁inspect
▁masterpiece
▁scroll
▁supercomputer
fensive
▁hatred
▁thrust
▁verge
▁450
▁quiz
▁temptation
▁indication
▁straw
▁53
▁slate
▁hence
▁beast
▁ease
▁khan
▁rna
▁kiri
▁playground
▁mustard
▁abstraction
▁tinie
aki
▁roos
▁detro
▁nanotechnolog
▁daylight
▁inmates
▁erase
▁lamb
▁jami
▁pul
▁fisc
▁plato
▁collector
▁paradi
pend
collider
▁epic
acco
▁periodic
▁warp
▁coma
▁sanitar
dental
▁penetrate
classifie
▁geographical
▁pub
atitude
▁radioactiv
▁plac
▁emit
section
▁northwest
▁causal
huse
garte
atomic
evel
fashion
screen
▁reasonabl
wide
heid
▁sensibl
▁indicat
built
▁julia
▁kep
▁nurs
▁legend
▁induc
▁refus
apping
grader
▁sculpt
▁cultivate
razine
▁decorat
▁auditor
▁acquisition
▁agnostic
▁bhutan
▁copernic
▁curtain
▁diminish
▁doctrine
▁dysfunction
▁epiphan
▁hobby
▁immortal
▁lakota
▁mortgage
▁murray
▁obsolet
▁occupie
▁pavilion
▁pivot
▁respirator
▁sovereign
▁supplement
▁tamiflu
▁decentraliz
▁thunder
▁regain
▁stagger
▁praise
▁propulsi
▁epilep
▁queue
▁sermon
▁sterile
▁mutant
▁orientation
▁rival
▁urgent
▁oops
▁distress
▁singular
▁notebook
▁darpa
skirt
▁devise
▁cruise
▁salv
▁admitted
▁shove
▁timber
▁mutate
▁romance
▁offshor
▁simulator
crony
▁drip
▁distraction
▁reconnect
▁fisherm
▁indicator
▁weakness
▁consultant
▁crust
▁assess
▁guru
▁lyric
▁socio
▁cameron
▁skat
▁neurological
▁revolutionar
▁ramp
lateral
cumen
▁dorm
▁unifie
▁patric
▁booth
▁bali
▁pakistani
▁gluc
cover
▁maria
▁collaborat
hitler
▁cia
dominate
▁patien
rief
▁autist
europa
position
industrial
massive
specific
spread
complete
text
virus
▁dug
fg
▁commentar
ilia
witt
▁gha
▁chick
▁balcon
▁sympath
ambiguous
replicating
▁apparatus
▁armstrong
▁caregiver
▁ceramic
▁distill
▁excerpt
▁georgia
▁inexpensive
▁irrelevan
▁laureate
▁lithium
▁locomot
▁pervasive
▁pragmatic
▁recurr
▁reflex
▁resonance
▁responsive
▁rhetoric
▁satisfie
▁sibling
▁sulfur
▁taiwan
▁tectonic
▁tempest
▁zimbabwe
▁dallas
▁darfur
▁energetic
▁fission
▁incubator
▁lawsuit
▁sediment
▁sentiment
▁thorough
▁benign
▁spawn
▁snail
▁michel
esteem
▁ingenious
▁opposition
▁warehouse
▁hydrocarbon
▁nepal
▁venus
▁grind
▁permit
▁modify
rizon
▁matern
▁embass
▁comedian
phin
▁palace
▁facult
▁regulator
racial
▁pinpoint
▁superstar
pathetic
▁champ
▁worthwhile
▁blanket
▁racis
▁nuance
elope
▁walter
▁58
▁excellence
▁auro
▁packet
▁skype
▁monet
▁therapist
▁apologize
▁chok
eanor
▁titanic
▁188
▁infus
▁gaze
▁tapestr
▁contractor
▁shave
colonial
▁geneticist
▁legendar
▁geometric
▁esp
▁employer
odd
▁compact
▁prioritize
▁colli
▁entitle
terior
laughter
▁methodolog
case
▁sim
phal
▁cite
media
audi
▁flex
▁exceptional
health
finish
iform
▁interconnect
exist
▁visualiz
ionist
anthrop
▁biotech
▁possess
▁prosper
▁emphasi
▁nicole
▁administrator
▁anecdote
▁biomaterial
▁bulgaria
▁charcoal
▁corridor
▁embark
▁hominid
▁imbalance
▁odysse
▁phthalate
▁recipient
▁relevanc
▁retrofit
▁scatter
▁servant
▁skyscraper
▁tadpole
▁turbine
▁unimaginabl
▁unpredictabl
▁biblical
▁brainstorm
▁choreograph
▁encrypt
▁fierce
▁hollow
▁lawrence
▁provoke
clamation
▁adjacen
▁steak
▁cereal
▁discard
▁bookstore
▁cinema
▁sponge
▁motorcycle
▁audaci
▁aquariu
frost
▁oscar
▁dictatorship
▁chuck
▁vague
▁splash
▁achill
▁unsustainabl
▁scottish
▁forehead
▁headphone
▁wiki
▁1,1
▁holoc
▁biograph
▁galil
▁vaccinate
hhh
knit
▁dude
rosion
▁possession
▁extremist
▁chill
▁roger
▁clash
▁spade
▁accomplishment
▁clark
▁respectful
change
▁1940
▁physiological
▁saul
▁troll
▁wetland
▁islamist
sterda
▁jenni
balone
▁juni
▁riches
▁corti
two
barack
▁globaliz
▁visionar
chester
▁woo
▁gentl
▁slap
pong
brow
▁rib
lix
▁northeast
▁curv
sighted
kate
▁wool
home
▁curat
argon
quarter
author
bao
birth
carbon
brain
pool
▁petri
educat
edited
wash
▁revolutionize
busi
▁atmospher
▁dissect
▁biomimic
▁bureaucrac
▁algebra
▁analytical
▁antidepressant
▁arrogan
▁buffet
▁carcinogen
▁certificate
▁christoph
▁compliment
▁congratulat
▁conspirac
▁crochet
▁disseminat
▁estrogen
▁inclusive
▁interference
▁intimidat
▁katrina
▁multiverse
▁opponent
▁oregon
▁pentagon
▁pepsi
▁premature
▁prevalent
▁rainbow
▁recreation
▁repertoire
▁rigorous
▁sapien
▁superconductor
▁suspens
▁treadmill
▁turbulen
▁orleans
▁windmill
▁announcement
▁pneumo
▁wrestl
▁tweak
▁blunt
▁ecsta
▁condens
▁enlist
▁nudge
▁latitude
▁monopol
▁quantitative
▁counterpart
▁imaginative
▁scripture
▁vibran
▁holistic
▁fond
▁beaver
▁renew
▁mantis
▁trustworth
▁stripped
▁rooftop
▁maldiv
▁landfill
▁lesion
▁cynic
▁aisle
▁draft
▁distinctive
▁siege
▁marble
▁uncover
junction
▁botan
malia
▁fatty
▁shortcut
▁seque
▁inflation
▁pedal
▁bake
▁tolerate
▁bombard
▁promotion
▁parade
▁deployment
▁geological
▁boson
▁quantify
▁simplistic
▁hover
▁knight
▁nutritional
▁reviv
▁advancement
▁lanka
▁insult
▁tuck
▁1800
▁russe
▁compris
▁minimize
venge
▁poop
utilize
▁populat
▁amuse
hog
▁geolog
▁heartbreak
unny
▁estimat
▁gaz
▁humbl
hex
skies
▁simulat
▁styl
pollinat
▁astonish
sensitive
appropriate
design
organic
government
grain
▁frequent
bank
resistan
talk
▁medal
▁southwest
bertie
▁synthesi
▁perpetrat
▁aerodynamic
▁astrolabe
▁bleach
▁coalition
▁dreadful
▁exhilarat
▁extrovert
▁fountain
▁glenn
▁hyperbolic
▁intestine
▁mermaid
▁pianist
▁pixel
▁plague
▁plaque
▁rectangle
▁reluctant
▁replicator
▁seatbelt
▁serotonin
▁shoreline
▁snapshot
▁tribute
▁turkish
▁unacceptabl
▁vapor
▁genital
▁cobra
▁modular
▁dominance
▁cowboy
▁enslav
▁puppy
▁eames
▁shuttle
▁galo
▁libya
▁underpin
▁boreal
▁mainframe
▁tidy
scient
▁capaciti
onze
▁imperial
▁subtract
▁karen
▁senator
▁mound
▁gehr
▁gaga
▁danny
▁stall
▁techno
▁sculptor
▁firefl
rgio
▁skydiv
▁degradation
▁kamen
▁cement
▁restriction
▁hallway
▁conviction
▁romo
▁lava
▁ninety
▁peek
▁innate
▁84
▁mimick
▁deadline
acci
▁accelerator
transcendence
▁tailor
▁slot
▁originate
rumb
▁luna
▁redefin
▁maximize
▁oceanograph
▁participator
▁prolif
runner
▁leverag
nfl
▁pharmac
▁valu
▁aero
chai
▁swee
hrir
▁purchas
▁mello
spirational
ndon
▁industrialize
▁southeast
square
condition
economic
women
daughter
week
national
turn
ubun
▁reconcili
▁hiroshi
nugget
▁accommodate
▁antidote
▁apprentice
▁catalyst
▁chariot
▁cumulative
▁diffuse
▁exclude
▁fifteen
▁hijack
▁hummingbird
▁implicit
▁improbabl
▁jealous
▁malignan
▁millisecond
▁miraculous
▁module
▁oblivio
▁orangutan
▁provocati
▁reptile
▁retrospect
▁seizure
▁sprawl
▁squirrel
▁sulfide
▁surrender
▁unequal
▁unnecessar
▁withdraw
▁affirm
▁apocalyp
▁deconstruct
▁fungus
▁gamma
▁hectare
▁jamaica
▁microwave
▁rouge
▁rupee
▁sociologist
▁dilut
▁reckless
▁stefan
▁trawl
▁uplift
▁dazzl
▁delegat
▁hyena
▁audition
▁savage
▁spoil
▁perfume
▁ivory
▁throat
▁mahmo
▁brute
▁quark
▁napkin
▁burial
▁illiterate
▁bleeding
▁obey
consistenc
▁kidnappe
▁bruise
▁composite
▁monarch
▁substitute
▁nanoscale
▁finite
▁aspire
▁fingerprint
▁spore
▁saddle
▁telecom
▁hunch
▁excessive
▁persistent
▁patron
▁microblog
▁passport
▁ecologist
▁forgiveness
▁decoration
▁kitten
▁disagreement
▁imitation
▁iteration
▁marx
▁seren
▁anomal
▁cair
▁contributor
▁qui
▁claus
ivan
▁paradoxical
bach
awkins
lude
▁fibro
▁behav
▁antiqu
structure
taller
▁nih
cycle
▁complet
▁increment
spiring
phone
▁collide
▁dementi
nyu
▁uncertain
▁elegan
connected
▁optimist
aylo
▁cogniti
▁surge
proving
huma
▁rug
resolution
belief
species
machine
color
great
green
▁intellect
▁misunderst
▁adversar
orthodox
▁bumblebee
▁concussion
▁daunting
▁diffusion
▁discount
▁dizzy
▁elusive
▁gateway
▁hilarious
▁hypothetical
▁inferior
▁leisure
▁perceptual
▁petition
▁plummet
▁primordial
▁proteomics
▁provision
▁redundan
▁refresh
▁ridicule
▁taxpayer
▁uranium
▁vegetarian
▁venue
▁wizard
▁zambia
▁bonnie
▁maggot
▁mitchell
▁nanotube
▁preoccup
perpetuat
▁embryonic
▁invasion
▁fingertip
▁gorilla
▁captcha
▁dimitr
▁postcard
▁hippie
▁lymph
▁wobbl
▁vegetati
▁stagna
learn
▁scandal
▁railway
▁savor
▁impatient
▁plural
▁subconscious
▁battlefield
▁anchor
patient
archaeolog
▁radiologist
▁pollinator
▁attain
▁championship
▁stockhol
▁eyebrow
▁costume
▁deceptive
▁collage
▁crises
▁bionic
▁sciss
▁pension
▁twentie
▁cern
▁graceful
▁portray
▁stiff
▁humid
▁saturat
▁frack
▁deceive
▁facade
▁guideline
▁droplet
▁reframe
▁sentien
▁cultivat
▁precipitat
▁exile
defy
▁flare
▁vienn
▁whiske
▁shah
▁novelist
▁levitat
▁shiv
▁assert
▁simplify
parate
▁bounc
▁remedi
▁retir
respective
▁puzzl
▁clarif
gatherer
▁mott
▁pav
▁interdependenc
flection
▁resembl
rude
credible
etti
▁destin
▁acknowledg
▁brillian
▁clap
ennial
purpos
▁fluctu
clusion
▁flour
▁outrage
▁lexico
▁susceptib
conceivabl
jazeera
▁applaud
▁archimedes
▁cheetah
▁cradle
▁discriminati
▁eleven
▁giraffe
▁humpback
▁identification
▁immoral
▁imperfect
▁knob
▁lesbian
▁marshmallow
▁maslow
▁matthew
▁monologue
▁persuasive
▁photosynthesi
▁picasso
▁practitioner
▁prejudice
▁proliferation
▁prosecut
▁ribbon
▁spectroscop
▁troubling
▁twelve
▁astounding
▁biodegrad
▁decisive
▁eagle
▁empirical
▁stockpile
▁amplify
▁merchant
▁multitask
▁retriev
▁shareholder
▁unexplo
▁advertisement
▁charisma
▁modification
▁teapot
▁1.4
▁empti
▁staple
▁prosthes
▁antiretroviral
▁gossip
▁byproduct
▁sleeve
▁sniff
▁stink
▁enroll
▁sensual
▁atheism
▁plow
▁sequester
▁gridlock
▁nominate
▁subscribe
spora
▁outrageous
▁paragraph
▁reply
fetch
▁suburbia
▁ahmed
withstand
▁feasib
▁outfit
▁rebellio
▁persian
▁dividend
▁automo
▁nash
litary
borough
▁bride
▁forager
▁hanna
ahedron
▁tumbl
▁purse
guay
trand
scow
large
▁variant
▁pisa
▁barbie
addam
brush
fifth
worm
doubt
limited
conduct
correct
▁ellen
protect
white
▁accr
▁considerabl
▁accentu
▁attribut
▁inhale
▁interpla
▁conserve
peck
▁curse
bureaucratic
ollock
▁insula
rugg
▁erod
▁calv
▁secondar
heim
▁utiliz
▁accord
▁decompos
▁activis
lumber
mort
▁franc
▁desperat
▁dictat
▁refrigerat
▁contradict
▁reproducti
▁apolog
▁miniaturiz
▁vertebra
fahren
▁appetite
▁athletic
▁buffalo
▁carpenter
▁chernobyl
▁cucumber
▁cyborg
▁elevation
▁embodiment
▁excavat
▁excruciating
▁expenditure
▁fracture
▁fragrance
▁ghetto
▁imprison
▁incarcerat
▁inhabitant
▁megawatt
▁mockingbird
▁moisture
▁necessit
▁negro
▁nevada
▁nikola
▁precaution
▁prestig
▁prohibit
▁rhode
▁rudder
▁schwarz
▁smuggl
▁squatter
▁stakeholder
▁tornado
▁umbrella
▁unravel
▁vicious
▁yogurt
▁colombia
▁empathize
▁nickname
▁prehistor
▁sargass
elecommunication
▁affluen
▁churn
▁detach
▁handbag
▁niece
▁resign
tyrann
▁spoof
▁swirl
▁crease
▁parrot
▁pluto
▁whack
▁effic
▁framing
▁grappl
▁seamless
▁pornograph
▁instructor
▁propagat
▁sushi
▁eeg
▁paintbrush
▁slamm
▁autops
▁pediatrician
▁sutherland
▁derivative
▁dumm
▁paleontologist
▁anthon
▁sudh
▁revolv
▁crumbl
▁pacemaker
▁android
wield
▁sunset
▁gait
▁dragline
▁admission
▁shaw
▁boeing
▁irish
▁verify
www
▁expir
▁geologist
▁numerical
▁shim
▁cellulos
setting
▁molt
lasting
bilitat
husse
function
group
people
evolv
literate
clean
▁hostilit
▁handwrit
▁marina
▁subsidize
▁aggregat
▁deflect
sippi
▁pollinate
▁liabilit
communica
▁energ
western
▁squeez
▁mathematica
elimina
▁compass
quire
incidence
▁anonym
mmunity
instruct
▁contempt
▁neutrino
▁repositor
▁administrative
▁amputation
▁arthriti
▁assault
▁bureau
▁cafeteria
▁condemn
▁declaration
▁denominator
▁detergent
▁ecuador
▁elastic
▁gabriel
▁gradient
▁grammar
▁kurzweil
▁logarithm
▁lucifer
▁pinnacle
▁relentless
▁sabbatical
▁scribbl
▁sophistication
▁supernova
▁therapeutic
▁typewriter
▁whirlwind
▁asylum
▁autobiograph
▁calibrate
▁disintegrat
▁mismatch
▁qualify
▁redistribut
▁sausage
▁skateboard
▁frown
▁plume
▁modalit
▁evolutionarily
▁cramm
▁glance
▁scoop
▁disparit
▁trance
▁atrocit
▁lexicograph
▁ascend
▁cherish
▁irritat
▁debut
▁evoke
▁await
▁influenza
▁multimedia
▁absent
▁cursor
▁relay
▁balkan
▁maze
▁telegraph
▁subset
solicit
▁ruling
▁igbo
▁inertia
▁griev
▁theorist
trenche
kahn
▁asphalt
▁anthropolog
▁hike
umann
▁patrol
▁mortal
credit
mbra
building
▁hyperactiv
inuit
▁reshap
▁glori
▁inclin
claim
confidence
programm
infect
expression
spoke
distance
typical
familiar
famous
thousand
woman
different
living
▁ensu
guate
▁husk
▁senat
boggl
robic
▁interven
confrontation
▁histori
muniz
▁penetrat
stabiliz
▁hocke
environmentalist
▁standardize
▁hardwir
▁stunn
exercis
▁spher
▁unchang
induce
▁disast
▁precipi
tanbu
▁browse
▁recess
sufficien
▁invisib
▁combusti
▁municipal
cursion
extraterrestrial
neurotransmitter
percussion
▁burrow
▁caution
▁charlotte
▁chimney
▁confession
▁dashboard
▁diabetic
▁discriminate
▁duplicate
▁encompass
▁enrique
▁gapminder
▁immigrat
▁irregular
▁litigation
▁messenger
▁microorganism
▁microprocessor
▁migrant
▁neurologist
▁ottoman
▁outweigh
▁paycheck
▁peacekeep
▁pluripoten
▁privatiz
▁quadruple
▁recharge
▁reconfigur
▁sanctuar
▁soprano
▁sorrow
▁spreadsheet
▁squash
▁squirt
▁surpass
▁unicorn
▁valentine
▁volvo
▁airbag
▁burglar
▁discourag
▁janitor
▁remorse
▁spectator
▁ukrain
▁alligator
▁bargain
▁carriage
▁filth
▁renovat
▁retaliat
▁scrambl
▁lettuce
▁prophec
▁recline
▁repulsi
▁desalinati
utopian
▁critter
▁proxim
▁corps
mpulsive
▁forensic
▁webcam
▁vaccination
▁rearrange
▁goddess
▁contingen
▁reign
▁alleviat
▁miniature
▁salut
▁biomedic
▁martian
▁harass
▁ignit
▁worn
▁speculation
▁smack
▁deteriorat
▁snack
▁orchid
▁jabb
grazing
▁ovari
millionaire
▁teme
▁repel
▁refra
▁ezra
egian
▁graze
▁archeolog
▁classify
violent
▁energiz
loop
&
?
