@@UNKNOWN@@
@start@
@end@
[pseudo1]
[pseudo2]
[pseudo3]
[pseudo4]
[pseudo5]
[pseudo6]
[pseudo7]
[pseudo8]
[pseudo9]
▁,
▁.
▁und
en
▁die
s
n
▁
▁sie
▁das
▁der
▁ich
▁ist
▁in
▁wir
▁es
e
▁zu
▁ein
▁&
;
t
▁eine
quot
▁von
▁nicht
▁diese
▁dass
▁den
▁mit
▁auf
▁wie
r
▁an
m
▁sich
▁man
-
▁sind
▁für
▁aber
▁wenn
▁:
▁so
er
▁haben
▁er
▁was
▁?
▁als
▁um
▁war
▁aus
▁im
▁dem
▁also
▁über
▁uns
▁können
▁hier
▁oder
▁werden
▁einen
▁des
▁hat
▁kann
▁–
▁auch
▁einer
▁dann
▁einem
▁sehr
▁vor
▁etwa
▁nach
▁wird
▁nur
▁sein
▁menschen
▁da
▁ihre
▁gibt
▁ihnen
▁mich
es
▁meine
▁sehen
▁--
▁bei
▁noch
▁habe
te
▁mir
▁welt
▁alle
d
ung
▁mehr
▁durch
▁unsere
▁ihr
▁weil
▁leben
▁wirklich
st
▁würde
▁wurde
▁nun
▁zum
▁ver
▁machen
▁keine
▁wo
▁am
k
▁viel
▁ge
▁immer
▁andere
▁dies
▁tun
▁-
▁wissen
.
▁jetzt
▁be
▁zeit
▁dinge
▁sagte
▁bis
▁hatte
▁zwei
▁viele
▁ab
▁du
▁einfach
▁leute
g
▁selbst
in
ten
▁sagen
▁art
▁bin
b
▁mein
▁müssen
▁alles
▁denn
▁jahren
o
l
▁waren
▁ganz
▁damit
▁anderen
▁mal
▁wieder
▁gut
y
▁vielleicht
▁seine
▁ob
▁diesen
▁zur
▁ja
▁jahre
▁unter
▁geht
▁all
▁einige
▁muss
h
▁schon
▁kinder
▁warum
▁möchte
▁drei
▁tatsächlich
▁macht
f
▁kleine
an
▁geschichte
▁welche
▁konnte
apos
z
▁genau
▁davon
▁dort
▁zurück
▁weg
ser
▁weiter
▁könnte
ge
▁zusammen
▁kein
▁denken
▁teil
▁paar
dem
▁ihn
▁je
▁darüber
▁werde
▁jahr
▁hatten
▁s
de
ig
▁un
▁ganze
▁lassen
lich
▁gehen
▁problem
▁wollen
▁beispiel
ä
be
▁nie
▁weiß
w
▁während
▁meiner
▁natürlich
▁wollte
den
sch
▁jeder
▁neue
▁gab
▁dazu
▁denke
▁kommen
heute
u
▁wurden
▁wäre
a
▁land
▁große
em
▁vom
zu
▁jemand
▁sondern
▁unser
le
▁frage
▁sogar
▁zwischen
▁gemacht
ht
▁glaube
▁unserer
▁gerade
ter
re
▁erste
▁hätte
▁tag
▁doch
▁sagt
▁will
▁finden
▁ohne
▁einmal
p
▁geben
sten
▁prozent
▁ging
▁arbeit
▁heraus
▁ihrer
▁ersten
▁dafür
▁wasser
▁kommt
▁jede
▁passiert
▁zeigen
ste
la
ver
c
▁verstehen
▁sch
▁daran
▁geld
▁eigene
▁meisten
▁millionen
i
▁hin
▁pro
▁idee
▁bild
▁dachte
▁wichtig
▁gehirn
▁besser
▁sollte
keit
▁dabei
▁;
▁nehmen
▁stellen
▁letzten
schen
▁vier
▁ende
▁ziemlich
▁möglich
▁daten
▁ent
▁könnten
▁eigentlich
▁vielen
▁frauen
us
ie
ern
el
▁arbeiten
▁kam
▁k
iert
▁fragen
▁sprechen
▁grund
▁sollten
al
▁bekommen
▁darauf
it
▁lebens
▁verschiedene
▁seit
▁gegen
et
▁gleich
heit
▁bedeutet
▁raum
▁technologie
ur
▁gute
▁fünf
▁nichts
▁dollar
ieren
▁weniger
ische
▁re
▁20
▁sache
ma
▁energie
▁weise
▁computer
▁b
ö
▁wahrscheinlich
▁10
um
rum
ar
▁heiß
0
on
▁lernen
▁glauben
▁bringen
▁menge
▁zeigt
▁richtig
▁danke
kt
as
▁hoch
▁begann
▁ihm
▁co
erweise
▁sicher
▁gesehen
▁meinen
▁möglichkeit
▁c
▁wissenschaft
▁großen
▁jedes
der
pf
▁brauchen
ik
liche
▁her
▁sei
▁heut
▁seite
▁licht
▁körper
li
▁zukunft
▁versuchen
ungen
▁...
▁information
▁schnell
ischen
▁nein
bar
▁lang
▁jeden
▁musste
▁wenig
▁funktioniert
▁person
▁wer
ro
▁frau
▁einzige
▁beide
▁a
▁erde
▁system
▁unseren
▁später
▁ort
wohl
▁beim
▁nutzen
isch
▁gern
ch
▁lange
ck
▁f
gen
▁weit
▁fast
▁natur
▁fall
▁st
▁gesagt
▁kind
mals
▁z
▁form
ra
▁seiner
▁schaffen
▁p
▁essen
▁hand
ing
▁mutter
▁anfang
▁buch
▁ungefähr
▁neu
ul
▁liebe
▁anders
her
▁schauen
▁stadt
▁oft
▁entwickelt
ha
▁na
▁probleme
▁projekt
il
▁moment
▁dank
▁design
einander
chen
▁internet
▁spielen
▁afrika
▁ted
or
▁w
▁recht
▁helfen
▁klar
▁besonder
▁genug
▁fest
▁auto
▁g
▁erzählen
▁30
▁sah
ion
▁sechs
▁herum
▁m
zeit
▁erst
is
ut
▁la
▁nächsten
▁bevor
at
chmal
ri
ation
▁ideen
▁le
▁klein
▁überall
▁kurz
▁neuen
▁gleiche
▁kennen
2
▁punkt
▁euch
gehen
▁bilder
lichen
▁hinter
me
▁200
▁bauen
▁planeten
▁schwer
ka
lo
▁gar
▁3
▁okay
▁mann
▁gehört
▁mädchen
▁spiel
▁fähigkeit
▁50
▁reden
▁kunst
▁musik
ta
▁nächste
▁film
▁milliarden
ß
▁niemand
▁letzte
▁augen
▁tat
▁schule
to
▁gesellschaft
igen
▁new
▁groß
▁braucht
▁haus
▁dich
mal
bi
▁ok
▁de
▁nennen
▁stehen
▁indien
geben
▁beginn
▁1
▁liegt
▁gefühl
▁hören
▁leuten
▁einzelne
▁verändern
ein
▁männer
▁antwort
▁stellt
ol
▁usa
▁deshalb
▁unglaublich
▁gebäude
▁soll
▁unternehmen
▁allen
we
ft
▁kopf
▁erfahrung
▁oh
zi
▁solche
▁erreichen
▁namens
▁t
▁lösung
▁benutzen
▁wahr
▁familie
ige
▁minuten
▁bereits
▁frei
ab
▁halten
▁arten
ko
ell
▁ko
▁100
nach
gel
är
▁mo
▁versucht
▁erkennen
▁15
di
▁steht
▁geschichten
▁ma
▁gruppe
▁machte
▁gott
▁menschliche
▁krankheit
4
▁vater
▁r
▁dr
land
▁vorstell
▁normal
▁los
▁verbindung
gebracht
dessen
▁teilen
▁junge
▁alt
▁glücklich
▁soziale
▁bitte
▁d
▁stunden
▁entwickeln
▁oben
▁luft
3
▁innerhalb
ll
▁mag
5
aus
▁glück
▁irgendwie
▁aller
▁regel
cht
äh
▁china
lässt
▁acht
bel
un
▁dir
▁ca
schließlich
▁dari
x
▁besten
▁lehrer
▁weitere
▁wohl
▁krebs
vi
▁interessant
os
▁treffen
▁bewegen
▁wert
▁ziel
▁statt
▁sprache
▁bewegung
ff
▁erhalten
▁patienten
▁herz
▁lage
zustellen
▁eltern
v
▁al
da
▁sage
▁direkt
▁sachen
ämlich
bringt
▁verwenden
ende
▁nahm
▁sinn
▁beginnen
bringen
▁menschlichen
▁stück
▁hause
▁mittel
▁york
ho
au
▁anzu
ken
▁freunde
▁2
▁zweite
▁roboter
▁falsch
▁wegen
▁entscheidung
▁regierung
▁video
mit
8
satz
▁umwelt
▁do
▁beste
▁daher
man
▁verändert
▁schön
▁damals
▁li
▁wort
▁früh
ien
.000
▁entwicklung
91
6
▁angst
▁universum
fe
▁ra
ger
▁18
▁auszu
▁kultur
ler
ton
ad
▁gemeinschaft
▁fand
▁ändern
▁tut
▁fragte
▁ro
▁kindern
▁4
▁einigen
so
ti
▁überhaupt
▁unterschiedlich
iv
▁vortrag
▁bekannt
▁bo
na
▁getan
▁führen
op
▁länder
▁schreiben
▁40
▁manche
▁verhalten
▁öl
kommen
▁zehn
lei
▁o
▁wirtschaft
bau
▁bereit
ke
▁führt
▁nimm
▁sieben
spiel
▁technik
▁stand
▁he
▁zwa
▁sa
▁eher
po
statt
vor
ze
▁unterschied
setzen
▁wissenschaftler
ic
▁mi
und
▁worden
▁5
doch
▁eis
▁erinner
▁benutzt
do
▁gedanken
▁fühlen
▁schwierig
▁h
pe
▁tiere
ster
tra
▁prozess
▁allem
▁vorstellung
he
pa
▁betrachten
▁tier
ry
▁mensch
ierte
▁unten
▁jahrhundert
▁hilfe
igkeit
▁ka
ill
▁ha
00
▁voll
erst
ität
stand
▁tages
co
▁bestimmt
▁markt
▁reihe
▁typ
▁neben
▁staaten
▁lesen
▁richtung
93;
▁bekam
▁tage
▁anderer
sp
▁kraft
▁preis
▁zahl
▁jungen
▁publikum
▁deine
▁thema
▁19
▁zweiten
▁genauso
▁grunde
end
▁wahl
▁kleiner
▁schritt
pp
▁situation
▁verwendet
▁erfolg
los
▁plötzlich
▁herausforderung
▁leicht
▁kamen
▁jene
▁schlecht
▁wusste
jährige
ismus
wa
▁woche
mi
teil
▁amerikanische
▁kosten
▁absolut
▁freund
zen
▁monate
ah
▁größer
▁folgende
▁genannt
▁sterben
▁völlig
th
▁hohe
▁zellen
▁modell
form
▁zuvor
ba
▁boden
▁v
▁größte
ce
▁kaufen
▁falls
▁erschaffen
▁komplett
9
ei
▁krieg
▁blick
▁ho
▁lösen
▁verbunden
uch
▁zer
tro
gang
▁zahlen
va
auf
▁se
▁erzählt
▁sollen
▁hast
id
▁globale
▁entfernt
▁job
▁meinung
bei
▁bewusst
▁richtige
system
führen
▁wochen
▁stark
▁haupt
1
▁vorher
▁muster
tage
art
▁ähnlich
cken
▁tatsache
▁gegenüber
▁amerika
▁politische
▁gemeinsam
▁aussehen
▁fliegen
▁l
▁bleiben
▁gesundheit
▁besteht
▁kon
▁draußen
▁namen
▁umgebung
▁neues
durch
mo
▁erreicht
▁gefunden
▁br
▁ki
▁bedeutung
▁bau
▁schrieb
ant
ir
▁morgen
legen
▁stellte
im
▁foto
treten
sa
▁künstler
▁laufen
▁extrem
▁arm
▁ding
▁hab
▁labor
▁dar
▁scheint
▁mache
ber
tel
▁jo
▁funktionieren
▁12
ale
halten
▁rein
sche
▁sozial
▁60
▁autos
▁erklären
▁bestimmte
▁raus
▁wären
▁fa
▁offensichtlich
▁suchen
▁ta
son
▁stelle
▁struktur
fall
▁wahrheit
▁gewesen
▁bessere
än
eck
▁platz
▁oberfläche
▁bevölkerung
▁allein
▁weltweit
▁familien
▁bücher
▁einfache
▁passier
ick
▁nachdenken
▁gelernt
▁bewegt
▁großartige
▁überleben
▁wichtigste
▁interessiert
▁innovation
▁schw
fer
▁schul
▁material
▁reise
▁organisation
▁hinein
▁u
▁größten
▁ba
▁offen
▁darau
enden
ine
▁gewalt
spricht
selbe
▁team
▁gezeigt
▁lass
▁bio
▁geworden
▁blut
▁anzahl
▁gebaut
▁sehe
▁tod
▁medien
▁me
▁wind
▁alter
▁programm
ga
▁fehler
▁größe
▁jung
▁revolution
▁einzu
▁rest
▁ozean
▁wichtige
tz
▁aufzu
▁ländern
ett
▁ange
▁vi
nde
▁6
ist
▁hilf
ia
▁bereich
▁verloren
▁arbeitet
▁sprach
▁hände
▁bildung
▁egal
▁the
ete
▁pa
▁meter
▁bist
wi
▁studenten
▁25
ag
▁pi
▁technologien
▁riesige
▁hundert
▁ausge
up
▁fertig
▁su
isten
▁möchten
▁konzept
▁kurze
▁stimmt
▁nacht
▁ne
▁hoffnung
▁guten
bo
▁experiment
ör
rin
hi
ziehen
bt
▁länger
nehmen
▁sp
▁80
▁englisch
▁rot
▁bekommt
▁echte
zahl
▁dna
▁früher
▁findet
▁ar
bild
eln
▁sonst
▁aufgabe
▁versuch
▁mitgefühl
▁formen
sh
▁flugzeug
sam
ve
schaft
▁teile
▁forschung
ug
▁to
▁gebiet
stellen
▁universität
▁8
pi
▁gesamte
▁eigen
▁vereinigt
▁erfolgreich
ru
▁fanden
▁strom
▁evolution
▁sicherheit
▁stimme
▁sofort
ly
▁bar
▁rolle
▁nenn
▁wesentlich
▁versuche
▁fing
sicht
bare
tri
▁per
haft
punkt
▁rund
▁gesicht
▁hoffe
▁papier
ph
▁mögen
ca
▁fahren
▁sonne
▁sitz
▁maschine
ierung
▁brachte
▁langsam
▁veränderung
▁großartig
fi
▁produkt
▁beziehung
▁reich
ed
gestellt
▁theorie
▁druck
go
nd
▁super
▁medizin
▁hälfte
▁geboren
lin
▁folgen
▁straßen
▁wann
▁näher
fahren
fangen
am
▁genommen
ku
▁erklärt
▁pflanzen
▁gegeben
▁lieben
▁hinaus
▁alten
▁städte
▁san
hält
▁links
▁online
▁ri
▁lebt
▁geschrieben
▁hu
▁geist
▁fisch
ek
▁schüler
▁kamera
rie
▁bu
▁zeug
▁bleib
▁i
del
▁interessante
▁übrigen
▁rede
▁national
▁ansehen
▁bewusstsein
▁zeige
▁setzen
▁tragen
▁bi
leben
▁erlaubt
▁ließ
▁liegen
ker
▁tausende
▁gene
▁sorgen
▁wachsen
▁tief
▁lo
▁herauszufinden
schw
hin
▁laut
▁plan
▁90
▁größere
▁geschieht
▁ziehen
▁mitte
▁unseres
▁funktion
▁entwicklungs
▁meer
▁traf
arm
führung
▁studie
tag
▁arbeits
▁rechts
weg
rate
▁religion
▁rück
elle
▁realität
▁toll
▁monat
▁vergessen
▁generation
hal
▁gleichzeitig
▁finde
▁ergebnis
▁versuchte
len
▁kontrolle
▁po
mon
▁us
▁außer
▁no
▁gründe
▁region
▁dorf
▁betrachtet
▁demokratie
▁wichtiger
ling
▁objekt
▁bald
▁schlechte
▁chris
▁alte
▁pe
▁durchschnitt
lu
tion
ac
seite
▁gesprochen
▁aktiv
▁straße
wert
ät
▁unmöglich
lie
▁gerät
▁firma
geht
stoff
▁öffentliche
▁abge
▁wand
▁schneller
voll
ring
▁google
▁hiv
▁anschauen
▁abzu
ng
▁mu
rat
▁16
▁arbeitete
ja
che
▁aufmerksamkeit
▁hart
▁fort
▁ihres
▁unbe
▁selbe
▁mach
ki
▁dein
▁nahe
bald
▁schulen
▁ständig
sel
▁behandlung
▁vorbei
▁europa
bahn
▁beobachten
▁dritte
▁nachrichten
▁erstaunlich
ator
▁unglaubliche
▁neun
▁besitz
▁leidenschaft
ron
▁spaß
hl
isiert
▁abend
lassen
▁einfluss
▁haut
▁gruppen
▁trotzde
▁diejenige
▁allgemein
▁worte
▁karte
▁of
dig
▁ex
▁eben
greifen
▁menschheit
▁mehrere
▁gearbeitet
▁verbesser
▁zumindest
▁eigenschaft
▁politik
▁gesetz
rei
wegen
▁ermöglicht
ier
▁hervor
▁echt
▁klasse
▁verlieren
▁netz
richten
▁pu
tritt
welt
▁ga
gi
mittel
▁sinne
ip
▁auswirkung
▁entdeckt
▁himmel
plan
▁versch
▁handelt
ub
▁gesundheits
▁nachzudenken
▁orte
j
▁büro
igung
▁verlassen
▁außerdem
▁tür
▁schaut
▁grenzen
leg
▁moderne
▁kern
▁ergebnisse
▁blau
▁feuer
▁9
des
ich
▁reaktion
▁armut
über
sehen
▁cool
▁führte
▁großer
▁mathematik
nder
▁gewinnen
sweise
▁gewinn
▁tolle
▁kar
▁monaten
▁ju
red
lang
▁produzieren
▁studien
▁seiten
werk
▁ebene
▁zusammenarbeit
▁david
▁ehrlich
▁nenne
▁sitzen
▁schafft
▁passierte
if
▁spielt
ment
iger
▁zugang
wo
ok
▁j
▁herr
▁atom
▁geschehen
▁erzeugen
cher
▁prinzip
zug
▁entdecken
▁wussten
▁y
ide
rb
pass
▁finger
▁14
gleich
▁verrückt
▁vertrauen
▁irgendwo
▁spezies
▁telefon
▁kau
▁john
▁bühne
▁wa
▁baum
▁mittler
ischer
folge
gebaut
▁wirtschaftliche
▁medizinische
▁amerikaner
▁vergangenheit
ord
▁hielt
nächst
▁gesch
▁schöne
stehen
▁begriff
ssystem
▁ad
▁innere
werfen
▁nachricht
io
▁ernst
▁landes
▁netzwerk
laden
▁wirklichkeit
arbeit
▁aussieh
▁sohn
▁sahen
vo
▁bürger
▁vers
▁voller
▁kr
▁elektro
▁bakterien
▁park
▁taten
▁grad
stellung
▁verbinden
▁beispiele
reich
▁einge
▁starb
▁stein
▁software
▁grün
▁firmen
zunehmen
▁flug
▁go
▁sh
▁dieselbe
▁hörte
▁industrie
▁befinden
▁gefährlich
▁beruf
ium
▁motor
▁privat
▁entweder
▁fuß
▁wunderbare
▁machten
▁außen
▁schl
▁freiheit
▁wi
▁baby
▁unge
and
▁erfahren
▁sam
▁charakter
tisch
ak
▁lag
brechen
trag
▁traum
▁halb
arten
falt
▁betr
▁gekommen
ierten
▁leistung
▁spitze
▁mikro
▁vergleich
▁name
▁präsident
▁199
▁verständnis
▁aufgrund
▁ebenso
▁herstellen
▁befinde
sta
▁perfekt
▁si
▁dreht
▁mars
▁nummer
kam
▁aktivität
▁million
▁wein
▁kommunikation
▁designer
▁kreis
▁verkauft
▁klima
▁neuro
▁runter
habt
▁cha
▁bezug
▁messen
the
▁risiko
▁gen
▁persönliche
▁fi
▁ressourcen
schließen
▁warten
▁car
▁linke
▁genom
▁bäume
▁hört
ral
▁artikel
nden
▁eure
▁leid
maschine
▁existiert
▁phänomen
▁schluss
alter
flu
▁interesse
äch
▁benötigt
▁krankenhaus
programm
▁mond
▁sammeln
▁personen
▁läuf
▁irgendwa
▁beweis
▁zufällig
▁nahrung
▁wesen
ehr
haus
▁außergewöhnlich
▁ändert
▁saß
▁hi
▁global
za
kraft
▁entscheiden
rüber
▁see
▁arzt
▁irgendeine
▁sand
▁orten
▁linie
tin
▁ober
▁spiele
▁bisher
▁el
▁erzählte
▁version
technologie
▁praktisch
▁hirn
▁entschieden
kon
▁test
▁schönheit
▁ordnung
▁erinnert
▁uhr
zig
▁sprachen
▁kampf
▁architektur
▁weiss
läuf
▁berg
nis
▁tagen
▁text
▁herausfinde
kommt
▁verstanden
wasser
war
projekt
▁verantwortung
▁mar
▁fotos
stern
▁spreche
fisch
▁sekunden
▁effektiv
▁bilden
▁wunder
stein
▁qu
▁tisch
▁frieden
▁veröffentlicht
▁zentral
▁anti
▁gefragt
▁institution
▁ärzte
▁ton
▁bank
▁di
▁liste
▁miss
▁krank
ere
▁nah
cker
▁verstand
▁zeigte
raum
▁antworten
all
▁komme
▁einander
▁dritten
▁sex
▁web
▁projekte
▁gefängnis
▁untersuchen
▁außerhalb
industrie
▁leisten
▁nutzt
▁rat
wand
▁erzeugt
▁bezahl
▁13
▁farbe
▁hunderte
▁konzentrier
▁handeln
sie
innen
▁medikamente
▁werte
▁fortschritt
▁lehr
▁arbeite
▁em
▁aufregend
▁geh
▁geschaffen
schrei
▁dunkle
par
mann
▁naja
kel
▁gelang
▁ausdruck
▁komplexe
▁hinzu
▁gew
▁geschäft
▁getroffen
▁produkte
▁schwarze
▁punkte
▁gesamten
▁gestellt
▁wörter
▁chance
▁auge
▁nannte
▁wandel
zusage
▁zustand
▁wachstum
▁verschieden
▁for
▁iran
▁eng
▁hält
meter
▁methode
▁überraschend
▁lernte
druck
▁besuch
licher
▁gelegenheit
▁vollständig
bedingt
▁wal
▁verbring
▁programmier
▁stamm
oh
▁zeitpunkt
▁verkaufen
▁nord
▁klimawandel
▁unterstützen
gelegt
gabe
▁älter
▁wohin
noch
▁einkommen
lose
ard
▁normale
▁verbreitet
▁kilometer
▁botschaft
▁suche
▁kollegen
▁verursacht
▁glas
▁gründen
▁11
▁verb
▁höhe
▁herzen
▁inhalt
▁voraus
▁geschah
▁regen
▁trotz
istische
ari
▁beschäftigt
hilfe
▁produziert
▁dunkel
▁retten
▁landwirtschaft
▁wohn
▁digitale
▁fragt
lichkeit
ven
schlag
▁unabhängig
▁elektrische
dass
geschichte
▁tu
▁werkzeuge
fass
▁legt
gefunden
▁traditionelle
ging
age
▁erfunden
▁ursprünglich
▁erwarten
▁ahnung
▁kontakt
▁steckt
tum
▁musst
zellen
bruch
▁freude
▁schlüssel
▁kostet
griff
▁umzu
▁täglich
▁häufig
▁position
▁nett
▁schicken
▁operation
tische
▁westen
▁wunderbar
▁erinnere
▁grundlegende
▁fällt
▁stunde
▁schwester
▁ebenfall
▁persönlich
app
▁partner
▁fang
▁billig
▁komm
▁erwartet
▁plastik
▁angefangen
▁schützen
sätze
▁gehe
wissenschaft
▁blog
lange
▁pla
ep
leucht
▁vision
si
▁süd
▁fühlt
▁blind
org
▁finanz
du
mmer
▁sommer
▁behandeln
▁tausend
mus
▁fenster
pr
teilen
▁fühlte
chi
▁fehl
chel
▁tanz
ckel
▁ehe
▁gil
ap
fa
▁wenige
▁grosse
schloss
▁beeinflusst
▁gedacht
▁selten
▁osten
▁and
▁erd
kul
gesetzt
▁müll
▁verfügbar
▁systeme
▁geburt
▁erstaunliche
▁fu
kal
▁ni
▁biologie
▁werkzeug
▁har
forschung
▁materialien
machen
▁konferenz
▁werk
▁wild
▁argument
▁volk
▁überzeugen
▁stimmen
▁500
▁träume
ue
ran
änge
▁gas
▁ähnliche
ley
▁israel
▁gal
ach
▁erlaub
gramm
gegeben
▁heutigen
▁gehirns
▁handy
wesen
▁maß
▁lustig
▁böse
▁unternehmer
▁lu
raten
▁bill
▁jahrhunderts
▁total
genommen
▁lautet
kom
▁beziehungen
▁endlich
▁dürf
▁london
▁km
rad
▁japan
▁neuer
bot
buch
▁rand
▁gebe
▁höher
▁worten
▁triff
▁heim
▁positive
▁dis
▁fluss
▁herunter
▁entschied
feld
,
▁keiner
▁starke
▁armen
acht
▁legen
fach
pro
▁band
▁bloß
▁öffnen
uf
▁24
▁kl
für
▁geschwindigkeit
▁nochmal
wirtschaft
▁einzel
▁lief
band
▁brot
▁hey
recht
▁gewisse
rang
▁deutlich
▁erleben
▁darf
▁spät
▁aufge
▁farben
▁au
ai
ruf
▁müsste
ade
▁gegangen
▁jahres
▁lebensmittel
▁anwendung
dauer
berg
▁glaubt
teile
▁nützlich
▁par
modell
fälle
0.000
▁titel
▁brauchte
com
▁notwendig
schnitt
▁relativ
▁internationale
▁afrikanische
▁bat
▁regierungen
que
▁kan
▁maschinen
uck
▁solch
tausend
tive
▁veränderungen
ome
ya
▁stolz
▁komplexität
▁loch
wächst
schrift
▁gang
▁setzt
▁insel
▁fühle
▁schmerz
▁bett
▁feld
alen
▁symbol
▁verfügung
▁begonne
▁kreativität
▁neuronen
▁waffen
▁verhaltens
▁spe
▁fern
fähig
▁sowie
verständlich
▁afghanistan
▁zusammenhang
▁beschäftig
▁dorthin
net
tu
▁halte
kette
▁drin
▁halbe
▁seh
▁300
▁physik
wir
▁tochter
▁karriere
▁gefühle
▁arme
▁natürliche
zentr
▁westliche
▁sicherlich
▁hass
ute
▁materie
▁heran
▁großbritannien
▁infrastruktur
▁end
lager
tzt
▁museum
▁guter
immt
ib
▁gesetze
▁benötig
▁erwähnt
▁wählen
▁sonnen
▁untersucht
lock
▁hinsicht
▁seid
▁schien
▁unterschiede
nahme
▁zentrum
ellen
▁wege
▁ah
▁dia
▁schau
▁moralische
▁bra
essen
▁west
▁investieren
▁golf
od
▁ansicht
▁einfacher
▁gemeinde
isieren
▁forschungs
▁leiden
▁nähe
▁sauerstoff
▁bestehen
▁autor
▁kalt
▁ke
gehend
jahr
▁anwend
züge
▁letztendlich
▁tumor
▁opfer
▁rechte
▁entlang
▁holz
res
▁nehme
▁absicht
▁genutzt
▁ei
▁fallen
▁objekte
ständig
▁entstehen
▁virus
grund
▁fernsehen
▁zelle
▁gewonnen
▁inspiriert
▁irak
▁ermöglichen
▁kontrollieren
▁fernseh
blick
▁gold
▁nieder
▁grüne
bereit
▁chinesische
▁massen
▁polizei
▁behandelt
▁unsichtbar
▁schutz
▁kenne
▁ausbildung
▁qualität
▁pflege
nahmen
▁kulturelle
▁erinnerung
laufen
▁häuser
▁ecke
▁folgt
▁richard
▁verantwortlich
merk
▁geschäfts
▁basis
▁innen
▁spiegel
▁zeitung
markt
▁fällen
▁beobachtet
▁zog
▁x
▁beine
▁mas
▁leer
bereich
▁handel
tor
▁fuhr
▁hinweis
amp
▁gewebe
▁intelligenz
ci
▁jahrzehnt
▁steuer
ologie
▁individu
▁drübe
▁ur
▁wunsch
haltung
▁tradition
▁falsche
▁boot
▁aufhör
stände
platz
▁temperatur
▁aids
▁198
▁kohle
▁allerding
▁effekt
▁gegend
▁rote
▁öffentlich
▁biologische
schutz
▁aufgenommen
▁spür
▁überzeugt
▁kunden
▁stufe
▁gewicht
▁wieviel
▁wider
▁sta
chte
▁wahre
ex
▁fische
effekt
▁staat
▁drehen
▁lieblings
▁erforschen
▁besondere
▁durchgeführt
▁gelb
▁bienen
▁dagegen
▁ansatz
bewegung
▁rechten
wachs
▁ag
lage
sprechen
▁reagieren
▁zivilisation
▁high
▁kämpfen
▁ökosystem
▁einsatz
pl
schein
▁seines
ort
▁perspektive
▁weiterhi
isierung
▁patient
▁meeres
▁trans
per
▁geschaff
enz
mehr
▁hoffent
▁töten
▁interview
▁brief
▁fantastisch
▁kümmer
▁tra
▁produktion
sein
ina
gezogen
▁landschaft
▁typisch
institut
▁emotionale
▁großteil
▁sport
▁ernsthaft
test
▁selber
▁mütter
▁tieren
▁dahin
ey
äre
▁fleisch
film
▁interessiere
▁kontinent
▁kaffee
▁stecken
▁fr
▁niedrig
▁sterne
ani
▁bitten
▁riesigen
▁erlebt
oren
▁bildschirm
▁vollkommen
▁erfindung
▁fach
krieg
▁ruf
gh
▁klang
▁send
▁forscher
▁radio
schicht
▁atmosphäre
▁buchstäblich
▁wüste
▁drogen
▁augenblick
▁sekunde
lauf
▁baut
▁faktor
fallen
hof
off
station
▁verbracht
isches
▁meilen
ati
▁pra
je
▁las
▁nötig
▁knochen
▁000
▁null
▁stärke
▁lokal
ände
schalten
▁not
▁schiff
▁zweck
▁aufgaben
▁geräte
gebiet
isse
tech
▁hauptsächlich
▁verdienen
denkt
▁paul
▁hinweg
ram
schau
▁universums
gab
▁begeistert
mail
ang
▁lernt
quelle
▁bl
sammlung
▁identität
▁zuhause
▁hintergrund
val
▁wahrnehmung
▁erstellen
gruppe
▁reisen
▁geführt
weise
▁dick
oll
▁mai
▁standard
▁lebte
produkt
▁mögliche
▁spieler
▁prä
▁beeinflussen
▁erklärung
▁insekten
mäßig
▁seltsam
▁steve
leh
▁blieb
▁bauern
▁drittel
▁konzentriert
weisen
hafte
▁diskussion
hand
artige
▁wirtschafts
▁masse
fahrt
leider
▁schwarz
▁visuelle
▁mess
ny
strahl
▁kommunizieren
▁klingt
▁wald
▁untersuchung
▁ökonom
▁konflikt
ble
icht
▁mode
▁gesellschaften
▁rätsel
▁verfolgen
steigt
wie
▁folge
suche
▁sä
▁or
▁ernährung
▁gi
▁beweise
akt
üsse
mission
▁facebook
▁streit
▁politiker
▁entwerfen
ück
▁gewissen
▁entsteh
▁winzig
▁lern
▁2000
▁mc
▁erstellt
▁schuld
▁35
licht
▁träg
yo
▁zerstört
▁sogenannte
▁unterstützung
▁vermutlich
▁vertraut
▁passt
mut
▁fahr
▁affen
dienst
▁sichtbar
▁brust
▁experten
▁city
▁geb
▁patent
▁scheinen
▁bestand
preis
schäd
▁bedingungen
▁erzähle
▁milliarde
▁kräfte
▁schrecklich
▁sucht
▁sy
▁liefer
zeichen
▁versteckt
▁überrascht
▁wuchs
▁kontext
menge
stadt
▁hängt
▁traurig
▁gesund
▁organ
▁behaupte
fahrer
▁bezahlt
▁übertragen
▁inter
▁amp
▁professor
▁krise
▁speziell
▁gras
▁gebet
ath
▁gu
ud
▁experimente
▁lektion
▁süß
schläg
▁20.
probieren
▁ideal
gegangen
▁enorme
▁erhält
▁ph
ow
▁laufe
▁gefangen
tischen
agen
▁tiefe
▁indische
▁ball
▁laden
▁intelligente
▁mil
ließ
▁kurs
▁dran
▁mut
▁start
▁irgendetw
struktur
▁gestalten
▁sub
▁extra
▁irr
port
▁fett
aktion
▁könnt
steigen
bildung
erei
problem
▁lokale
▁chemische
▁zeichen
▁usw
▁kennt
▁wettbewerb
▁zell
▁wirkung
▁schließen
▁hund
trieb
daten
ali
▁ed
▁pol
▁strategie
▁college
▁still
▁unterhaltung
▁strukturen
▁45
▁code
▁bemerkt
▁grafik
▁beschreiben
▁wende
▁rahmen
▁zurückzu
▁vergleichen
karte
▁hy
▁dinosaurier
▁zukünftige
▁kohlenstoff
▁trink
▁themen
▁hergestellt
▁helden
muster
▁gegenseitig
les
▁trenn
by
▁medikament
▁umgehen
▁th
iziert
▁lebendig
▁entwickelte
▁lauf
▁erkannte
▁haufen
▁komp
ifft
ind
▁quadrat
▁freiwillig
▁kreative
▁bedeutend
ala
▁pre
▁vögel
▁ingenieur
▁filme
▁ben
einhalb
schaut
staat
▁lieber
▁gemeinsame
stück
▁fantastische
▁verhindern
▁heilig
lösung
▁teilchen
▁feststell
▁150
▁feind
▁lager
▁umstände
▁gedanke
▁brücke
▁post
▁basiert
▁moleküle
ian
▁einheit
▁grundsätzlich
▁kürzlich
▁verwandelt
▁darwin
▁hä
▁kerl
▁lachen
▁gericht
▁gross
▁fe
▁bro
▁fiel
weder
anlage
▁real
▁wertvoll
▁beton
aufnahme
▁zimmer
▁anruf
▁schlag
▁netzwerke
▁alternative
▁muskel
▁anfing
▁rad
▁verlangen
▁organisiert
og
körper
▁zugänglich
▁schnitt
▁spezielle
holen
▁stärker
▁feier
rich
▁schlaf
▁kostenlos
▁verbessert
▁küste
▁wach
▁schaute
▁fabrik
▁getötet
▁wünsche
▁mission
▁militär
leistung
▁tue
▁reicht
▁effizient
iere
▁baute
▁speicher
▁eingesetzt
▁gemein
press
weite
▁katastrophe
▁bestimmen
▁vorhanden
▁solar
▁informations
stimmung
line
gekommen
nutz
▁lebende
star
ition
▁schicht
▁heb
▁zucker
was
atur
▁karten
▁einsetzen
▁ak
▁hell
▁sicht
▁kapital
▁gefahr
linie
▁genauer
▁geheim
▁planet
▁tor
▁sc
▁morgens
▁verlust
▁äußer
▁kra
▁angesehen
bert
▁erwachsene
▁perfekte
▁modern
▁testen
▁verbreiten
▁hunger
▁verteilt
▁klug
eur
▁kabel
▁heimat
▁modelle
lon
▁laptop
▁mr
▁investition
▁städten
dia
▁soviel
▁kindheit
netz
drücken
▁zauber
▁erkenntnis
tal
▁400
▁lau
▁ameisen
issen
▁uni
▁babys
▁doktor
▁teuer
▁pferd
▁änderung
▁genetische
▁öffentlichkeit
▁geschenk
▁erster
▁erwachsenen
▁komplex
▁verbinde
▁restaurant
▁wärme
▁kreuz
▁dumm
▁farb
▁setzte
▁handlung
▁stopp
▁rief
▁faszinierend
▁blaue
▁akt
▁interagieren
▁verwandeln
▁vogel
▁riesen
▁viren
pflicht
▁schwimmen
▁grundlage
ante
▁kalifornien
hy
theorie
▁vorteil
▁lä
har
▁bedeuten
▁soldaten
iker
▁1.
▁probe
▁my
häu
tier
▁kreativ
▁bruder
▁arabisch
▁öffnet
▁folie
▁gegenteil
▁wunderschöne
▁10.000
unter
maßen
fu
bücher
organisation
fluss
▁maus
▁erhielt
▁falt
q
▁mächtig
▁schlimmer
stelle
ore
leitung
▁benutze
▁schlau
wende
▁technische
ierende
gesundheitswesen
ive
▁charles
▁september
▁washington
gesehen
▁erhöht
▁wow
rechte
jo
handel
▁enorm
▁ehre
schule
▁geschlecht
vermögen
halb
upp
▁anstelle
volle
▁gespräch
lief
▁gesichter
▁pri
af
pol
▁märkte
woll
▁alleine
▁phase
ov
▁satz
▁definition
▁fossil
▁üblich
▁klassische
▁england
▁berührt
▁holen
▁wartet
▁anfäng
kultur
lösen
breite
▁religiöse
▁dauert
▁gehalten
tiert
▁norden
gie
losen
▁star
well
▁unver
▁wundervolle
gänge
▁minute
▁organismen
▁metapher
▁george
▁versteh
affe
ziel
▁gelesen
▁künstliche
▁nano
▁mund
▁pat
zog
▁verschwinden
zimmer
▁sicherheits
▁konsum
graben
glied
▁bedürfnisse
▁para
och
getragen
ice
▁bieten
heim
geber
fassung
fang
▁aktuelle
spielen
▁fahrzeug
▁trend
▁annahme
▁studiert
▁nation
▁auseinander
gehalt
geschlossen
▁grau
ay
▁höhere
wisst
zone
▁sparen
▁eindruck
▁britische
fällig
ologe
▁ziele
▁elemente
pack
▁gestorben
▁mindesten
▁diagramm
▁zitat
▁webseite
▁teure
▁erscheinen
▁meiste
▁führungs
▁entdeckung
▁chirurg
▁moral
▁aufbauen
istisch
▁islam
▁schlimm
▁garten
technik
▁molekül
▁rücken
▁twitter
▁gäbe
▁küche
▁unglücklich
▁interaktion
▁reduzieren
▁unendlich
▁zeitalter
▁reichen
lla
▁wenigsten
▁bas
▁videos
▁angenommen
▁live
▁steuern
▁seltsame
▁füße
▁unterscheiden
erkennung
systeme
▁fördern
▁entgegen
▁mitten
lag
bogen
▁aspekt
auto
▁stammt
▁vorschlag
▁tauch
▁respekt
▁positiv
▁grenze
▁verbrachte
▁abhängig
▁digital
geschlagen
gl
last
sprache
heben
▁nigeria
▁roman
▁berühmte
▁einiger
▁komisch
sucht
fläche
▁übrig
▁behalten
▁fähig
▁juli
▁kompliziert
▁existieren
▁mill
▁mitarbeiter
▁ausmaß
▁fäng
▁ältere
ländern
▁dienst
▁schlimmste
tauchen
fordern
richtung
▁brauche
▁gedicht
▁unterstützt
▁multi
▁chemie
▁theater
▁intensiv
▁lebewesen
▁schaden
▁korruption
▁heisst
iges
▁aufbau
denken
▁kontrolliert
▁tim
boot
passen
▁doppelt
ity
▁offene
▁entdeckte
kosten
▁erfinden
▁gesunde
betracht
▁jahrzehnte
oni
▁che
▁zerstören
▁malaria
▁magnet
▁beitrag
▁schönen
▁atem
▁schwierigkeit
▁trug
▁port
▁weltraum
▁erlebnis
▁gesamt
typ
▁op
▁gering
träge
▁erschein
gestalt
▁hunde
▁cent
▁kauf
▁bur
▁galaxien
▁geräusch
▁beinhaltet
▁biete
▁elektrizität
▁mexiko
▁betroffen
▁partei
▁straf
schlagen
zukommen
sky
▁entspricht
decke
▁talent
affen
takt
omi
▁lied
▁starten
▁aussage
▁geheimnis
▁gaben
tieren
▁einstein
▁überprüf
▁gebrauch
nahm
▁entworfen
▁könig
▁grundlegend
▁emotionen
▁vorzu
▁batterie
▁fra
▁annehmen
▁nahrungs
▁gra
▁wei
seits
▁wurzel
▁kal
▁wechsel
▁app
▁einstellung
▁fo
gerät
▁beeindruckend
▁analysier
▁gespielt
▁kirche
▁thom
▁sag
▁ach
▁gewaltige
▁schlagen
gerichtet
▁training
▁brachten
▁tee
wagen
alität
frei
▁tot
▁tri
förder
▁website
▁verwandt
▁half
50
zeichnet
sprung
▁rauch
▁mark
▁gehirne
2-
▁zeiten
▁entstanden
ivers
die
▁betrieb
afrika
▁mangel
wissenschaftler
▁bereiche
▁schreib
▁einrichtung
▁weißt
cy
▁angriff
▁rob
▁michael
▁schwach
kreis
ana
▁verhältnis
▁gefahren
sinn
▁kaufte
grad
kräfte
▁flo
▁ernähr
lesen
▁gehören
▁quasi
▁besagt
▁angebot
hu
schafft
▁bus
▁kommun
▁breite
ette
▁generationen
▁dach
zentrum
macht
▁abschluss
zieren
▁hoffen
minister
weile
karten
▁brenn
▁world
▁weibliche
▁zahn
▁südafrika
source
▁physische
▁dramatisch
ding
▁vermute
▁räume
schauen
▁geschickt
sicher
▁äußerst
▁tiefer
fertig
ica
uß
▁wagen
▁wora
▁zunehmend
▁ersetzen
kopf
▁wetter
▁nationen
kar
▁zieht
▁bewert
▁depression
▁prototyp
▁präsentation
▁beantworten
▁werbung
▁dutzend
▁vermitteln
▁nachbarn
▁99
spre
▁galaxie
arbeiten
ori
krise
▁löcher
▁arbeiter
▁details
scan
▁architekten
▁witz
reise
führt
▁kochen
dra
▁berechnung
▁treib
▁open
▁anteil
▁at
▁vergrößer
holfen
▁besessen
▁brennstoff
▁studieren
▁wohlstand
stellt
haben
▁schulter
zugeh
▁spielte
sitz
▁steigen
▁schrift
▁momentan
versorgung
▁metall
reichen
unternehmen
▁zählen
▁fla
▁seele
▁vergangen
▁times
▁schläg
▁definieren
▁irgendjemand
röhre
▁kenia
ney
▁darstellen
▁katze
▁hotel
▁jedenfall
▁offenbar
▁besorgt
▁zeichnen
▁sha
▁quelle
▁staats
▁journalist
▁hinten
▁kriegen
arbeiter
▁nase
▁köpfe
▁bedien
▁verbesserung
▁haar
▁voran
material
iti
uk
▁winzige
▁stoff
tragen
cha
for
▁begrenzt
▁geändert
▁kreieren
▁finanzielle
▁anreiz
▁berühmt
▁bescheid
gegen
▁air
zeug
▁teilt
▁beschlossen
▁aufzubauen
▁schimpansen
▁zweifel
▁med
▁demokratische
artikel
▁dokument
▁methoden
tausch
▁nerven
skraft
gruppen
▁führer
▁international
▁belohnung
▁kombination
▁toilette
astronom
häng
▁blumen
▁toten
▁ledig
ata
▁gelöst
▁passen
fragen
wechsel
organ
ate
▁philosoph
▁ausstellung
▁bekannte
▁vorfahr
▁viertel
▁bildet
▁überlegen
würdig
▁dünn
▁gewählt
▁existenz
▁lächeln
▁beinahe
▁abstrakt
▁verdient
▁zuschauer
▁industrielle
▁james
▁körpers
▁dauern
▁vorne
▁komponente
▁berichtet
▁schreckliche
▁gebraucht
▁student
▁lehren
▁redet
▁derselbe
schneid
▁stabil
prozess
▁gemeinden
▁pakistan
▁potential
▁schatten
▁automatisch
▁zusätzlich
▁farm
▁hallo
gibt
▁herein
werte
stoß
ippe
▁glaubte
▁nachhaltige
spieler
▁kurve
▁schlechter
▁erkennt
▁jährlich
▁verfolgt
höhle
▁pilz
▁gefällt
▁tedx
▁freundin
▁blase
gas
▁tre
▁weh
kreislauf
▁hai
▁saubere
grenze
qualität
tiere
fähigkeit
schwimm
▁schwere
hop
energie
▁australien
▁insbesonder
▁gelebt
▁school
▁fels
▁gottes
▁darstellung
gefühl
▁signal
▁signale
alt
▁individuelle
ebene
▁stattfinde
▁entfernung
leiten
etze
▁gebiete
▁fehlt
5.000
desto
▁blätter
▁drauf
masse
arch
▁mathematische
▁entstand
▁bildungs
rechnung
hnen
team
▁aktion
▁teenager
▁definiert
▁ruhig
▁wikipedia
▁stahl
▁verglich
▁gefallen
▁21.
▁entfern
▁spannend
▁instrument
▁unfall
▁nationale
▁kilo
tür
krankheit
▁unterrichten
▁kla
▁erkrankung
▁stuhl
▁spur
▁transport
▁erkannt
▁anschaut
frau
▁figur
▁schließ
▁menschlicher
▁damen
▁reale
öl
▁großmutter
▁kapitel
risiken
▁schätzen
▁angesicht
▁oper
▁protein
▁nasa
▁erforscht
geführt
▁haushalt
▁chemikalien
▁is
▁musiker
reserv
ax
▁bezeichnet
▁flach
▁vierte
▁verlauf
rus
▁todes
sprozess
▁fälle
person
liebe
▁linien
leiter
▁kulturen
▁beschloss
qui
▁harvard
▁jünger
▁überraschung
▁gegründet
▁winter
▁2008
▁willst
▁bibliothek
▁befass
▁klinik
▁beschreib
▁fremde
▁top
▁unterricht
▁berichten
füllt
punkte
▁stet
▁gesichts
▁zug
▁zuhören
kurs
▁eu
▁statistiken
wissenschaftlich
dimension
fügen
kleid
▁kanada
▁deutsch
▁maßstab
▁darstellt
▁196
▁virtuelle
▁bericht
▁schlafen
ami
neu
pri
pla
zy
ara
pause
▁rezept
grün
▁besitzt
letzt
▁hierher
▁merk
schütz
▁physiker
▁akzeptieren
▁fasziniert
▁grippe
▁pfund
▁knie
▁bedrohung
▁einzigartig
▁umgeben
möglichkeit
▁zähne
ehm
▁realisier
▁ereignisse
▁ger
▁tom
▁blatt
▁klick
▁kriegs
▁flügel
politik
▁gründete
oberfläche
produktion
low
heil
▁verrückte
uc
▁schwierige
▁kühl
bezüglich
▁innovativ
▁italien
▁symmetrie
▁gegenwart
▁bemerken
▁worauf
▁zwang
▁echtzeit
▁veränderte
▁meist
stunde
▁hol
▁verbrechen
▁interessanter
▁austausch
▁mehrheit
▁singen
pal
graph
▁wovo
öhn
▁eier
▁herren
ita
▁derzeit
▁verbrauch
zelle
▁weiteren
▁interessen
losigkeit
tun
▁schwarzen
▁zusammenzu
▁solcher
geworfen
▁eindeutig
▁erweitern
▁gemälde
▁teufel
▁tötet
▁fahrrad
▁reduziert
▁tal
▁stammzellen
▁schlacht
▁schweine
▁robert
schieben
▁tour
▁europäische
▁lebe
▁erfinder
▁schuhe
▁spektrum
design
deckt
▁plattform
▁bedarf
▁chines
branche
hang
▁halt
funktion
plätze
bell
▁frank
▁inspiration
▁kürze
▁schicksal
▁erwartung
geleitet
▁mikroben
▁darunter
gelassen
▁23
▁szene
▁meinte
▁faszinierende
▁langer
rlei
▁sing
▁decke
anne
▁roh
▁600
▁schi
▁bemerkenswert
kamera
lampe
▁höre
iell
hütte
▁marketing
▁heirat
▁kleidung
▁etc
▁vermeiden
▁ozeane
▁umfeld
▁ewig
▁sal
▁langweilig
▁aufnahme
park
▁ausgebildet
▁sms
▁weltkrieg
▁22
▁schwieriger
▁nachts
▁bemerkenswerte
schluss
▁kugel
▁interessantes
▁vorhersagen
▁schaf
▁magie
rechnen
▁leichter
▁übernehmen
▁hyper
▁ausnahme
ino
▁gekauft
▁gemüse
▁langfristig
▁klassenzimmer
▁hieß
▁spa
▁froh
▁human
▁technisch
▁skulptur
▁21
▁frisch
▁pan
▁bezieh
▁beteiligt
▁dichte
▁van
wander
ance
▁element
▁flasche
▁resultat
▁jack
▁quer
lf
▁proteine
▁entscheidend
▁verblüffend
▁knapp
▁erschien
▁überzeugung
▁elektronische
▁prinzipien
▁funk
▁general
soweit
▁194
▁sw
▁tonnen
gemacht
▁angestellte
gerufen
▁teilweise
stab
▁zufall
▁fortschritte
▁bot
leute
hlt
räume
▁persönlichkeit
▁antwortete
▁koch
▁schieß
isst
orientiert
▁geräusche
▁fremd
treffen
endlich
▁stehe
▁bekomme
▁rufen
▁wu
▁momente
▁fokus
▁therapie
nommen
▁seht
▁aufgeregt
▁nachbarschaft
▁trocken
▁präsentiert
▁ursache
winkel
▁überwinden
streif
▁komplizierte
▁ansieh
▁schlange
▁presse
▁alters
▁mikroskop
▁lenk
▁poe
▁geistes
▁ergibt
träger
fache
▁erhöh
▁berge
▁körperlich
▁ohren
▁geschlossen
▁bedenken
ordnung
▁show
▁wunderschön
▁hör
▁fährt
städt
▁kur
▁youtube
▁dynamisch
▁ländlich
▁geburtstag
▁klinische
▁gewann
▁deutschland
lösch
▁serie
▁basierend
▁wundervoll
▁jugend
bul
▁kehr
gesellschaft
länder
▁av
▁technologische
▁taschen
▁wände
▁dauerte
▁stücke
▁tanzen
▁armee
geschwindigkeit
bilder
▁versprech
räumen
▁fä
▁weltweite
studie
sterblichkeit
▁korrekt
▁francisco
▁wüsste
utsch
▁staub
barkeit
▁afrikaner
▁sink
▁mental
▁süden
▁betreiben
▁tele
▁rock
▁11.
▁wohnung
▁mitglieder
▁videospiele
▁gewöhnlich
▁19.
▁stern
läd
ight
kanal
dollar
▁bereichen
way
▁gleichung
verhalten
▁debatte
▁geschmack
▁erweitert
▁kongress
▁unmittelbar
▁infiziert
▁stieg
▁gerechtigkeit
▁exakt
▁geteilt
▁verstärk
▁atmen
▁wolken
▁vereint
platte
▁verwendung
▁wahrnehmen
liste
▁100.000
▁ruhe
▁hinauf
schuldig
▁produktiv
▁genetisch
▁fakten
▁mad
▁magazin
▁prüf
▁breit
▁ereignis
▁trau
▁schlechtes
▁fein
▁jugendliche
größe
▁tests
▁schild
▁drücken
▁lungen
▁dreh
▁iphone
▁lebenserwartung
▁älteste
▁weihnacht
▁vorbereitet
▁asien
▁1.000
▁verbreitung
▁ingenieure
reform
▁meister
▁fin
▁schneide
mpel
▁ökologisch
▁bomb
einheit
▁regierungs
▁trick
▁wechseln
▁streben
gewicht
bewusst
▁werbe
blase
▁verstehe
▁kap
▁beliebt
▁schock
▁brasilien
▁günstig
▁verschwunden
▁wiederholt
▁massive
▁weisheit
▁billionen
gewiesen
▁teleskop
schaffung
pfeil
▁sonnenlicht
▁bla
▁teilnehmer
▁milch
▁schickte
▁fokussier
zusehen
▁photo
▁lügen
schätze
probleme
▁wachsende
car
fressen
▁beweg
▁aufnehmen
▁sorge
▁bemerkte
▁konsequenzen
▁abfall
▁kampagne
▁einzigartige
▁eröffnet
bewohner
▁flog
▁zufrieden
▁genügen
▁getrennt
▁verdammt
▁wünschte
▁kopie
hielt
▁verließ
▁alltag
wellen
sprach
▁langsamer
▁staatliche
anischen
▁cla
▁glücklicher
▁studio
ial
▁beleg
▁fotograf
zwischen
▁ost
▁mittels
▁beschrieben
gelöst
groß
methode
entwicklung
▁asteroid
▁intellektuelle
▁satelliten
▁street
▁kolonie
▁isolier
▁literatur
▁merkwürdig
▁tiefen
▁verursachen
▁pinguine
▁wen
▁herstellung
▁riech
▁gro
▁peter
ball
▁beobachtung
▁ski
swert
▁mathematiker
▁wachstums
melde
▁kognitive
▁durchführen
▁2.
▁psycho
▁auswahl
weiß
experte
▁kümmert
wolke
männchen
teppich
▁impfstoff
▁motivation
▁kaputt
studium
▁buchstaben
▁engagier
▁stress
▁löst
▁front
▁organisieren
▁verlangt
▁schuf
bezogen
▁neuigkeit
▁negative
▁schritte
geschnitten
▁rennen
kunde
▁aufgewachsen
▁fließen
▁beizu
basierte
▁kredit
▁durchzu
▁prozesse
▁detail
▁schreibt
▁vorteile
bricht
▁profitier
▁chip
▁noten
bombe
▁goldene
▁stock
freund
regierung
▁dreidimensional
▁irgend
fiel
▁sammelt
▁obama
flüsse
▁durfte
▁entsprechend
▁schnee
▁zerstörung
▁polio
▁strand
▁haiti
▁dimensionen
scheibe
▁chaos
tafel
▁hinunter
▁bibel
▁spenden
▁instrumente
▁mama
ographie
teilung
sorge
▁genie
▁suchte
jenige
phil
▁liefert
treiben
maßnahmen
▁bezeichnen
▁entscheidende
▁stift
▁adam
▁fliege
▁transportier
▁leiten
ära
▁umher
▁level
▁springen
▁nutzung
▁such
▁quellen
gründe
▁investiert
▁irgendwelche
▁nachgedacht
▁scheitern
▁krankenhäuser
▁weshalb
▁scheinbar
▁ursprung
▁lücke
stapel
▁pollen
▁eingeladen
▁merkmal
apparat
▁kongo
gesteuert
▁mochte
▁eva
▁enthüll
flug
turm
▁verkehrs
slos
▁altern
▁wellen
▁sinnvoll
▁ring
▁aktivier
▁mächtige
▁erzählung
▁nachhaltig
ruhe
▁weiterer
▁dh
▁ausgesetzt
▁betrieben
▁fließ
finden
▁fürchte
▁eingeführt
schritt
▁lese
▁biologisch
▁zusätzliche
▁chicago
▁erdbeben
▁molekulare
▁nuklear
▁stämme
▁university
▁2010
▁status
▁boston
▁schauspieler
hersteller
▁option
▁geruch
▁versagen
▁island
▁strasse
▁teams
▁dahinter
▁interaktiv
▁vorträge
▁rechen
▁ökonomische
▁budget
▁irgendein
▁verfahren
sichtig
ou
▁population
▁meme
▁aspekte
▁höchst
▁analyse
▁cra
▁liebte
▁biolog
klasse
▁rollen
kämpfe
behörde
▁zeichnung
▁dörfer
▁horizont
▁impuls
▁original
▁übung
▁röntgen
▁freue
▁titan
▁erneut
▁comic
aktiv
greif
▁nachhaltigkeit
▁paris
▁mauer
▁nadel
▁hängen
▁achse
▁reis
▁beenden
▁erziel
▁versorgung
▁ernte
▁gewisser
bor
setzung
▁freundlich
gesamt
▁kriege
▁inspirieren
▁besucht
▁begreif
ähnliche
▁begegnen
▁psychologie
▁reagiert
▁überlebt
▁unterwegs
▁beachten
schirm
▁fair
▁chef
▁vorsichtig
kunft
▁gesammelt
▁leuchten
▁intelligent
▁widerstand
politisch
▁fotografiert
▁stiftung
▁epidemie
xi
▁angenehm
ärz
▁schmerzen
▁center
▁merkt
▁kindes
▁aufnahmen
brett
▁philosophie
▁spinne
▁schach
▁entdeckungen
▁tödlich
▁sternen
▁trat
schwer
▁integriert
▁norm
witz
out
computer
männer
▁logisch
algorithm
kündig
▁illegal
▁illusion
▁ägypten
▁berücksichtig
▁hinzufügen
veranstaltung
▁genial
▁sonnensystem
eilt
▁deiner
dach
schuh
▁enthalten
▁vorder
▁verschmutz
designer
▁erfüllt
▁täuschung
▁marke
▁dichter
gebung
▁chancen
schreiben
rechnet
führ
▁griff
▁sektor
▁verkauf
bank
▁last
▁berühren
▁gedächtnis
▁konfrontiert
▁nervös
kapazität
▁schweden
räder
▁varia
▁kreiert
▁regelmäßig
▁hinterlassen
▁müsst
▁1000
▁stille
▁startete
archie
▁optimistisch
steuer
▁flüssigkeit
▁salz
▁fläche
▁wette
sendung
regel
▁treiben
▁einblick
▁aufrecht
▁mel
▁schlug
▁bush
▁statistik
kinder
▁matt
letztlich
zuhören
▁gebrochen
▁strecke
▁besuchte
faktor
farbe
sphäre
schaltkreis
▁anstieg
▁aufstieg
▁flexib
▁lächerlich
▁genießen
▁physikalische
▁erfand
▁rational
▁gehör
▁1960
▁heilen
▁stil
▁tipp
▁erfüllen
▁mechanisch
felder
ula
rand
regen
geräte
board
▁pop
▁verletzt
▁filter
▁letzter
▁ford
▁fundament
sort
erkrankung
geschäft
region
▁verkehr
zykl
▁konflikte
▁karikatur
▁angelegenheit
▁jüngste
▁potenzial
▁bewahre
▁befand
▁hitze
▁brown
reaktor
▁elegan
stätte
schlüsse
gewandt
schwäche
▁organe
marsch
▁gelangt
▁disziplin
▁wem
▁flächen
scheinend
zuwenden
schul
ria
▁fried
▁zählt
schub
▁sequenz
▁zivil
unk
▁anzeige
stellungskraft
▁japanische
änderung
▁roll
▁marken
▁grab
▁höchsten
code
verkehr
krebs
pyramide
▁gegenwärtig
▁hervorragend
▁privileg
▁vagina
▁vergnügen
▁vorwärts
▁delfin
▁schriftsteller
▁jenseits
▁stirb
▁versorgen
▁gps
▁störung
▁medium
▁kommentar
▁erneuerbare
▁tätigkeit
▁kuh
▁erfassen
▁ballon
▁homo
▁sichtweise
▁apple
▁fundamentale
▁wasserstoff
▁jud
▁bauch
▁anführer
▁umgang
färb
▁infektion
▁verletzung
▁you
stücke
▁250
▁tasche
▁geringer
▁nu
bb
gewachsen
▁haare
getrieben
▁negativ
▁gib
▁moralisch
kasten
▁einfachheit
video
firma
gebäude
gewinn
empfindlich
gezwungen
▁furchtbar
▁spezifische
▁klavier
▁bekämpfen
▁musikalische
▁brustkrebs
rekord
ministerium
▁russland
▁algorithmen
▁professionelle
▁seil
▁enkel
▁ohr
wort
bestandteil
▁scham
▁gezogen
▁resultate
▁32
▁anzusehen
500
modu
▁schaue
nathan
▁gewöhnliche
ture
▁geschäfte
▁saal
,000
▁hall
geld
störung
chromosom
▁schweiz
▁bedroht
▁exponentiell
▁gelehrt
▁gipfel
▁schätzung
▁verliebt
▁rettung
▁ärger
▁globalisierung
▁entwurf
gebunden
klebe
▁misch
profil
▁bord
▁summe
▁spannung
▁dazwischen
▁diagnose
▁block
▁grossartig
logen
holz
▁finanziert
ock
▁brand
▁lehrt
▁haie
sonst
zeichnung
rolle
▁bohr
▁gelassen
▁radikal
▁unbekannte
▁gesetzt
unwahrscheinlich
▁empfinden
▁brit
rauch
▁poster
fällt
▁physisch
▁studierende
▁bedeutsam
▁elefanten
▁relevant
▁befehl
▁kreatur
▁uganda
▁gemessen
▁denkweise
gewalt
gemeinschaft
▁städtische
▁spielzeug
▁jim
▁brach
hack
▁anbau
▁1990
▁leit
▁nervenzelle
▁identifiziere
▁neugierig
▁graph
▁gespräche
▁profit
union
▁kritische
kenntnis
verbrauch
tja
▁nest
▁rechner
▁antrieb
▁anhalten
▁bip
▁box
klappe
▁chinesisch
hren
▁kletter
▁könne
▁kollektive
logisch
abteilung
▁bewunder
▁umgekehrt
▁veröffentlichen
▁ghana
▁dialog
▁örtliche
▁benzin
▁frankreich
▁sorgt
ano
▁orange
▁liebst
genoss
▁krieges
▁repräsentiert
▁2009
▁balk
streu
▁tinte
▁mutig
▁versicher
▁islamische
▁anlage
schied
▁spezial
▁dokumentier
▁begeister
▁gift
▁vorhin
▁ausmachen
▁195
▁gebildet
▁ausser
läufig
▁zurecht
stütze
gewohnheit
▁fantasie
▁gerettet
▁hübsch
▁konservativ
▁polizist
▁rhythm
▁schokolade
▁ungeheuer
▁wählt
▁verliert
▁befreien
▁rohstoff
▁nahrungsmittel
schlepp
▁geschützt
übertragung
therapie
kapital
▁zurückkehren
▁philip
▁neigen
▁berechn
▁hingeh
▁erfuhr
▁linse
▁liebt
▁erstmal
gesetz
,5
zustand
▁entstehung
rey
▁historische
▁umso
▁stoß
▁höchste
▁ergeben
brachte
▁bier
▁beteilig
old
▁heutige
▁frequenz
ora
▁neugier
binden
▁architekt
▁zwi
brach
▁einwohner
▁mobiltelefon
origami
▁mäuse
▁ruanda
▁ersetzt
▁ärmste
▁gestaltet
geblieben
▁circ
▁aussah
▁weltbevölkerung
fahrzeug
▁ego
stamm
flasche
▁28
▁mitglied
▁nahezu
▁standpunkt
bus
▁trop
▁verleg
ografie
▁tricks
▁leber
▁fund
sperr
▁niveau
▁tote
▁anpassen
flogen
▁taucht
▁verbraucht
▁leiter
▁65
▁terror
▁übergang
▁ausgewählt
▁science
▁sowjet
▁stanford
▁inklusive
▁tempo
▁texas
▁tragödie
▁wohlbefinden
▁clever
▁gewöhnt
▁ritual
missbrauch
▁autismus
▁humor
▁ethisch
▁konsumenten
management
▁dienstleistung
▁vermittelt
▁angeles
▁gleichgewicht
▁symptome
▁lohn
▁papa
▁spazier
▁bewirken
▁hinblick
▁generier
temperatur
netzwerk
▁bedeckt
▁wiederholen
strom
▁oel
fliegen
burg
dichte
▁überwach
position
füllen
▁ungewöhnlich
tank
stick
▁ausgegeben
▁geistige
durchschnittlich
▁fotografie
fest
oc
▁faser
▁magische
▁amazon
▁beliebige
▁gemeinnützige
▁hypothese
blüte
gedreht
händler
▁manipulier
▁offiziell
▁parallel
▁theoretisch
▁befestig
▁väter
▁angepasst
zeitig
▁slum
▁lärm
▁green
▁jegliche
▁kath
präsent
▁abhängigkeit
▁inspirierend
▁verteidigung
straße
gewebe
spitze
▁herauszu
▁explosion
rückt
▁brüder
▁weltall
▁laser
▁erwähnen
▁ausmacht
▁komplexer
▁beschreibung
▁fordert
▁bad
bekommen
▁jeweil
spalte
▁sauber
tasche
▁kleinste
▁bedürfnis
format
▁verschwinde
wind
reißen
12
schossen
ströme
▁möbel
▁dauerhaft
▁systematisch
▁fliegt
▁mathe
▁eigentum
▁ausgaben
▁höhepunkt
▁herausstellt
prothese
▁renn
▁protest
meister
fabrik
▁36
forscher
unterricht
gerissen
▁aß
▁gerecht
▁eve
▁kategorie
▁geraten
▁0,
▁dame
rgestellt
▁begeh
▁mini
gefallen
geordnet
▁dez
▁wälder
messer
▁zeichne
▁verteilung
▁weich
spruch
▁wollt
versicherung
▁ausdrücke
able
service
▁abenteuer
▁baseball
▁feedback
▁oxford
▁spirituell
▁wütend
▁zwölf
▁auftaucht
▁intuition
▁käfer
▁logik
▁übersetzt
▁zwanzig
▁zwingen
▁futter
▁onkel
▁pilot
▁plus
▁bedauern
▁wirksam
▁präsentiere
▁raketen
▁verschwand
reicht
▁ziege
▁alex
zubauen
▁organische
▁vorbild
▁2001
hundert
fährt
▁hindurch
▁teilnehmen
▁willkommen
▁erziehung
häuser
achse
amerikanische
brecher
▁king
▁erledig
▁ungewöhnliche
▁zurückgehen
▁kombinier
verwaltung
▁kämpft
▁doppel
viel
▁gefährdet
frage
prüfung
▁ast
▁pflanze
hai
▁männliche
bett
kehren
▁diabetes
▁initiative
▁januar
▁orchester
▁angemessen
▁anonym
▁geeignet
▁großzügig
▁higgs
▁interpretier
▁intuitiv
▁verurteilt
▁nachmittag
▁ehemalige
froren
▁juni
▁effizienz
▁psychologische
▁verleih
▁blickwinkel
verarbeitung
▁martin
mechanismus
▁beendet
▁abhäng
▁erlern
▁kontroll
▁evolutionäre
▁26
▁sir
▁ausrüstung
physik
motor
▁auftrag
skop
▁reiste
▁visuell
schuss
▁steiger
▁korallen
▁fri
▁psychologe
▁strahlung
areal
▁vorgang
kind
▁glaub
wachstum
grat
aktivität
▁waffe
schrecken
gestiegen
▁diskutieren
▁microsoft
▁reparieren
▁diagnostizier
▁geduld
▁praxis
▁züchte
▁entschuldigung
▁identisch
▁hässlich
▁william
club
▁vernetzt
wandlung
▁treibstoff
▁herrscht
belastung
▁herstellt
▁verhandlung
▁festgestellt
▁guck
▁120
gesprochen
gestoßen
konferenz
▁dns
▁integr
schön
zel
▁spring
treib
▁leitet
boden
▁platzier
▁radikale
▁hob
klatsch
▁steh
qualle
▁pläne
▁felder
▁beschränkt
brille
▁liter
▁finanzier
▁flüssig
würfe
gefügt
schöpfung
syndrom
süchtig
▁begleitet
▁gestartet
▁manhattan
▁transparenz
▁verkünde
▁ängste
▁valley
▁herausfand
bezirk
▁smith
▁schädel
▁tendenz
▁bürgermeister
▁bürgerkrieg
▁kopieren
periode
▁abendessen
▁überlegt
▁dankbar
▁vermisch
▁schlicht
▁pille
labor
alisiert
marke
▁reicher
▁95
▁leser
▁respektier
▁kombiniert
▁länge
▁dynamik
ville
▁nordamerika
getreten
▁führende
▁braun
▁aufwach
zeichnen
▁parlament
▁urknall
▁außerordentlich
▁diskutiert
▁geliebt
▁mühe
▁simulation
▁substanz
▁vernünftig
▁gegessen
▁schwanz
▁lkw
▁richter
▁saturn
▁rettet
▁ladung
▁erwärmung
▁dringend
▁erfasst
▁zufriedenheit
▁schöner
▁hilfreich
organismus
▁draus
▁erfordert
chleife
▁unterwasser
tanz
▁anbieten
türme
▁song
rös
▁fülle
▁hans
führer
nutzung
atom
▁beträg
brems
▁sterbe
anhand
▁erkenntnisse
▁nachfrage
▁behauptet
lia
förmige
▁gelände
▁trage
▁befrag
dringen
kontrolle
geprägt
▁beruhig
▁hölle
▁konzert
▁spontan
▁verlangsam
▁öfter
▁skelett
▁babies
▁installier
▁quanten
▁scharf
▁vereinbar
▁anhänger
▁kooperation
▁variation
▁betrachtung
▁geplant
▁terrorismus
▁ehemann
▁1980
▁tragisch
▁schall
bal
▁anweisung
stimme
lehrer
schlaf
betrieb
flosse
▁pc
▁angetrieben
zieht
personal
topf
▁kamel
litz
ilität
▁beibring
▁emotion
▁auffassung
▁kb
▁militärische
wirken
▁penn
▁verteidig
▁durcheinander
▁anpassung
rakete
▁südlich
gebühr
produzent
▁einschränkung
brüche
▁alzheimer
▁ignorieren
▁howard
▁aussterben
▁schief
▁distanz
▁kuchen
▁konstruktion
▁whit
regung
▁gerede
▁verhindert
▁reif
▁gefüllt
möglich
▁bang
▁ethnische
▁technolog
▁20.000
▁pazifik
▁nutzer
küste
▁leder
▁verteilen
▁güter
▁ratten
schild
▁kiste
▁urban
▁aufzeichnung
▁lud
▁widm
▁psychische
eben
▁erscheinung
▁sexuelle
▁gri
▁anfühl
▁gerüst
▁vorgestellt
▁gefolg
obby
▁lieder
▁erledigt
mitten
span
▁klo
aktivist
nullsummen
spül
▁beschleunigt
▁business
▁cambridge
▁florida
▁muslimische
▁nährstoffe
▁schlagzeile
▁thunfisch
▁tränen
▁vietnam
▁vulkan
▁weiterentwickel
▁schwamm
▁notiz
ovember
▁erkunden
▁chor
▁grausam
▁partnerschaft
▁watt
▁koran
▁media
▁elektronen
▁betreffen
zeitraum
▁okto
säure
▁zeitschrift
student
strategie
feuer
▁unterhalten
▁zurückkommen
▁erheb
▁vergleichbar
web
▁cap
direktor
▁verwalt
energieverbrauch
dex
▁verlor
11
▁mac
▁vorkommen
▁spin
▁schwanger
täuschen
▁anstrengung
▁behinderung
▁glühbirne
▁hollywood
▁muslime
▁optimismus
▁verknüpft
schüchter
▁balance
▁vielfältig
▁getestet
▁meeting
▁hormon
▁geöffnet
▁käme
plikation
kanäle
▁ungleichheit
▁menschlichkeit
▁mücke
gefertigt
zoom
▁weltbank
▁herab
▁tony
▁unterrichtet
verbindung
strecke
version
show
phase
anda
stock
▁meta
▁grösser
▁mist
▁demokrat
▁sicherstell
ember
▁hill
▁allzu
rückkehr
gefäß
▁involviert
▁kohlendioxid
▁völker
▁zentimeter
▁üben
▁tedtalk
stadium
▁motiviert
▁gestaltung
sensor
▁klingen
▁treppe
gestimmt
krabbe
lizenz
zyklus
▁datenbank
▁1950
forderung
▁schwerkraft
▁verdoppelt
▁lebensraum
▁schmerzhaft
▁romantische
▁rasse
▁hindernisse
▁antreib
▁französische
berater
mächtig
▁gore
gehört
▁dreieck
probe
werkzeug
▁betreten
thema
▁euer
▁abbau
zeigen
▁fakt
▁grob
wahlmöglichkeit
ziehung
▁repräsentier
gemäß
detektor
krankenschwester
▁alkohol
▁ignoriert
▁pfeif
▁schizophren
▁synchron
▁überwältigend
▁konkret
▁mittagessen
▁phosphor
▁ermutigen
▁verborgen
▁präzise
▁rollstuhl
▁akteur
▁terroristen
▁gates
blume
▁ausreichend
meldung
▁blitz
bronx
▁fischerei
▁elementar
▁taub
zählen
dämm
▁ungleich
▁mega
▁gegenstand
▁big
▁packt
▁wandert
15
▁eröffne
rief
kampagne
märkte
glück
▁sang
▁angreif
▁yea
streben
▁umfrage
▁bay
▁niedriger
▁künstlerische
wal
▁bob
▁ray
▁mahlzeit
knüpfen
▁atemberaubend
▁außerirdische
▁berührung
▁flughafen
▁hügel
▁simple
▁säugetiere
▁wähler
▁hilfsmittel
▁verzweifelt
▁befriedig
trockne
▁gewähr
▁umfassende
▁south
▁produktivität
▁blue
▁palm
▁anzuschauen
▁pocken
▁kunstwerk
▁zusammenhäng
▁analogie
liegende
▁newton
▁50.000
▁treu
▁abschnitt
▁leise
▁mobile
▁übersetzung
sache
gärt
element
▁lieb
teilchen
▁streich
▁russ
▁komplizierter
pflanzt
▁fehlende
aufgabe
▁stich
▁aufmerksam
▁raub
stühle
▁definitiv
▁empathie
▁getreide
▁interpretation
▁taliban
▁töchter
▁besaß
▁etablier
▁großvater
▁priorität
▁simulier
▁trainieren
▁größenordnung
geschätzt
▁linear
▁archiv
▁richtet
▁passiv
▁fußball
▁genetik
▁nackt
▁mutation
▁erlangen
▁individuum
▁reichtum
▁kleider
schaltet
▁vertrieb
finanzierung
▁hochzeit
food
bedingungen
partner
firmen
▁versehen
stift
virus
▁elend
▁urteil
macher
▁mari
▁senke
▁blockier
beamte
kammer
ologische
▁mono
▁nick
▁künstlich
▁held
elli
hülle
▁akzeptiert
▁anwälte
▁brilliant
▁fügt
▁gelähmt
▁gesünder
▁gletscher
▁hühner
▁löwen
▁phantom
▁unklar
▁verheiratet
▁äthiopien
▁bewirkt
▁installation
▁vertikal
▁unterscheidet
▁cyber
vertreter
▁trainiert
▁animation
▁unheimlich
▁pumpe
▁obdachlos
zettel
▁widerspruch
konzern
▁verbrennen
ößt
▁reiz
▁liest
▁autorität
▁black
▁flut
▁frühling
note
▁schwelle
▁abgeschlossen
▁verarbeiten
▁berechnet
▁türke
abhängig
molekül
mitglieder
prinzip
▁anspruch
revolution
▁schreibtisch
wurzel
▁geling
arzt
▁weitermache
▁rio
kampf
▁jh
sekunde
▁formel
hört
▁kev
down
▁verbraucher
einkommen
fra
▁2,
▁sequenzier
frucht
▁königin
▁korea
hören
▁dopamin
▁knopf
▁korallenriff
▁abraham
▁attraktiv
▁bakterium
▁fütter
▁kompromiss
▁paradox
▁spektakulär
▁unangenehm
▁stieß
▁überqueren
▁glatt
herangehensweise
gehoben
▁konstant
▁schnapp
▁tiefsee
▁heilung
▁henry
▁stoffwechsel
▁generell
▁voraussetzung
▁arbeitsplätze
▁export
▁verletzlichkeit
▁unsicherheit
▁kapitalismus
▁materielle
▁herkunft
zubringe
▁ekel
▁kunststoff
▁holte
▁durchmesser
▁moore
▁33
▁verfügen
▁optische
▁versammel
▁wahnsinnig
▁verhandel
▁auseinandersetz
▁zahlreiche
sektor
medizin
gebrochen
geschrieben
▁beschränk
wissen
fried
horn
landschaft
▁wall
einrichtung
level
▁passend
▁erzähl
▁diplomat
wald
▁journal
▁güte
▁freizeit
block
▁erfreu
▁verdoppel
geschaltet
▁mott
schütteln
▁expedition
▁fortgeschritten
▁gigantische
▁kontrovers
▁kühe
▁selektion
▁weibchen
▁apfel
▁benannt
▁verringern
▁käse
▁methan
▁ipod
▁abweich
▁glamourös
▁flagge
▁cousin
▁schott
▁selbstmord
▁ruder
▁statistisch
▁geformt
▁stabilität
▁supermarkt
▁brian
▁zelt
▁elite
▁riff
▁gegenstände
▁gewissermaß
▁tv
▁strahlen
▁massa
▁garage
▁olympische
figur
fleisch
signal
ju
strahlung
▁800
▁chr
klang
▁historisch
ebru
▁lüg
▁herauskomm
halle
achtung
▁jane
herrschaft
▁funktionierende
gängig
kritik
müde
▁antarktis
▁erstaunt
▁konstruiert
▁oxytocin
▁pharma
▁transparent
▁tänzer
interface
▁entwarf
▁optimier
▁primitiv
▁bestraf
▁kalorien
▁entropi
▁republikaner
▁riskier
▁versetzt
isation
▁knoten
▁regal
▁solarenergie
▁automobil
truppe
▁königreich
▁zehntausende
▁peinlich
▁frühstück
▁gewässer
▁umfasst
▁rasch
▁sturm
operieren
▁unrecht
▁mord
paket
▁mischung
äuber
▁weck
▁restliche
weist
▁jeff
zität
bewusstsein
▁tru
▁erheblich
▁umkehr
▁planung
widmet
motiv
▁def
dose
▁schickt
▁55
▁erneuer
▁glamour
▁delphin
▁eingeschränkt
▁geometrie
▁konzentration
▁lincoln
▁sorgfältig
▁tsunami
▁verzweiflung
▁wörtlich
▁gegner
▁sensib
▁atheist
▁zeile
▁vieh
▁umwandel
▁motivieren
transplantation
illiard
▁fettleibigkeit
▁1,5
▁manager
▁segel
▁tiger
▁litt
▁192
mechanism
▁jedermann
▁fuss
handlung
▁elf
lektr
maß
sequenz
pläne
geheimnisse
titel
▁befolg
▁giftige
▁existierende
▁marine
kunst
▁erkrank
▁sorte
▁spritz
▁experimentieren
flüge
▁state
▁atlant
käufe
kriminalität
toleranz
▁auswählen
▁begegnet
▁beschleunigen
▁bewältigen
▁dschihad
▁feuerwehr
▁jäger
▁portrait
▁potentielle
▁primaten
▁stattfand
▁treibhausgase
▁ultimative
▁zerbrechlich
▁ethik
▁regime
▁stickstoff
▁verabschied
▁termin
▁längst
▁zehen
▁architektonisch
▁versagt
▁ueber
▁blöd
▁tropfen
▁voraussagen
▁beschützen
▁probiert
▁akademische
▁immun
▁verboten
▁immunsystem
▁stunt
▁atomenergie
geholt
▁schenken
▁ausgezeichnet
▁minimal
▁pfad
▁informiert
▁panik
▁konsumieren
trunken
▁route
▁bildungssystem
▁rauf
▁zweieinhalb
▁rosa
▁ameise
▁markiert
tschaftswachstum
fäng
ellig
▁derzeitige
▁unerwartete
gespräch
analyse
viertel
verständnis
roboter
▁vertrag
▁85
gelaufen
behandlung
saal
▁bereitet
▁brillante
▁gewiss
▁loszu
▁kosmo
▁ablauf
werden
▁handwerk
taste
getränk
▁bizarr
▁gestohlen
▁nirgendwo
▁nördlich
▁pizza
▁shanghai
▁stärkste
▁synthetische
▁ultraschall
▁verfügt
▁andrew
▁behauptung
▁reporter
▁servier
gesteckt
▁versorgt
▁wohlhabend
▁wahrhaftig
▁jazz
▁vorlesung
▁regenwald
▁urheberrecht
▁biosphäre
▁geschäftsmodell
▁hausaufgabe
▁weizen
▁euro
▁fotografieren
▁freundschaft
▁comp
▁poly
▁ideo
▁durchführt
▁entscheide
▁grand
gebildet
rennen
▁schnellste
tiefst
erfahrung
▁grösse
materialien
beziehung
▁beobachte
faser
wich
brenn
guck
▁letz
▁verrate
▁wochenende
sinnig
▁anhör
▁republik
gläubig
unterbrochen
▁august
▁ausgestorben
▁beeindruckt
▁differenz
▁fröhlich
▁gewohnt
▁gravitation
▁jüdische
▁luxus
▁scott
▁übel
▁demonstration
▁konversation
▁nelson
▁stephen
▁zuhörer
▁pandemie
▁grösste
▁verstecken
▁protozelle
▁kosmische
▁heiz
▁würfel
▁gitter
▁redner
skript
▁klappt
▁sonntag
▁mitleid
▁gedruckt
▁barriere
▁hervorruf
▁kluft
▁albert
▁verschick
▁hacker
▁hong
▁jahrelang
▁unsicher
▁ufer
▁besprech
▁unabhängigkeit
▁lego
▁aktuell
▁hals
abdruck
▁unfälle
▁3.000
▁mytho
▁uralte
▁besorg
▁bringe
▁allererste
blog
ingenieur
experiment
papier
flügel
freiheit
box
dimensionale
▁sach
▁rente
wendung
▁neueste
▁fliegende
▁rose
▁betrag
▁schmi
ison
rotten
uhr
protokoll
▁ausländische
▁beschädigt
▁engagement
▁explodiert
▁kriminelle
▁richtlinie
▁earth
▁erwischt
▁feynman
▁gandhi
▁melodie
▁silicon
▁wohltätigkeit
▁amateur
foundation
▁chaotisch
▁detailliert
▁beleuchtung
▁larry
▁america
▁tiefgreifend
▁verpflichtung
▁bequem
▁bundesstaat
▁anwalt
▁insekt
▁bestäub
▁verwirklichen
▁treffe
▁kandidaten
▁zustimmen
▁drückt
klebt
▁behörden
▁unterschätz
▁surf
▁denkst
▁johnson
▁entschuldige
paar
▁drahtlose
▁behindert
▁ironisch
bericht
▁überwachung
▁spanisch
▁packen
verschwendung
▁tiefste
willig
▁realistisch
▁alltägliche
sparen
höhe
rausch
▁unbekannt
spiegel
situation
flugzeug
gesagt
zehn
luft
kugel
▁mau
triff
fahr
▁sea
▁hyp
schiff
sahara
▁herzlich
▁beunruhig
▁draht
▁betreib
▁pinguin
stimul
rwärmung
▁antibiotika
▁assoziier
▁beschaffen
▁cloud
▁cricket
▁gelegentlich
▁hawaii
▁bewiesen
▁bewerb
▁bzw
kortex
▁börse
▁thermo
▁daniel
▁prinz
▁streng
oxid
▁teller
ji
▁rannte
▁robust
▁mandela
▁mentor
▁ruin
▁aufgezeichnet
▁mount
▁dampf
▁klänge
▁jesus
▁wörterbuch
▁beantwortet
▁kino
▁autobahn
▁notwendigkeit
▁kindersitz
▁fassen
▁festhalten
town
▁bewohn
▁gesucht
▁sendet
▁wandern
▁freitag
saison
wahl
ökonom
gesundheit
unterschied
information
▁personalisier
lzt
▁diplomati
chu
▁verricht
gefordert
speis
▁marc
▁frag
musik
reflex
kollaps
schlussfolgerung
▁allgegenwärtig
▁arzneimittel
▁benjamin
▁clinton
▁erschwinglich
▁eventuell
▁großeltern
▁konkurrieren
▁rückwärts
▁transformation
▁vergewaltigt
▁zigarette
▁göttlich
▁langlebig
▁ordentlich
▁verbrannt
▁orbit
▁verarbeitet
▁alpha
▁herbst
lässig
▁universal
▁ablehn
▁bären
▁bausteine
▁sexual
▁jones
▁erlaubnis
▁arbeitsplatz
▁sensoren
▁fallschirm
▁betrug
▁platten
▁tempel
adresse
▁wahrgenommen
▁long
▁ansah
gereist
▁unschuldig
▁feder
▁29
▁legal
berechtig
ridge
entwickler
▁ordn
▁who
▁anliegen
▁reiß
▁hebel
▁wund
▁hoffnungslos
chip
▁lunge
▁regionale
stärke
antwort
filter
blätter
verteilung
besitz
▁häufigste
ergebnisse
generation
▁russische
▁friedlich
köpf
vollzieh
▁riesig
messung
▁französisch
▁basieren
▁entsetzlich
▁erläuter
▁ermutigt
▁fledermäuse
▁hungrig
▁hüfte
▁künste
▁physiologi
▁premierminister
▁project
▁verwirrt
▁willkürlich
▁liberale
▁angewendet
▁spanien
▁externe
▁applau
▁daneben
▁filmemacher
▁mitfühlend
▁brutal
▁erschreckend
▁wohnzimmer
▁schweben
atmet
gemischt
▁leih
gelöscht
▁nebel
▁seti
▁48
▁intim
▁zusammenbruch
▁vorherige
▁camp
kämpft
rechner
glaubt
zweck
▁kritisch
▁witzig
wände
bieten
rücken
▁bewegende
rüstung
gua
klopf
▁tätig
▁moskito
▁bemühen
▁beängstigend
▁errichtet
▁götter
▁joshua
▁konkurrenz
▁rückenmark
▁sklaverei
▁umgewandelt
▁virginia
gläser
▁populär
▁wright
▁griechen
▁indonesi
▁lateinamerika
▁meeresspiegel
shirt
▁kritiker
▁variable
▁zusammenfassen
sprochen
▁wertschätz
▁monster
▁erdöl
▁erdgas
▁truppen
äumt
▁rückseite
▁email
▁zirk
▁fördert
▁montag
▁taxi
▁männlich
▁46
▁make
gegriffen
▁lacht
▁wiegt
▁raster
▁spart
statue
konto
wood
sammeln
verhältnisse
gurt
bühne
bänder
▁objektiv
▁stu
empfänger
helm
▁grenz
reihe
▁spann
▁verletzlich
anthrop
▁flüchtling
▁buddhis
▁elektromagnet
▁glüh
▁halluzination
▁verdeutlich
▁verstorben
füllung
▁anerkannt
▁april
▁beeinträchtig
▁bestätigt
▁bräuchte
▁cartoon
▁idiot
▁investoren
▁joseph
▁konstruieren
▁koordinier
▁münze
▁unvorstellbar
▁zeitgenössische
▁ähnelt
▁gesunken
▁leinwand
▁aristotel
▁charlie
▁vorgehensweise
psychopath
▁frosch
stürzen
▁parasit
▁verabreich
▁minus
▁anschließend
▁action
▁hmm
▁nervensystem
▁atlantik
▁raumschiff
▁fox
▁grundschul
▁veranstalte
automat
▁hemd
▁logo
▁tauschen
▁markieren
sauce
▁chirurgie
▁ultra
gefasst
▁pink
▁mike
antwortet
▁luc
▁zusammensetz
sandwich
volt
▁integrier
▁geringste
▁bestehende
mpt
▁agieren
▁kollege
▁hervorbring
chirurg
frequenz
künstler
blatt
gearbeitet
klick
moment
drehen
spezialist
psycholog
▁act
▁ash
▁hea
▁zugrunde
▁bemühung
sprüche
▁begegnung
▁dilemma
▁empfehle
▁früchte
▁hardware
▁herkömmliche
▁kristall
▁leonardo
▁räumlich
▁schöpfer
▁vernachlässig
▁hektar
▁verringert
▁woanders
▁clip
▁erwerb
▁kritisier
▁dächer
▁subtil
▁greifbar
▁nebenwirkung
▁nordpol
▁wildnis
▁spender
▁bieg
nerzähler
▁mix
hindert
▁krebszelle
fragment
▁leidet
schutzgebiet
jagt
fuhr
▁fortsetz
▁hochschul
dynamik
stuhl
rahmen
bleiben
kurve
▁grundstück
text
▁folter
spuren
schildkröte
▁aggressiv
▁angiogenese
▁ausgestattet
▁buddha
▁county
▁embryo
▁gewalttätig
▁instinktiv
▁lebensunterhalt
▁registrier
▁trommel
▁vakuum
▁verletzen
▁ansteckend
▁gedeih
▁verdräng
▁helium
▁dvd
▁zuverlässig
▁panzer
▁north
▁schweigen
▁priester
▁flucht
agentur
etikett
▁sänger
▁identifiziert
▁zutaten
▁verschaffen
▁stachel
scanner
▁iq
▁notfall
▁zusammengefasst
implantat
▁standort
▁kerze
▁raumfahrt
▁bevorzuge
▁free
▁digitalisier
▁eigenartig
kapsel
▁musikstück
▁2,5
wirkung
▁ressource
potent
eimer
speicher
bürger
museum
familie
nummer
steigerung
mauer
▁steigende
▁cu
▁ökologi
kontroll
▁feucht
▁öko
▁alphabet
twicklungsländer
▁durchdring
schränke
▁proportion
veröffentlichung
▁ausgedrückt
▁ausprobiert
▁carolina
▁demonstriert
▁erweiterung
▁kälte
▁kühn
▁mcdonald
▁mumbai
▁optimal
▁völkermord
▁transistor
▁zeitspanne
▁everest
▁tendieren
▁drastisch
▁östlich
▁leistet
stream
▁heftig
▁angeblich
▁agenda
▁arthur
▁stirn
zeremonie
▁veranlass
▁stimm
▁schwangerschaft
▁kopiert
▁tabelle
▁harmonie
▁hafen
▁trost
▁quadratmeter
▁saudi
▁zitiere
▁scherz
▁konventionelle
▁söhne
▁abgelegen
▁strich
▁daumen
▁instabil
▁schockierend
screen
▁wiki
▁indus
▁abschneide
schnecke
▁authentisch
förmig
▁schliess
▁beschrieb
▁nutze
▁mathematisch
▁these
▁empfinde
▁vorhersage
▁experimentelle
▁besetz
rohr
prall
operation
risiko
foto
kommunikation
himmel
abschluss
zubilden
▁unerwartet
gras
▁satt
erfolg
nehmer
weisung
programmier
kolleg
wurf
▁absorbier
▁bahnbrechende
▁beherrschen
▁connectome
▁ehrgeiz
▁frustriert
▁geographic
▁hybrid
▁kartoffel
▁referenz
▁reflektieren
▁rezession
▁schmeckt
▁tansania
▁erleichter
▁fiktion
▁wiederaufbau
▁2020
▁redwood
▁transformieren
▁gänse
▁absurd
▁einsetzt
kompetenz
▁enzym
▁bestechung
▁agrar
▁beseitigen
▁koffer
▁fusion
▁tragbare
▁tugend
▁vorbereitung
▁waisen
blöcke
▁myzel
▁begründet
▁gelungen
▁recycling
▁koennen
▁verlink
▁innenstadt
▁trinkwasser
▁gewehr
▁sprang
grube
▁schädlich
stellige
▁immens
▁tunnel
▁voranzu
ventil
scheide
▁bedingung
zuarbeiten
schwärme
▁sexuell
metall
menschliche
abgeordnete
fäl
▁beinhalte
religiös
▁bach
täter
▁wahnsinn
dosi
rührt
▁geolog
histori
sprüh
▁enthusias
▁kyros
▁bestätigen
▁demonstrieren
▁empfangen
▁hühnchen
▁kambodscha
▁katastrophal
▁kontinuierlich
▁kopenhagen
▁kostengünstig
▁mysteriös
▁paradigma
▁robotik
▁stewart
▁tastatur
▁vitamin
▁asthma
▁befürchte
▁sylvia
▁wilson
szenari
▁audio
▁beurteilen
▁parkinson
▁beruht
gräb
▁verschwendet
▁gespeichert
▁tattoo
▁beratung
▁kreation
▁krähen
▁irrational
▁keller
▁stört
▁andauernd
▁verdau
helfer
▁spezialisiert
▁biomasse
▁ibm
▁simon
▁überschreite
umweltfreundlich
▁fortpflanz
▁kraftvolle
▁homosexuell
▁kuba
▁einflussreich
geschoss
▁beunruhigend
▁lehm
▁leistungsfähig
versuch
hauen
▁antenne
▁chirurgische
imitieren
▁nachweis
fächer
zählt
▁meile
▁bunt
haufen
verletzung
büro
sozial
liefert
▁psychisch
▁mechani
▁paradi
▁südamerika
▁geografi
findung
campus
bekämpfung
▁1,2
▁alexander
▁allmählich
▁bangladesch
▁bündel
▁depressiv
▁eingebettet
▁geleistet
▁griechische
▁highschool
▁minderheit
▁reduktion
▁shakespeare
▁smartphone
getaucht
▁auslöst
▁bewaffnet
▁intervention
▁kollision
▁louis
▁replizier
▁schätzt
▁ungeheure
▁verdächtig
▁gattung
▁health
▁garantiert
▁senior
▁rabbi
▁frösche
▁delhi
▁primär
celsi
▁plakat
▁gründlich
▁streitgespräch
▁berlin
träumt
▁dirigent
▁problematisch
▁stören
stimulation
▁ausbreiten
einsparung
▁puls
seitige
schärfe
vermeid
orientierung
kabine
▁betreu
▁schmutzige
▁schnittstelle
klammer
▁fasst
schlauch
forscht
tödliche
▁konsequenz
▁täte
beutel
▁glob
print
▁bundes
allererst
▁jeweilige
rezept
population
schieß
ernährung
mädchen
fehler
niveau
starrt
▁hinausgeh
handschuh
▁freud
klären
stange
▁virtuell
kandidat
▁errungenschaft
▁veranschaulich
▁verschmelz
fakultät
lüfte
▁bergsteiger
▁betrüger
▁endgültig
▁grönland
▁lähmung
▁mammographie
▁netzhaut
▁entschlüssel
▁überquert
▁doodle
▁komponist
▁chronische
▁waschmaschine
▁relation
▁erwecken
▁lebensstil
▁story
▁bearbeitet
▁essentiell
körner
▁sarah
▁formuliert
▁wußte
▁aufrichtig
▁säulen
▁tesla
▁knall
▁garantiere
▁silber
▁widerspiegel
▁befreit
▁älterwerden
▁kosov
▁solarzellen
▁puppen
▁antikörper
geachtet
▁wiederherstell
gehörigkeit
dyna
▁fruchtbar
▁hirte
▁artenvielf
amerikaner
▁anwesend
▁susan
▁kratz
beugen
▁kollektiv
▁beiträg
pflege
▁statisch
▁loswerde
verhältnis
▁verliere
wälder
infektion
zauber
quat
bohr
▁hingeg
drehung
▁verschreib
▁hindernis
strömt
entzündung
flüster
ästhetik
▁aufklärung
▁demütig
▁herzinfarkt
▁humanitäre
▁multiplizier
▁provinz
▁reflektiert
▁regulierung
▁unterhaltsam
▁unzählige
▁urlaub
▁ursprünge
▁verzeih
▁anspruchsvolle
▁bananen
▁vernetzung
▁erschuf
▁knack
▁ostküste
▁empir
splitte
cluster
▁meeresboden
▁geschäftsführer
▁todesfälle
▁rechenschaft
▁gemalt
sturz
erzeugung
getan
stoss
potenz
meisterschaft
▁sprech
zähler
schlug
wörter
software
gezeigt
blind
fenster
einigt
zeugnis
prozentige
201
▁alltäglich
schliessen
▁ethanol
▁vernunft
regisseur
verschiebung
▁aluminium
▁anderthalb
▁apollo
▁brooklyn
▁chemotherapie
▁child
▁cholera
▁comedy
▁dominiert
▁enttäuscht
▁frustration
▁gescheitert
▁gespür
▁gewünscht
▁infrarot
▁maximal
▁monterey
▁neuseeland
▁passagier
▁sebastian
▁signifikant
▁sputnik
▁symphonie
▁veteranen
bilanz
▁chemiker
▁herausragend
▁permanent
▁primzahl
▁überholt
fresser
▁schlamm
▁vertief
▁ideologie
assistent
▁banjo
cortex
▁gründung
▁rosling
▁szenario
▁lippen
▁gecko
ctus
▁wuerde
generator
verkäufer
▁sonderbare
▁eigenständig
siedlung
▁nigerianische
view
▁wurm
▁schützt
house
grove
▁verdreh
ough
▁wegwerf
▁speise
▁umdreh
zusamm
bf
positiv
kredit
geräusch
fotograf
kreuz
professor
verlust
▁trank
▁bereitstell
▁computerspiele
▁unterzeichne
▁skep
qual
▁empfand
▁intellekt
▁membran
▁subvention
▁verwundbar
katalog
künfte
square
▁annähernd
▁ausüben
▁babbage
▁beherrscht
▁bewerkstelligen
▁bonobo
▁canyon
▁gespannt
▁indirekt
▁introvertiert
▁jerusalem
▁jupiter
▁präfrontale
▁regulieren
▁schmelzen
▁seattle
▁synapse
▁verkleiner
▁ägypter
volumen
▁2030
▁unterdrückt
▁anatomie
▁intensität
▁kokain
▁walmart
▁tibet
▁verpackung
▁wohlergehen
▁vorsitzende
▁tomaten
▁gieß
▁power
▁killer
▁albern
▁wechselwirkung
kaninchen
▁implantier
▁förderung
▁unberührt
▁mobilisier
▁nachdachte
▁erhitz
freak
▁deuten
▁privatsphäre
▁east
▁gezielt
wärmt
gesperrt
bearbeitung
▁sauer
▁raubtier
gepackt
▁steril
erblichkeitsrate
▁vorantreib
datei
wärme
feuchtigkeit
brücke
gestanden
▁vergess
guru
▁ziehe
täuschung
restaurant
objekt
perspektive
▁zoo
▁übernimm
▁ironi
würm
strömung
ausrottung
bombenzielgerät
cocktail
▁beerdigung
▁beschäm
▁exemplar
▁fesselnd
▁höflich
▁kurzfristig
▁pestizid
▁prognose
▁psychiater
▁reputation
▁singapur
▁verdreifach
▁vereinfacht
▁verheerend
▁verwunder
▁widersprüchlich
▁wiederholung
▁wortwörtlich
▁überwältigt
▁beherberg
▁bosnien
▁eröffnung
▁helikopter
▁jefferson
▁jordan
▁mobilität
▁schadstoffe
▁tedglobal
▁verschlechter
▁remix
schöpft
schöpfen
▁recherche
▁skizze
▁kontrast
▁schatz
anbieter
▁gefeiert
▁universen
▁informieren
▁probanden
▁milchstraße
klassifizier
▁informatik
▁neurologische
▁gesang
▁verhaftet
▁zorn
▁honig
töpfe
▁damalige
▁skeptisch
▁einheimische
ometrische
▁jahrtausende
▁niedlich
▁kasse
trasse
▁arktische
nährt
▁osteurop
sharing
schreibung
▁abhol
▁koralle
▁bedenk
verkauf
studio
bedarf
wettbewerb
hälfte
konsum
blau
gelernt
▁nütz
transfer
▁schmutz
▁tempe
▁korrupt
defizit
fühlungsvermögen
klässler
manipulation
schüttelt
▁1,3
▁beauftragt
▁berkeley
▁diktator
▁hürde
▁krokodil
▁libanon
▁montana
▁namibia
▁neanderthaler
▁palästina
▁phoenix
▁potenziell
▁rekonstruier
▁tyrann
▁vermächtnis
▁verzerrung
▁vogelgrippe
▁wellenlänge
▁wolfram
▁öffnung
▁akademiker
▁fußgänger
▁geschwister
▁powerpoint
▁stolper
▁athlet
▁ebay
▁nachahmen
vielversprechend
▁katholische
▁insulin
▁empor
▁gummi
▁kanadische
▁social
▁libellen
▁kelly
▁spreng
▁undeutlich
▁barrel
▁oliver
▁schwingung
▁deutet
schraube
segment
▁beachtlich
▁erhob
▁ausbeut
schüttet
invasiv
▁würmer
fonds
vertrauenswürdig
▁einerseit
folgsgeschichte
fieber
puppe
liegt
▁kognitiv
bevölkerung
deckung
architekt
zweifel
magazin
konflikt
vögel
schüler
interesse
präsident
fordert
▁vornehm
▁bekomm
▁analog
▁bestreb
symptom
drohung
anstalt
akademi
engineering
nobelpreisträger
stipendium
stündige
verstümmel
▁akzeptanz
▁aquarium
▁ausbreitung
▁düne
▁dürre
▁frustrierend
▁hamburger
▁handgelenk
▁hawking
▁jonglier
▁klüger
▁komfort
▁kühlschrank
▁legitim
▁meditation
▁propaganda
▁prostatakrebs
▁ruhm
▁skelettmuskel
▁spaghetti
▁symmetrische
▁thailand
▁therapeut
▁vereinfachen
▁zittern
▁übereinstimmen
▁astronaut
▁drängt
▁empfindung
▁favorit
▁fixiert
▁minerali
kolonial
▁bildhauer
▁fraktale
▁selbständig
▁einkaufen
sponsor
▁verbrennung
▁watson
▁royal
▁mythen
spaltung
▁nächte
▁vermutung
▁donner
▁harmlos
▁blutgefäße
▁drachen
▁polymer
▁stockwerke
▁zitiert
▁verrät
▁huhn
sylv
▁solide
stoppt
ivilgesellschaft
▁fungi
▁überraschen
▁hervorheb
▁welch
plattform
komplex
training
entscheidung
basis
grafische
aussage
▁aufweis
▁zusammenkomm
reduzier
ektivität
gemütlich
träglich
zündet
▁absolvier
▁analysis
▁bemüht
▁cyberkriminelle
▁deprimiert
▁düstere
▁eliminier
▁gouverneur
▁himalaya
▁knochenmark
▁korrigieren
▁lotterie
▁multinationale
▁mysterium
▁phantasie
▁quantenmechani
▁selbstvertrauen
▁ushahidi
▁verbündete
▁äquator
qaida
▁ausgerottet
▁beseitigt
▁fluktuation
▁football
▁glänzend
▁gänzlich
▁mikrofon
▁todesstrafe
▁unnötig
▁unterirdisch
▁unterscheidung
▁österreich
▁alaska
▁historiker
▁verminder
▁prophet
▁resistent
▁erholt
verfolgung
▁aufgeteilt
▁veraltet
▁oscar
▁ipad
pistole
brunnen
tablett
▁maßstäbe
▁leugn
▁klient
▁nutzlos
▁genuss
▁bmw
▁jetzige
▁smart
▁imitiert
▁authenti
▁server
gehängt
moeglich
drohne
▁erleide
▁belaste
beschwerde
erregend
▁tabu
▁rasier
▁vergeb
▁angehör
bedeutend
epidemie
klinik
mütter
bäume
helfen
widerstandsfähig
▁freisetz
weitaus
ffizienz
wässer
▁pessimis
gestützt
▁begrüßt
▁brokkoli
▁checkliste
▁edward
▁fledermaus
▁goliath
▁isolation
▁knöpfe
▁kupfer
▁nordkorea
▁pittsburgh
▁verärgert
▁zipcar
▁ähneln
▁ästhetische
▁ölkatastrophe
anästhesie
▁bösartig
▁erstreckt
▁gespendet
▁interagiert
▁migräne
▁nichol
▁psyche
▁superheld
▁sämtliche
▁unausweichlich
▁unbegrenzt
▁verkürz
▁vorhersehbar
▁zeitraffer
▁besiegen
▁eisbär
▁jacque
▁unvermeidlich
▁befreiung
▁kennedy
glanz
▁margar
▁akzent
▁gefaltet
▁kalender
gordon
▁fürchterlich
▁regenerieren
▁sensorische
▁hoffnungsvoll
▁automatisier
▁ikone
▁niederlande
sonderlich
▁moschee
▁drama
zulerne
stäb
▁rassis
dating
siedeln
verschmutz
▁widersteh
▁stringtheor
▁erkläre
löcher
geschickt
wunsch
freude
▁olymp
▁herunterlade
▁arktis
▁tunesi
haltige
▁bevölker
fühlst
▁konstrukt
schmeiß
geklärt
getäuscht
minütige
simulator
tifikation
▁anstrengen
▁beschleunigung
▁columbia
▁dylan
▁einkaufszentr
▁ermordet
▁fellow
▁gefälscht
▁hartnäckig
▁ignoran
▁illustrier
▁konzipier
▁kultivier
▁nairobi
▁pipeline
▁recherchiert
▁teszler
▁unfair
▁venezuela
▁äquivalent
▁übereinstimmt
plünder
puzzle
▁biolumineszenz
▁entspannt
▁fitness
▁mönch
▁riskant
▁schnurrbart
wkins
▁anthropologe
▁mozart
▁verweiger
▁wäsche
▁mikrobielle
▁vereinigung
dehnung
▁heilmittel
▁norwegen
▁album
▁graham
▁unvermeidbar
▁kumpel
▁schoß
▁vernichten
▁exotische
▁ränder
▁polarisier
▁moskitonetze
▁christus
▁dreißig
▁einverstande
▁ferien
▁klischee
▁belastbar
▁koreanisch
▁christliche
onald
▁beliebteste
▁anpassungsfähig
▁neurale
atraz
mobil
▁radiolog
genutzt
▁auswirk
▁landesweit
▁empfäng
▁erfinde
▁beheb
▁soldat
persönlichkeit
konzept
batterie
grafik
geburt
▁demokratisier
klettern
betreuung
▁fettleibig
▁unterdrückung
abwärts
gestürzt
gürtel
hölzer
mühle
schmuggel
▁akkord
▁altmodisch
▁auswendig
▁beethoven
▁blutgefässe
▁cameron
▁druckerpresse
▁dünger
▁edinburgh
▁explodieren
▁favela
▁franzose
▁improvisation
▁improvisieren
▁kollaborative
▁monument
▁natasha
▁neandertaler
▁oberflächlich
▁oecd
▁oktopus
▁orgasmus
▁philadelphia
▁prominente
▁resonanz
▁südasien
▁testosteron
▁analphabet
▁aufspür
▁begrenzung
▁lakota
▁leopard
▁liberia
▁metaphorisch
▁nektar
▁verspür
▁ausgeglichen
▁fairness
▁happy
▁schmecken
▁übereinstimmung
bewußt
▁tweet
▁ärztin
▁windows
▁quäl
monitor
▁erwider
▁nordwest
▁entdecker
▁afro
▁echo
äugige
▁gratis
▁erlitt
attacke
koppel
▁gallone
▁nutzbar
kitzel
▁importier
▁diverse
schadet
geschichtlich
wirtschaftskrise
geisteskrankheit
spritze
▁widerspreche
▁abdeck
rüstet
▁mög
▁techno
philosoph
gemeinde
disziplin
gebrauch
verändernde
zählung
▁konvention
▁lehne
▁profession
verwirklich
höfe
▁schwefel
controller
erschütterung
▁aminosäure
▁anekdote
▁bhutan
▁bleistift
▁ehrfurcht
▁folglich
▁gekennzeichnet
▁gesegnet
▁gestört
▁horror
▁hospital
▁immobilien
▁insulinresisten
▁jersey
▁kooperative
▁kopernik
▁köstlich
▁linux
▁mythologie
▁neocortex
▁network
▁patriot
▁philanthropie
▁portugal
▁princeton
▁projiziert
▁präzision
▁rehabilitation
▁renaissance
▁supraleiter
▁sydney
▁synthese
▁wandertaube
▁zweitgrößte
▁akustik
▁belohnen
▁geographisch
▁korrelation
▁prozedur
▁qualifiziert
▁reparatur
▁repräsentativ
▁seriös
▁bestmögliche
▁familienplanung
▁schüssel
▁aktualisier
▁komplikation
▁experti
▁falken
▁pension
aufenthalt
▁ausgedacht
▁indianer
▁märchen
▁ärmer
▁larven
fesselt
▁gespart
▁kometen
▁regieren
▁trivial
▁stimuliert
▁fruchtfliege
▁gekocht
tribut
▁eindrucksvoll
▁tankstelle
spray
sichtsausdrücke
▁adapti
▁vorbehalt
▁aqua
ablagerung
fühlen
insasse
▁aufbewahr
▁verlasse
erlebnis
instrument
zähne
minuten
effiziente
▁zweidimensional
▁ethni
▁überdenk
schwommen
▁rekrutier
käfig
murray
▁adoption
▁befürworte
▁belästig
▁carnegie
▁dschungel
▁dänemark
▁ergänzen
▁expansion
▁explizit
▁fortwährend
▁gitarre
▁industrialisier
▁kopfhörer
▁lithium
▁quantifizier
▁scheidung
▁sprichwort
▁synästhesi
▁taiwan
▁ticket
▁transplantier
▁verfeiner
–
?
:
&
ü
